<unk>	0
<s>	0
</s>	0
▁,	-3.01996
▁	-3.60938
▁the	-3.84448
▁.	-3.88157
s	-3.95729
的	-4.129
▁。	-4.14336
▁and	-4.40656
▁to	-4.42935
▁of	-4.51549
▁a	-4.65485
▁in	-4.80025
▁that	-4.94428
'	-5.15108
▁is	-5.23842
▁it	-5.33474
ing	-5.34813
ed	-5.45196
▁i	-5.45428
▁"	-5.59131
▁we	-5.59839
和	-5.62698
▁for	-5.70184
▁you	-5.7059
在	-5.72541
t	-5.74591
▁this	-5.79512
是	-5.79808
了	-5.82379
▁?	-5.92698
▁be	-5.98457
▁are	-6.00125
d	-6.02991
、	-6.03031
▁but	-6.03224
’	-6.03467
▁on	-6.03524
▁with	-6.05278
ly	-6.07618
:	-6.10247
▁have	-6.11564
▁as	-6.13403
▁they	-6.13941
▁so	-6.14633
▁was	-6.18339
▁not	-6.23079
有	-6.41651
▁can	-6.41777
▁by	-6.42896
▁at	-6.48685
▁from	-6.48716
▁what	-6.48915
▁我	-6.532
▁an	-6.54609
不	-6.55288
re	-6.56162
中	-6.57233
▁–	-6.59614
▁more	-6.60915
▁has	-6.61121
▁or	-6.61495
▁all	-6.61652
我們	-6.62811
上	-6.63107
人	-6.65025
我	-6.65503
▁about	-6.65914
▁their	-6.67118
▁one	-6.67536
▁there	-6.67601
對	-6.67607
▁但	-6.70235
▁us	-6.70494
e	-6.71838
▁will	-6.73179
會	-6.73954
▁do	-6.76405
▁if	-6.7671
▁我們	-6.77219
y	-6.77639
▁people	-6.79731
m	-6.8013
▁would	-6.84608
▁he	-6.85712
▁like	-6.85891
到	-6.87865
年	-6.9023
▁my	-6.90815
將	-6.91329
來	-6.9161
▁when	-6.91849
er	-6.92429
n	-6.92432
▁在	-6.92559
▁our	-6.93809
▁now	-6.96562
▁these	-6.97016
▁which	-6.97181
一個	-6.97353
▁;	-6.97678
一	-6.9847
▁world	-6.98723
被	-7.00169
你	-7.00428
地	-7.03602
時	-7.05976
▁out	-7.06276
大	-7.07206
▁just	-7.07473
▁who	-7.09968
他們	-7.10048
也	-7.10289
說	-7.10367
與	-7.10609
▁「	-7.12644
▁」	-7.12756
▁because	-7.12934
▁up	-7.13859
▁than	-7.14407
都	-7.15942
▁me	-7.16026
▁its	-7.16528
▁這	-7.17109
▁were	-7.17631
▁had	-7.18446
▁them	-7.19292
▁how	-7.19503
就	-7.221
用	-7.23154
es	-7.23376
▁been	-7.23564
所	-7.24123
▁some	-7.24198
可以	-7.24413
▁new	-7.25658
▁而	-7.25983
這些	-7.26545
▁no	-7.2667
能	-7.26948
性	-7.2719
al	-7.27488
▁other	-7.27988
▁“	-7.29736
要	-7.30268
▁time	-7.30648
這	-7.31594
ve	-7.31742
從	-7.32643
▁could	-7.32731
他	-7.34746
爲	-7.35197
▁他們	-7.35792
▁know	-7.36041
而	-7.38401
▁into	-7.40164
▁even	-7.40494
▁years	-7.40978
▁most	-7.41031
▁very	-7.41374
▁also	-7.41471
▁over	-7.41925
▁his	-7.42446
▁only	-7.42669
出	-7.42755
這個	-7.4578
去	-7.46289
▁your	-7.46909
▁countries	-7.49651
▁see	-7.50711
▁many	-7.50826
▁get	-7.5145
▁think	-7.52704
國家	-7.5313
者	-7.53411
下	-7.5344
▁你	-7.53678
它	-7.54288
▁way	-7.54858
以	-7.55078
美國	-7.55725
已經	-7.55854
▁going	-7.5699
▁then	-7.58434
更	-7.58599
▁where	-7.58668
those	-7.59201
後	-7.59966
▁first	-7.60525
於	-7.60836
或	-7.60848
比	-7.61646
▁他	-7.61786
很	-7.62389
▁make	-7.62431
過	-7.62503
▁much	-7.6254
▁well	-7.62591
▁two	-7.63063
需要	-7.63256
c	-7.63661
沒有	-7.63919
ion	-7.64346
▁should	-7.64609
▁china	-7.66299
▁really	-7.66724
把	-7.66804
開始	-7.66941
可能	-7.6704
問題	-7.67224
的人	-7.67382
▁economic	-7.67992
ll	-7.68675
經濟	-7.69222
▁here	-7.69436
多	-7.69459
▁但是	-7.70175
最	-7.70454
▁don	-7.70638
政府	-7.70666
r	-7.70937
a	-7.71017
▁所以	-7.71724
想	-7.72954
in	-7.736
著	-7.74685
▁need	-7.74714
讓	-7.75252
▁right	-7.75861
▁she	-7.76144
高	-7.76385
·	-7.76431
為	-7.77269
▁go	-7.77978
ation	-7.78868
其	-7.79556
▁un	-7.80623
得	-7.80702
做	-7.82535
▁work	-7.82763
▁global	-7.83044
就是	-7.8318
▁want	-7.83468
p	-7.83959
世界	-7.84282
斯	-7.84423
g	-7.84658
▁re	-7.84837
▁government	-7.85076
子	-7.8576
▁such	-7.85847
▁如果	-7.86007
▁back	-7.86167
看	-7.86277
▁actually	-7.86395
▁它	-7.87337
好	-7.87345
無	-7.87845
可	-7.87987
新	-7.88843
向	-7.89391
or	-7.89661
個	-7.89718
h	-7.90377
前	-7.90936
力	-7.90987
小	-7.91024
▁things	-7.91036
”	-7.9172
▁look	-7.9265
▁through	-7.92732
還	-7.92734
▁after	-7.92997
給	-7.93059
ers	-7.93259
非常	-7.93368
以及	-7.94306
▁may	-7.94407
能夠	-7.9506
▁take	-7.95704
爾	-7.95733
▁country	-7.97325
化	-7.97961
之	-7.98377
一些	-7.98426
able	-7.98709
自己	-7.99
▁her	-7.99127
▁growth	-7.99133
o	-7.99447
▁great	-8.00027
▁life	-8.00213
裡	-8.00359
.	-8.01035
▁de	-8.01207
▁political	-8.01449
歐洲	-8.01965
那些	-8.02155
▁any	-8.03029
無法	-8.0322
le	-8.03283
▁good	-8.03296
▁something	-8.04125
▁help	-8.04306
ic	-8.04327
▁little	-8.04552
▁today	-8.04584
水	-8.05059
必須	-8.05165
並	-8.05319
▁being	-8.06158
及	-8.06218
拉	-8.06488
國	-8.06759
▁did	-8.07173
工作	-8.07324
▁!	-8.07856
▁same	-8.07965
▁year	-8.08086
▁said	-8.08113
▁every	-8.08404
th	-8.08683
知道	-8.08803
▁why	-8.09124
政治	-8.09267
▁own	-8.09354
▁say	-8.09395
▁c	-8.0953
▁change	-8.09548
▁這些	-8.09884
▁”	-8.09984
天	-8.10049
▁europe	-8.10464
社會	-8.11249
▁around	-8.11521
▁power	-8.11577
▁while	-8.11758
其他	-8.1176
▁use	-8.11767
成	-8.11847
▁這是	-8.11852
中國	-8.12111
研究	-8.1214
點	-8.12411
手	-8.12681
嗎	-8.12733
她	-8.12809
▁down	-8.1316
▁last	-8.13841
家	-8.13967
那	-8.1403
頭	-8.14074
生	-8.14574
應該	-8.14637
▁war	-8.14788
▁between	-8.14982
▁system	-8.1556
市場	-8.15833
▁因此	-8.16074
▁因為	-8.16444
ment	-8.16491
b	-8.16625
一樣	-8.1674
正在	-8.1706
▁must	-8.1723
現在	-8.173
▁financial	-8.17788
▁b	-8.17831
改變	-8.18027
如何	-8.18246
▁different	-8.185
這一	-8.18507
月	-8.18635
事	-8.18991
內	-8.19112
▁thing	-8.19505
這種	-8.19672
當	-8.2033
l	-8.2045
▁important	-8.20553
公司	-8.2073
▁public	-8.20993
▁european	-8.21257
不是	-8.21266
長	-8.21317
使用	-8.21724
起	-8.21955
ity	-8.22045
進行	-8.22195
▁come	-8.22467
什麼	-8.22719
名	-8.22779
▁states	-8.23102
▁human	-8.23408
▁fact	-8.23416
▁lot	-8.23515
il	-8.23651
▁three	-8.23838
▁並	-8.23846
政策	-8.23903
心	-8.24269
▁still	-8.24314
▁too	-8.2464
▁long	-8.24709
又	-8.24731
等	-8.25147
▁made	-8.25331
i	-8.25391
重	-8.25484
▁end	-8.25873
▁part	-8.26252
克	-8.26479
任何	-8.27472
est	-8.27693
發現	-8.27998
增長	-8.28105
▁economy	-8.28289
投資	-8.28518
▁might	-8.28619
▁real	-8.28646
▁got	-8.29684
開	-8.29703
▁under	-8.30262
像	-8.30451
it	-8.30562
全球	-8.30576
行	-8.30935
▁international	-8.31069
▁let	-8.31193
▁start	-8.31449
ar	-8.31636
們	-8.31867
▁another	-8.32018
自	-8.32471
f	-8.3248
一種	-8.32596
提供	-8.32671
的是	-8.32685
再	-8.32788
它們	-8.33004
▁high	-8.33699
特	-8.33726
▁before	-8.33806
▁united	-8.33834
▁talk	-8.33896
ive	-8.34429
▁better	-8.34672
外	-8.34741
▁kind	-8.35058
▁both	-8.35169
正	-8.35235
el	-8.35285
▁example	-8.35458
▁put	-8.3567
▁does	-8.35826
li	-8.3597
動	-8.36253
▁g	-8.36301
影響	-8.36322
an	-8.36375
卻	-8.36411
▁day	-8.36417
系統	-8.36586
德	-8.36933
▁social	-8.36943
希望	-8.37063
銀行	-8.37092
分	-8.37232
不會	-8.37452
呢	-8.37517
支持	-8.37584
1	-8.37652
▁而且	-8.37766
着	-8.38025
▁policy	-8.38203
體	-8.3829
發展	-8.38351
▁000	-8.38458
-	-8.38631
我的	-8.3864
所有	-8.38936
兩	-8.38973
en	-8.39093
日	-8.39583
▁problem	-8.39718
▁現在	-8.40207
安全	-8.40497
▁become	-8.40551
使	-8.41105
不同	-8.41594
▁try	-8.41608
決定	-8.41793
▁美國	-8.41877
▁far	-8.41966
我們的	-8.42487
▁state	-8.4264
跟	-8.42925
▁co	-8.43376
▁當	-8.4342
計劃	-8.43547
組織	-8.43604
並不	-8.43729
▁事實上	-8.43834
的時候	-8.43862
時間	-8.43871
光	-8.43877
得到	-8.44089
▁less	-8.44548
▁america	-8.44734
你們	-8.45071
只是	-8.4598
學	-8.45999
加	-8.46052
解決	-8.46335
只	-8.46676
▁crisis	-8.46799
ur	-8.47094
▁d	-8.47219
人們	-8.47227
完全	-8.47233
▁each	-8.47274
▁find	-8.47449
選擇	-8.47865
x	-8.48008
危機	-8.48177
來說	-8.48331
ra	-8.48367
法	-8.48466
▁called	-8.48569
權	-8.48629
▁few	-8.48713
▁future	-8.48787
已	-8.48889
由	-8.48959
低	-8.49025
通過	-8.49049
發	-8.49083
▁large	-8.49606
w	-8.4966
量	-8.49692
三	-8.4991
存在	-8.49955
都是	-8.50152
ce	-8.50179
▁next	-8.50535
數	-8.50686
海	-8.50836
ta	-8.50852
認爲	-8.50946
人類	-8.51024
▁second	-8.51158
▁against	-8.51261
▁women	-8.51462
k	-8.51518
▁然後	-8.51783
利	-8.51854
▁course	-8.51939
▁她	-8.51966
受	-8.52232
許多	-8.52337
▁doing	-8.52355
面	-8.52385
20	-8.52587
ies	-8.52639
▁never	-8.52675
▁without	-8.5282
這樣的	-8.53037
歐盟	-8.5309
is	-8.53168
不能	-8.53211
ch	-8.53222
國際	-8.53243
實現	-8.53274
▁since	-8.53324
▁eu	-8.53361
增加	-8.53446
▁market	-8.53476
▁president	-8.5421
真的	-8.54218
他們的	-8.5487
看到	-8.54875
▁home	-8.54881
on	-8.55243
▁place	-8.55287
技術	-8.554
▁support	-8.55743
本	-8.55837
▁tell	-8.55979
2	-8.55996
作	-8.56153
▁yet	-8.56383
如此	-8.56639
▁point	-8.56783
▁從	-8.56983
▁believe	-8.57675
ro	-8.57712
▁那	-8.58031
之後	-8.58435
走	-8.58496
5	-8.58569
愛	-8.58673
▁off	-8.58823
中的	-8.59018
▁question	-8.59101
▁energy	-8.59531
▁increase	-8.59564
▁together	-8.59654
▁這個	-8.59692
--	-8.59727
總統	-8.5982
▁national	-8.59905
你的	-8.60269
就會	-8.60399
ne	-8.60421
馬	-8.60494
▁health	-8.60662
ism	-8.60835
▁p	-8.61048
▁show	-8.61087
▁big	-8.61317
設計	-8.61326
沒	-8.61338
▁development	-8.6137
車	-8.61607
▁mean	-8.61608
問	-8.61662
該	-8.61672
改革	-8.61695
方面	-8.61737
▁trade	-8.61768
▁him	-8.61833
入	-8.61925
成爲	-8.61982
ma	-8.62315
發生	-8.62479
▁water	-8.62592
3	-8.62884
▁因爲	-8.62908
教育	-8.63247
自由	-8.6335
民主	-8.63724
▁debt	-8.63754
ate	-8.63899
▁idea	-8.64056
擁有	-8.64059
道	-8.6416
▁ago	-8.64611
的問題	-8.6469
位	-8.65097
合作	-8.65233
意	-8.65326
但	-8.65394
線	-8.65788
se	-8.65792
非	-8.65897
ent	-8.65899
則	-8.65912
他的	-8.65963
▁它們	-8.66184
▁again	-8.66241
ist	-8.66288
目標	-8.66369
度	-8.66498
▁billion	-8.66683
要求	-8.66687
ok	-8.66717
ri	-8.66727
▁million	-8.67009
▁used	-8.6705
企業	-8.67183
▁current	-8.67259
極	-8.67354
同	-8.67555
us	-8.67578
定	-8.67684
▁也	-8.67835
ia	-8.68069
收入	-8.68113
一直	-8.68153
▁give	-8.6816
寫	-8.68216
來自	-8.68328
▁hard	-8.68336
想要	-8.68427
自己的	-8.68528
▁per	-8.68788
▁w	-8.68836
機構	-8.68891
▁儘管	-8.6897
▁able	-8.69007
回	-8.69229
▁dis	-8.69256
▁有	-8.69423
▁children	-8.69564
▁found	-8.69698
方	-8.69722
▁con	-8.69731
還是	-8.69828
▁thank	-8.69861
▁thought	-8.69958
▁call	-8.70247
▁already	-8.71139
才	-8.7117
ge	-8.712
電	-8.71251
indeed	-8.7132
▁data	-8.71331
▁money	-8.71469
流	-8.71579
tic	-8.71606
行動	-8.71692
裏	-8.72035
控制	-8.72077
帶	-8.72106
ted	-8.72152
▁那麼	-8.72269
▁對	-8.7236
世紀	-8.72378
▁often	-8.72424
▁allow	-8.7258
令人	-8.7263
▁create	-8.72702
保護	-8.7315
萬	-8.73327
▁brain	-8.73444
▁bank	-8.73516
ter	-8.73732
西	-8.73811
▁technology	-8.73821
此	-8.73835
主義	-8.7385
接受	-8.7403
▁didn	-8.74036
▁leaders	-8.74085
打	-8.74285
獲得	-8.74351
債務	-8.74368
產生	-8.7447
▁中國	-8.74729
地區	-8.74789
這樣	-8.74853
7	-8.74895
as	-8.74917
很多	-8.74961
是一個	-8.7515
因為	-8.75198
▁percent	-8.75274
to	-8.75287
▁order	-8.75327
老	-8.75373
▁process	-8.75469
ness	-8.75561
相	-8.75715
格	-8.7589
只有	-8.75895
進	-8.75907
at	-8.75945
反	-8.76038
認為	-8.76182
▁love	-8.76221
6	-8.76236
▁就	-8.76328
種	-8.76394
▁pro	-8.7641
▁means	-8.76464
部	-8.76517
新的	-8.76699
關係	-8.76741
成功	-8.76742
▁small	-8.76822
身	-8.76874
▁ever	-8.76875
▁number	-8.77089
氣	-8.77146
▁central	-8.77404
場	-8.77699
》	-8.77834
u	-8.77851
金融	-8.77896
《	-8.77915
是否	-8.77928
▁started	-8.78034
▁investment	-8.78065
錢	-8.78306
po	-8.7835
貿易	-8.78357
v	-8.7849
全	-8.78509
英國	-8.78554
▁american	-8.7869
▁f	-8.78981
▁experience	-8.78997
率	-8.7908
變	-8.79153
▁live	-8.79281
▁best	-8.7941
甚至	-8.79418
方式	-8.79475
科學	-8.79478
建立	-8.79484
▁是	-8.79535
近	-8.79617
先	-8.798
遠	-8.79894
上的	-8.80068
繼續	-8.80091
卡	-8.80392
▁feel	-8.80481
太	-8.80483
派	-8.80521
關於	-8.80619
▁whether	-8.80871
▁enough	-8.80955
▁always	-8.81149
物	-8.81185
▁understand	-8.81285
相信	-8.81368
的國家	-8.81466
重要	-8.8159
健康	-8.81764
整個	-8.81884
▁man	-8.81901
la	-8.81918
機	-8.81963
放	-8.81982
▁provide	-8.82072
亞	-8.82171
幫助	-8.82723
4	-8.82725
▁security	-8.82727
對於	-8.82744
8	-8.82837
美	-8.82896
女性	-8.82987
次	-8.83155
ul	-8.83529
▁governments	-8.83538
間	-8.83677
伊朗	-8.83688
▁came	-8.83692
im	-8.83746
因	-8.83918
▁1	-8.84194
花	-8.84252
▁left	-8.84321
ci	-8.84376
▁demand	-8.84606
▁risk	-8.84629
強	-8.84655
一次	-8.84973
起來	-8.85048
仍然	-8.8505
非洲	-8.85066
戰爭	-8.85163
出現	-8.85233
▁story	-8.85419
歲	-8.8545
核	-8.85502
導致	-8.85526
主要	-8.85563
▁india	-8.85646
9	-8.86103
東西	-8.86215
▁school	-8.86225
▁capital	-8.86248
▁20	-8.86379
▁bit	-8.86445
▁pay	-8.86463
包括	-8.86583
▁interest	-8.86724
▁middle	-8.86792
▁given	-8.86799
rather	-8.87148
▁如果你	-8.87239
風險	-8.87334
▁set	-8.87453
公	-8.87457
▁recent	-8.87593
書	-8.87674
感	-8.87685
科技	-8.87717
▁climate	-8.87799
age	-8.8789
▁car	-8.88228
▁case	-8.88269
巴	-8.8831
羅	-8.88424
個人	-8.88471
里	-8.88474
te	-8.88629
ance	-8.8868
性的	-8.88793
領導人	-8.88806
之前	-8.88851
受到	-8.88896
▁19	-8.88951
貨幣	-8.88993
創造	-8.89108
▁markets	-8.89246
▁past	-8.89276
▁working	-8.89412
▁military	-8.8945
▁control	-8.89586
▁當然	-8.89658
▁ma	-8.89748
▁five	-8.89775
重新	-8.89786
▁four	-8.89854
尼	-8.90039
城市	-8.90145
路	-8.90165
似乎	-8.9018
印度	-8.90239
▁information	-8.9027
▁head	-8.90299
▁result	-8.90342
na	-8.90427
▁once	-8.90451
日本	-8.90574
安	-8.90582
總	-8.906
區	-8.9067
▁russia	-8.9071
還有	-8.908
利用	-8.90856
▁st	-8.90929
during	-8.91022
十	-8.91184
▁banks	-8.91222
▁went	-8.91379
▁e	-8.91436
▁以及	-8.91513
▁likely	-8.91599
活動	-8.91615
▁sense	-8.91622
▁making	-8.91623
▁play	-8.91643
合	-8.91737
bi	-8.91799
▁tax	-8.91807
的話	-8.91956
▁rate	-8.91965
了解	-8.91975
信	-8.92095
仍	-8.92309
戰	-8.92368
理	-8.92415
▁view	-8.92428
ized	-8.92444
▁done	-8.92509
幾	-8.92555
布	-8.9258
的方式	-8.92636
▁almost	-8.92679
▁food	-8.9271
▁business	-8.92729
環境	-8.92809
▁old	-8.92903
▁including	-8.92929
運動	-8.9294
ary	-8.92994
成為	-8.9302
▁away	-8.93023
更多	-8.93108
方法	-8.9314
挑戰	-8.93159
ors	-8.93408
de	-8.93569
過去	-8.93705
納	-8.9376
明	-8.93965
▁problems	-8.93971
▁free	-8.94059
▁am	-8.94123
ck	-8.94131
未來	-8.9419
每	-8.94285
▁japan	-8.94286
一下	-8.9429
▁這一	-8.94375
更加	-8.94392
▁times	-8.94604
lo	-8.94613
▁within	-8.94629
價格	-8.9467
能源	-8.94806
▁chinese	-8.94891
教	-8.9502
▁person	-8.95044
ous	-8.95101
▁reason	-8.95108
ty	-8.95175
▁low	-8.95201
做出	-8.95214
阿	-8.95307
▁major	-8.95344
家庭	-8.95455
見	-8.9592
持續	-8.95924
ian	-8.96017
維	-8.96096
處	-8.96143
如果	-8.96213
是個	-8.96214
▁open	-8.96215
代表	-8.96248
▁africa	-8.96346
轉	-8.96351
▁move	-8.96363
的東西	-8.9638
▁space	-8.96384
那個	-8.96398
▁though	-8.96474
▁hope	-8.96567
▁nuclear	-8.96751
門	-8.96764
找到	-8.96914
less	-8.96998
▁design	-8.97092
cannot	-8.97171
一位	-8.97193
德國	-8.97255
ry	-8.97285
四	-8.97311
文化	-8.97393
將會	-8.97607
▁rates	-8.97817
年代	-8.98021
▁union	-8.9824
曾	-8.98278
▁policies	-8.98304
俄羅斯	-8.98411
▁across	-8.98502
▁以	-8.98674
之間	-8.98728
▁share	-8.99193
▁light	-8.99317
結果	-8.9948
管理	-8.99502
深	-8.99524
▁education	-8.99543
的地方	-8.99547
co	-8.99724
超過	-8.99752
▁ca	-8.99822
▁form	-8.99897
▁community	-9.00004
▁half	-9.00006
金	-9.00043
over	-9.00075
死	-9.00122
▁♫	-9.00202
模式	-9.00211
▁foreign	-9.00307
長期	-9.00576
▁我想	-9.00589
▁instead	-9.00611
▁research	-9.00641
▁care	-9.00741
減少	-9.00788
也是	-9.00957
▁history	-9.00984
人口	-9.01061
才能	-9.0109
▁10	-9.0112
▁difficult	-9.01154
期	-9.01223
生活	-9.01237
▁hand	-9.01255
▁companies	-9.01256
▁還有	-9.013
感到	-9.01451
比較	-9.01484
不同的	-9.01537
幾乎	-9.01539
▁among	-9.016
層	-9.02076
這是	-9.0212
然	-9.02371
▁population	-9.02456
rs	-9.02458
大家	-9.0249
▁focus	-9.02524
▁此外	-9.02594
共同	-9.02882
▁young	-9.03015
取	-9.03033
▁比如	-9.0306
up	-9.03063
提	-9.03105
黨	-9.0314
▁oil	-9.03357
之一	-9.03444
19	-9.03616
軍	-9.03642
是在	-9.0371
▁south	-9.03739
ag	-9.03787
圖	-9.03936
參與	-9.04038
▁least	-9.04053
▁building	-9.0409
領域	-9.04159
想像	-9.04297
▁possible	-9.04305
解	-9.04375
▁並且	-9.04406
資本	-9.04596
孩子	-9.04892
美元	-9.04898
文	-9.04905
▁run	-9.04923
生命	-9.0496
財政	-9.04973
聽	-9.05207
基	-9.0525
目前	-9.05355
電腦	-9.05415
▁face	-9.05514
一點	-9.05587
真	-9.05606
吧	-9.05898
▁increasing	-9.05963
服務	-9.05995
pa	-9.06231
難	-9.06231
進入	-9.06311
穩定	-9.06351
having	-9.06394
mi	-9.06441
ant	-9.06487
▁poor	-9.06496
▁certain	-9.06571
sh	-9.06605
數據	-9.0672
細胞	-9.06892
▁answer	-9.06931
▁economies	-9.06967
下降	-9.07012
▁strong	-9.07013
▁act	-9.07021
聲	-9.07065
器	-9.07101
口	-9.07177
▁build	-9.07211
▁whole	-9.07332
▁doesn	-9.07347
▁maybe	-9.07396
一起	-9.07567
▁clear	-9.07715
如	-9.07746
熱	-9.07953
▁lives	-9.08059
地方	-9.08064
真正	-9.08171
資源	-9.08181
風	-9.08215
主	-9.08388
ated	-9.08393
▁similar	-9.0842
fi	-9.08478
國內	-9.0854
no	-9.08626
應	-9.08696
公共	-9.08712
▁sure	-9.08724
兩個	-9.08862
生物	-9.08906
通	-9.08914
▁approach	-9.08932
衝突	-9.08971
id	-9.09001
提高	-9.09097
眼	-9.09114
▁role	-9.09161
實	-9.09205
▁moment	-9.09248
不斷	-9.09487
各	-9.09511
▁potential	-9.09523
▁keep	-9.09569
約	-9.097
故事	-9.09748
州	-9.09761
me	-9.10051
▁wanted	-9.10221
科	-9.10333
▁而是	-9.10336
▁men	-9.10341
▁k	-9.10478
歷史	-9.10485
西方	-9.10585
▁others	-9.10642
▁income	-9.10688
▁bad	-9.10851
▁bring	-9.10869
可能會	-9.11173
▁needed	-9.11185
▁needs	-9.11274
步	-9.11274
▁until	-9.11277
大學	-9.11389
▁single	-9.11505
▁cost	-9.11527
二	-9.11781
▁everything	-9.11806
▁germany	-9.11831
▁short	-9.11865
▁ex	-9.11883
▁science	-9.11919
快	-9.12013
權力	-9.12024
▁true	-9.12247
▁reach	-9.12256
▁iran	-9.12289
任	-9.1234
▁side	-9.124
帶來	-9.12558
▁這種	-9.12677
▁city	-9.12721
措施	-9.12871
界	-9.12921
能力	-9.12944
談	-9.13125
造成	-9.1317
▁common	-9.1322
制度	-9.13249
out	-9.13265
稱	-9.13281
處理	-9.1348
有關	-9.13496
威脅	-9.13511
降低	-9.13514
▁family	-9.13523
疾病	-9.13591
人民	-9.13657
vi	-9.13664
以色列	-9.13745
▁sort	-9.13758
商	-9.1404
▁thinking	-9.14136
生產	-9.14172
思考	-9.1429
其中	-9.143
掉	-9.14374
▁looking	-9.14452
▁turn	-9.14559
和平	-9.14645
別	-9.14743
希臘	-9.14802
理解	-9.1481
員	-9.1485
動物	-9.14947
0	-9.14948
probably	-9.14958
協議	-9.14959
波	-9.14983
病	-9.15032
選	-9.15105
▁comes	-9.15155
保持	-9.15204
某些	-9.15263
▁society	-9.1531
man	-9.15384
最終	-9.15463
▁east	-9.15625
di	-9.16017
解釋	-9.16119
便	-9.16183
ling	-9.16199
▁itself	-9.16255
▁longer	-9.16264
▁key	-9.16409
gdp	-9.16427
現實	-9.16451
視	-9.16527
實施	-9.16551
50	-9.1656
▁fear	-9.16582
ating	-9.16587
學習	-9.1664
be	-9.16812
▁要	-9.16902
▁local	-9.16971
全世界	-9.17042
▁2	-9.17056
ful	-9.17102
▁monetary	-9.17129
型	-9.17215
the	-9.17262
確保	-9.17384
傳統	-9.17504
收	-9.17508
▁higher	-9.17522
▁group	-9.17596
▁fiscal	-9.17609
採取	-9.1765
▁law	-9.17681
五	-9.17745
▁later	-9.17929
成本	-9.17957
▁job	-9.18054
作爲	-9.18163
▁however	-9.18196
覺得	-9.18328
年的	-9.18336
▁project	-9.18345
片	-9.18475
▁ask	-9.18477
▁north	-9.18717
單	-9.18733
年前	-9.18739
▁雖然	-9.1875
pe	-9.18755
▁lead	-9.18826
▁living	-9.1886
z	-9.1887
▁就是	-9.18897
喜歡	-9.18936
資金	-9.1905
▁region	-9.19138
水平	-9.19179
ad	-9.19231
▁bo	-9.19231
反對	-9.19235
▁themselves	-9.19308
▁gdp	-9.19335
▁makes	-9.19348
▁body	-9.19349
▁trump	-9.19433
op	-9.1952
畫	-9.19567
▁ways	-9.19587
戰略	-9.19639
▁level	-9.19764
▁further	-9.19799
變成	-9.19863
ally	-9.199
ence	-9.19922
▁especially	-9.20045
▁一個	-9.20054
有一個	-9.20126
▁test	-9.20178
▁pre	-9.20194
▁institutions	-9.2049
買	-9.20497
因素	-9.20548
了一個	-9.20691
達	-9.20749
最後	-9.20751
通常	-9.20777
算	-9.20803
直接	-9.20818
選舉	-9.2087
tion	-9.20897
un	-9.20931
go	-9.20935
ti	-9.20967
▁party	-9.21
▁prices	-9.21009
具有	-9.21037
▁imagine	-9.21078
▁nothing	-9.21082
cu	-9.21085
除	-9.2117
▁你們	-9.2119
並不是	-9.21198
治療	-9.21369
結束	-9.21369
▁impact	-9.21457
ver	-9.21531
▁mo	-9.21563
原	-9.21619
創新	-9.21695
▁developing	-9.21706
▁歐洲	-9.21762
▁self	-9.21831
推	-9.21858
▁seen	-9.21863
▁access	-9.21949
程度	-9.22035
10	-9.2205
產品	-9.22088
亞洲	-9.22125
出來	-9.22223
大約	-9.22332
法國	-9.22433
且	-9.22448
失	-9.22481
▁la	-9.22671
字	-9.22808
避免	-9.22881
學校	-9.22891
面對	-9.22891
ization	-9.22986
▁land	-9.2299
▁minister	-9.23006
──	-9.23091
變得	-9.23153
完成	-9.23175
▁deal	-9.23223
事件	-9.23402
空	-9.23427
努力	-9.23433
機會	-9.23495
相當	-9.23502
▁democracy	-9.23515
getting	-9.2353
到了	-9.23532
夫	-9.23554
ca	-9.23628
的經濟	-9.23708
um	-9.23746
am	-9.23816
半	-9.23985
▁return	-9.23989
製造	-9.24068
的事	-9.24086
▁matter	-9.24105
嚴重	-9.24119
▁coming	-9.24153
條	-9.24249
▁其	-9.24268
古	-9.2427
▁mis	-9.24402
一項	-9.24478
ize	-9.24479
語	-9.24486
▁ta	-9.24503
ial	-9.24529
表明	-9.24533
結構	-9.2465
或者	-9.24665
▁人們	-9.24722
ut	-9.24755
大部分	-9.24894
▁讓	-9.24924
地球	-9.25117
醫療	-9.25134
利益	-9.25354
歐元區	-9.25429
有可能	-9.25455
力量	-9.25478
米	-9.25533
bo	-9.25544
▁months	-9.25584
情況	-9.25849
▁謝謝	-9.25996
▁rise	-9.26007
中心	-9.26014
最近	-9.2619
▁early	-9.26197
那樣	-9.26217
▁growing	-9.26219
不再	-9.26222
法律	-9.26334
而言	-9.26377
▁然而	-9.26409
▁3	-9.26459
連	-9.26467
▁earth	-9.26502
▁wrong	-9.26802
▁private	-9.26825
億	-9.26838
▁perhaps	-9.26846
盡	-9.2689
事情	-9.26905
人的	-9.26956
pi	-9.26962
討論	-9.27023
改善	-9.27113
談判	-9.27113
▁agreement	-9.27123
▁model	-9.27179
身體	-9.27204
工	-9.27219
移民	-9.27248
▁stop	-9.27309
▁conflict	-9.27377
的政治	-9.27383
con	-9.27428
業	-9.27448
較	-9.2752
▁planet	-9.27532
che	-9.27591
▁asia	-9.27599
並沒有	-9.27693
▁protect	-9.27811
▁reform	-9.27846
的時間	-9.27875
▁challenge	-9.27921
住	-9.27953
實際	-9.27962
▁labor	-9.27975
ir	-9.27985
火	-9.28015
▁six	-9.28086
情	-9.28137
▁age	-9.28256
傳	-9.28302
關注	-9.28448
▁top	-9.28538
聯合國	-9.28574
暴力	-9.2866
越	-9.28703
利率	-9.28705
變化	-9.28793
▁complete	-9.28816
令	-9.28845
▁house	-9.28871
至	-9.28891
作用	-9.28937
少	-9.28978
ac	-9.28979
六	-9.29081
平	-9.29086
球	-9.29141
領導	-9.29148
講	-9.29192
各位	-9.29429
▁study	-9.2943
▁seems	-9.29466
試圖	-9.29525
▁slow	-9.29537
數字	-9.29608
節	-9.29608
▁simple	-9.29825
取得	-9.29911
▁peace	-9.30008
▁follow	-9.30042
項目	-9.30104
清	-9.30127
▁remain	-9.30211
自然	-9.30218
▁prevent	-9.30246
▁israel	-9.30389
另一	-9.30399
ions	-9.30409
▁simply	-9.30447
白	-9.30457
之間的	-9.30473
▁value	-9.30493
▁offer	-9.30571
因爲	-9.30731
公民	-9.30765
▁told	-9.30897
▁words	-9.30965
部分	-9.311
▁room	-9.3111
其實	-9.31157
ton	-9.31224
關	-9.31251
限制	-9.31274
▁became	-9.31436
佔	-9.31453
▁issue	-9.31531
▁這就是	-9.3157
證明	-9.31606
讓我	-9.31629
進一步	-9.31633
活	-9.31754
今天	-9.31784
品	-9.3187
ph	-9.31923
山	-9.3199
/	-9.32129
▁third	-9.32157
以來	-9.32246
▁但我	-9.32268
ine	-9.32334
列	-9.32369
▁post	-9.32389
▁continue	-9.32431
▁seem	-9.32492
do	-9.32588
社區	-9.32601
▁ti	-9.32624
▁air	-9.32754
▁anything	-9.32781
▁sa	-9.32809
▁west	-9.32812
讓我們	-9.3288
▁force	-9.32928
狀況	-9.33022
▁environment	-9.33088
▁recently	-9.33096
ke	-9.33098
▁happened	-9.33111
都會	-9.3326
兒	-9.33292
▁terms	-9.3343
式	-9.33471
指	-9.33556
一場	-9.33825
▁happen	-9.3389
▁kids	-9.33901
▁obama	-9.33907
論	-9.33935
條件	-9.33973
▁name	-9.34011
是什麼	-9.34144
預測	-9.34146
led	-9.34207
怎麼	-9.34318
▁j	-9.34328
哈	-9.3433
▁death	-9.34398
接	-9.34457
▁days	-9.34497
落	-9.34516
▁remember	-9.34523
▁decades	-9.34571
原因	-9.34572
▁即使	-9.34583
▁sp	-9.34621
ish	-9.34668
▁en	-9.34713
資訊	-9.34714
學生	-9.34727
▁close	-9.34734
▁5	-9.34746
吃	-9.34808
民	-9.34896
▁thousand	-9.35047
▁learn	-9.35096
擔心	-9.35198
石油	-9.35242
▁不	-9.35263
▁everyone	-9.35301
藥	-9.35399
都有	-9.35458
▁center	-9.35487
▁century	-9.3549
ect	-9.35564
▁或者	-9.35697
表現	-9.35753
體系	-9.35828
調	-9.35932
espite	-9.36007
▁rest	-9.36126
維持	-9.36209
常	-9.36294
玩	-9.36342
樂	-9.36462
om	-9.36473
拿	-9.3656
或是	-9.36602
當時	-9.36644
▁success	-9.3671
首	-9.36718
▁sea	-9.36788
代	-9.36825
那麼	-9.36853
mo	-9.36894
ring	-9.36918
▁media	-9.36923
和其他	-9.36931
十分	-9.36963
30	-9.37002
件	-9.3705
所有的	-9.3707
▁heart	-9.37107
ach	-9.37143
不可	-9.37193
稅	-9.37237
▁leave	-9.37267
達到	-9.37288
he	-9.37294
敘利亞	-9.37414
這麼	-9.37455
規則	-9.37463
▁full	-9.3757
援助	-9.37622
▁asked	-9.37642
▁program	-9.37697
▁finally	-9.37707
▁sometimes	-9.37757
大量	-9.37768
共	-9.37855
叫	-9.37894
交	-9.37923
▁non	-9.37946
觀	-9.37963
red	-9.37973
▁resources	-9.3804
▁mind	-9.38043
需求	-9.3806
的世界	-9.381
▁rights	-9.38142
▁figure	-9.38248
面臨	-9.38273
獨立	-9.38352
回到	-9.38365
關鍵	-9.38368
同時	-9.38377
▁dollars	-9.38397
▁systems	-9.38529
離	-9.38532
色	-9.38563
▁someone	-9.38582
南	-9.38616
各種	-9.38683
▁eurozone	-9.38693
▁li	-9.38824
▁citizens	-9.38957
也會	-9.39016
▁price	-9.39025
▁step	-9.39076
▁amount	-9.39091
事實	-9.39204
價值	-9.39262
▁m	-9.39333
困難	-9.39347
va	-9.39389
伊拉克	-9.39474
▁r	-9.39582
網路	-9.39601
▁lower	-9.39654
言	-9.39656
提出	-9.39683
▁line	-9.39688
▁along	-9.39725
破壞	-9.39744
quite	-9.39819
▁或	-9.39869
邊	-9.39881
食物	-9.39913
這裡	-9.40046
▁else	-9.4005
▁taking	-9.40096
時代	-9.40117
失敗	-9.40193
資產	-9.40256
▁art	-9.40338
初	-9.40368
裝	-9.40418
國家的	-9.40428
軍事	-9.40429
ha	-9.40436
革命	-9.4049
土耳其	-9.40492
的新	-9.40512
不僅	-9.40573
▁child	-9.40649
的工作	-9.40711
ex	-9.40759
ba	-9.40762
▁fundamental	-9.40845
▁甚至	-9.40923
世	-9.40933
▁toward	-9.40948
▁就像	-9.40961
cy	-9.41006
▁最後	-9.41034
▁personal	-9.41078
曾經	-9.41087
聯盟	-9.4109
透過	-9.41125
▁ra	-9.41175
▁read	-9.41222
朋友	-9.41251
顯示	-9.41254
為什麼	-9.41269
照	-9.41332
▁particularly	-9.41359
更多的	-9.4137
▁report	-9.41373
▁watch	-9.41403
就能	-9.41434
舉	-9.41447
形	-9.41477
女	-9.41563
百	-9.41582
親	-9.41582
ga	-9.41615
▁vi	-9.41637
出口	-9.41648
▁spending	-9.41695
觀察	-9.41711
▁created	-9.41732
士	-9.41798
局	-9.41916
▁ten	-9.41941
形成	-9.41991
往	-9.41992
▁main	-9.42009
神	-9.42016
▁hold	-9.42065
奧	-9.42221
林	-9.42265
▁所以我	-9.42316
▁shift	-9.42325
▁na	-9.42336
計畫	-9.42383
宗教	-9.42384
早	-9.4244
▁di	-9.42478
]	-9.42529
標準	-9.4256
▁al	-9.42626
▁huge	-9.42641
類	-9.42642
音樂	-9.42894
死亡	-9.42933
實驗	-9.42937
▁costs	-9.42947
▁based	-9.42959
錯誤	-9.42993
方案	-9.43032
▁progress	-9.43073
▁response	-9.43097
tor	-9.43228
理論	-9.43242
▁powerful	-9.43291
承諾	-9.43383
週	-9.43447
▁包括	-9.43465
競爭	-9.43473
有人	-9.43502
反應	-9.43583
是我們	-9.43613
千	-9.43648
▁fall	-9.43661
巨大的	-9.43681
刺激	-9.43721
▁black	-9.43723
過程	-9.43733
媒體	-9.43772
▁taken	-9.43781
分子	-9.43938
ig	-9.44013
▁domestic	-9.44032
知識	-9.44139
超	-9.44141
每年	-9.44192
空間	-9.44237
針對	-9.44259
ical	-9.44557
bu	-9.44586
薩	-9.44609
▁natural	-9.44649
▁behavior	-9.44766
然後	-9.4478
感覺	-9.44851
▁york	-9.44925
大腦	-9.44951
▁pass	-9.45003
▁inflation	-9.45034
密	-9.45044
▁position	-9.45085
▁began	-9.45176
▁le	-9.45219
▁saw	-9.45235
行爲	-9.45284
▁reflect	-9.45347
▁opportunity	-9.454
信息	-9.45407
▁action	-9.45484
port	-9.45488
tro	-9.4552
side	-9.45578
▁appear	-9.45612
▁workers	-9.45698
▁thus	-9.45763
貸款	-9.45838
的影響	-9.45856
立	-9.45922
▁language	-9.45931
ni	-9.45988
不知道	-9.46062
tri	-9.46071
les	-9.46186
制	-9.46192
規模	-9.46197
▁issues	-9.46206
▁lack	-9.46214
▁且	-9.46234
確實	-9.46276
地位	-9.46289
意義	-9.46321
▁com	-9.46344
部門	-9.46529
▁address	-9.46531
進步	-9.46534
產	-9.46622
基礎	-9.46624
▁members	-9.46629
根	-9.46631
真實	-9.46642
魚	-9.4667
不可能	-9.46693
▁reduce	-9.46738
▁同時	-9.4676
▁jobs	-9.46808
快速	-9.47048
tra	-9.47118
▁如今	-9.47126
另一個	-9.47205
line	-9.47209
▁modern	-9.47217
▁我的	-9.47231
ang	-9.47296
職	-9.4735
重要的	-9.47367
▁regime	-9.47487
ot	-9.47495
▁company	-9.47541
達成	-9.4759
分享	-9.47598
的故事	-9.4774
▁produce	-9.47768
▁fund	-9.47769
在於	-9.4781
也許	-9.47856
醫生	-9.47935
▁而不是	-9.4796
效	-9.47961
蘭	-9.48071
▁democratic	-9.48102
▁首先	-9.48349
▁beyond	-9.48355
科學家	-9.48434
複雜	-9.48499
資料	-9.48548
▁consider	-9.4856
▁o	-9.48592
造	-9.48617
▁deep	-9.48633
▁france	-9.48663
語言	-9.4882
假	-9.48889
▁remains	-9.48981
▁politics	-9.49122
項	-9.49187
指出	-9.49237
網	-9.49278
▁該	-9.49359
腦	-9.49386
▁pretty	-9.49397
▁average	-9.49397
▁沒有	-9.49405
重大	-9.49524
▁services	-9.4954
▁culture	-9.4955
平衡	-9.49574
未	-9.49595
看起來	-9.496
集	-9.49623
▁western	-9.49662
根本	-9.49683
億美元	-9.49741
壓力	-9.4977
加入	-9.49779
▁general	-9.49888
報告	-9.49892
▁pressure	-9.49954
by	-9.5001
▁interesting	-9.50017
商業	-9.50074
意味着	-9.50148
▁record	-9.50172
一切	-9.50199
最大的	-9.50202
▁goes	-9.50204
推動	-9.5021
每個	-9.5026
▁reality	-9.50263
ki	-9.50283
act	-9.50289
ru	-9.50317
伊	-9.50336
▁ba	-9.50372
▁particular	-9.50442
這一點	-9.50523
管	-9.50624
▁led	-9.50658
八	-9.5076
表	-9.50766
只能	-9.50823
特別	-9.50834
▁rule	-9.50843
兒童	-9.50843
▁either	-9.50896
迷	-9.50896
ol	-9.51081
▁結果	-9.51097
▁buy	-9.51236
▁longterm	-9.5124
▁sector	-9.51275
▁period	-9.51289
▁inside	-9.51374
倍	-9.51401
並非	-9.51417
基因	-9.51469
▁election	-9.51478
消費	-9.5149
總是	-9.51495
上升	-9.51499
▁relative	-9.51513
▁ideas	-9.51555
▁finance	-9.51626
機制	-9.51666
▁revolution	-9.5167
▁korea	-9.51698
▁iraq	-9.5175
考慮	-9.51837
以前	-9.51879
工具	-9.51918
▁disease	-9.51992
▁entire	-9.52017
▁serious	-9.52018
並且	-9.5204
rew	-9.52045
幾個	-9.52098
簡單	-9.52218
▁pi	-9.52244
顯然	-9.52251
▁outside	-9.52284
存	-9.52285
情緒	-9.52306
精	-9.52357
▁behind	-9.52361
血	-9.52408
▁mother	-9.5248
▁imp	-9.52503
市	-9.52514
怎樣	-9.52589
▁according	-9.52608
lu	-9.52658
▁rich	-9.52664
區域	-9.52706
▁benefits	-9.52804
雷	-9.52817
她的	-9.52828
▁happens	-9.52829
▁cause	-9.5288
嘗試	-9.52887
▁situation	-9.53045
▁team	-9.53072
知	-9.53141
異	-9.53201
在一起	-9.53247
▁stand	-9.53263
號	-9.53475
普	-9.53515
貧困	-9.53569
▁front	-9.53586
▁從而	-9.5362
越來越	-9.53621
▁lost	-9.53627
▁rules	-9.5369
▁其中	-9.53722
表示	-9.53746
▁vote	-9.53786
▁poverty	-9.53848
▁developed	-9.53866
基本	-9.53874
飛	-9.53877
▁cells	-9.53935
▁grow	-9.53939
▁30	-9.54013
自我	-9.54021
ho	-9.54026
微	-9.54034
▁book	-9.54049
▁arab	-9.54051
東	-9.54074
正是	-9.54248
▁internet	-9.54256
會議	-9.54285
相關	-9.54303
▁questions	-9.54358
營	-9.54367
數量	-9.54415
▁好	-9.54455
son	-9.54476
也有	-9.54545
同樣	-9.54669
ship	-9.54741
▁drive	-9.54763
支出	-9.54765
▁alone	-9.54956
▁也許	-9.54991
級	-9.55012
開發	-9.55037
它的	-9.55051
▁inter	-9.55144
▁ha	-9.55203
詞	-9.55222
切	-9.55278
▁areas	-9.55295
ists	-9.55311
▁ho	-9.55377
▁students	-9.55407
難民	-9.55431
危險	-9.55447
▁yes	-9.55508
▁plan	-9.55509
da	-9.55542
▁對於	-9.55574
▁several	-9.55651
▁credit	-9.55695
魯	-9.55768
塔	-9.55827
▁push	-9.55886
▁accept	-9.5591
▁efforts	-9.55941
真正的	-9.55983
▁ro	-9.56026
em	-9.56041
▁soon	-9.56069
音	-9.561
▁這樣	-9.56141
▁news	-9.56175
▁cancer	-9.56183
▁你可以	-9.56191
▁challenges	-9.56221
▁individual	-9.5635
ap	-9.56354
▁present	-9.56463
身上	-9.56499
▁但這	-9.56528
end	-9.56531
美國的	-9.5656
有些	-9.56626
小時	-9.56657
▁cities	-9.56741
開放	-9.56785
的方法	-9.56794
的事情	-9.56894
▁ability	-9.56907
監管	-9.56933
▁music	-9.56971
或許	-9.57041
▁effective	-9.57081
而且	-9.57088
...	-9.57119
▁nature	-9.57133
時期	-9.5715
既	-9.57188
一般	-9.57196
影片	-9.57244
▁infrastructure	-9.57248
ging	-9.57285
▁budget	-9.57367
是因為	-9.57371
交易	-9.57377
擊	-9.57401
▁如果我們	-9.57416
倒	-9.57478
▁fuel	-9.57547
▁break	-9.57591
建	-9.57611
per	-9.57617
這項	-9.57642
▁strategy	-9.57666
費	-9.57668
用來	-9.57676
▁account	-9.57765
hi	-9.57833
▁4	-9.57894
機器人	-9.57929
▁pa	-9.58019
成長	-9.58044
端	-9.58065
▁不過	-9.58072
讀	-9.58117
藥物	-9.58319
▁sound	-9.58334
值	-9.58501
委員會	-9.58538
▁affect	-9.58634
▁extreme	-9.58689
▁woman	-9.58689
▁我們可以	-9.58704
現象	-9.58781
很難	-9.58811
▁那是	-9.58823
day	-9.58848
▁computer	-9.58852
哪	-9.59001
▁anti	-9.59052
▁innovation	-9.59113
願意	-9.59121
有個	-9.59172
本身	-9.59198
▁won	-9.59206
▁easy	-9.59235
▁piece	-9.59235
▁ground	-9.59242
養	-9.59287
we	-9.59305
世界上	-9.59349
斷	-9.59356
平均	-9.59362
▁dr	-9.59502
▁當我	-9.59516
三個	-9.59659
某種	-9.59684
und	-9.59705
星	-9.59817
報	-9.5987
的情況下	-9.59902
差	-9.59931
道德	-9.60023
▁changes	-9.60139
大規模	-9.60213
cent	-9.60323
雙	-9.60353
▁100	-9.60362
冰	-9.60396
70	-9.6041
▁known	-9.60417
▁[	-9.60422
協助	-9.60459
土	-9.6059
增	-9.60604
ip	-9.60621
有效	-9.60682
▁balance	-9.60705
▁2008	-9.60782
▁avoid	-9.6089
▁stories	-9.60952
▁reforms	-9.60997
新聞	-9.61013
▁learned	-9.61136
遊戲	-9.612
第一個	-9.61234
▁violence	-9.61261
11	-9.61266
▁scale	-9.61301
就可以	-9.61344
是一種	-9.61384
▁worse	-9.61387
壓	-9.61443
▁emerging	-9.61444
油	-9.61459
承認	-9.61502
lt	-9.61536
藝術	-9.61543
拒絕	-9.61574
▁attention	-9.61635
▁built	-9.61635
經	-9.61645
5%	-9.61659
奇	-9.61723
分析	-9.61761
難以	-9.61762
ious	-9.61795
保	-9.61796
▁groups	-9.61904
ster	-9.61919
▁forces	-9.61946
各國	-9.61971
▁explain	-9.62009
就像	-9.62072
▁saying	-9.62075
經濟增長	-9.62099
way	-9.62149
找	-9.6215
▁campaign	-9.62197
質	-9.62337
▁所以我們	-9.62486
辦法	-9.62535
▁industry	-9.62573
下來	-9.62584
勢	-9.62682
os	-9.62719
▁former	-9.62763
內部	-9.6287
▁path	-9.62892
調查	-9.62894
▁levels	-9.62922
樹	-9.62947
wi	-9.62955
因此	-9.63017
額	-9.63071
▁failure	-9.63081
運作	-9.63161
就業	-9.63172
▁decided	-9.63266
排	-9.63298
索	-9.63391
靠	-9.6342
▁myself	-9.63584
▁sh	-9.63612
一定	-9.63717
▁invest	-9.63732
90	-9.63734
美國人	-9.63737
幫	-9.63767
▁po	-9.63865
機器	-9.63883
民衆	-9.63923
宇宙	-9.63966
▁prime	-9.63967
應對	-9.64017
▁special	-9.6403
▁u	-9.64035
停	-9.64072
繁榮	-9.64094
底	-9.64148
▁leadership	-9.64163
▁begin	-9.64216
▁或是	-9.64253
▁says	-9.64353
氣候	-9.64407
錯	-9.64424
▁knew	-9.6448
經歷	-9.64501
計	-9.64524
▁friends	-9.64533
明確	-9.64583
至少	-9.64585
▁conditions	-9.64609
結	-9.64624
現代	-9.64677
準備	-9.6468
氣候變化	-9.64808
擴大	-9.6482
會有	-9.64842
轉變	-9.64866
▁cut	-9.64872
j	-9.64906
oc	-9.64918
直	-9.64945
▁game	-9.65039
服	-9.65058
的原因	-9.6506
第一	-9.65067
也不	-9.65074
▁currency	-9.65084
qui	-9.65151
▁african	-9.65236
病人	-9.65237
ak	-9.65284
▁由於	-9.65339
▁目前	-9.6537
缺乏	-9.65444
gu	-9.65504
▁interests	-9.65544
外交	-9.65549
▁deliver	-9.65638
投資者	-9.65876
某	-9.65889
▁只有	-9.65897
精神	-9.66081
海洋	-9.66098
▁一	-9.66152
▁beginning	-9.66164
之外	-9.66172
狀態	-9.66224
ities	-9.66247
七	-9.66309
答案	-9.6634
容易	-9.66374
▁exactly	-9.664
▁sub	-9.66429
埃及	-9.66434
▁將	-9.66541
時候	-9.66581
聽到	-9.66593
▁aid	-9.66628
▁euro	-9.66632
執行	-9.66648
▁mar	-9.66663
當中	-9.6683
上述	-9.66831
的一個	-9.66854
▁ocean	-9.66877
的確	-9.66889
▁successful	-9.66891
ite	-9.66929
領袖	-9.66943
致	-9.66989
笑	-9.67001
特朗普	-9.67024
▁picture	-9.67087
電影	-9.67169
▁movement	-9.67211
▁solution	-9.67218
板	-9.67338
▁regional	-9.67385
離開	-9.67435
沙	-9.67489
▁total	-9.67497
的社會	-9.6751
▁為什麼	-9.67512
史	-9.67531
有所	-9.67545
▁se	-9.67586
瓦	-9.6759
▁許多	-9.67593
成員國	-9.67598
▁evidence	-9.67668
▁depend	-9.67794
相對	-9.678
▁15	-9.67855
▁fight	-9.67862
▁french	-9.67866
毒	-9.67909
▁50	-9.67927
▁video	-9.67933
▁risks	-9.67955
在這裡	-9.68015
▁significant	-9.68035
再次	-9.68043
▁chance	-9.68136
制定	-9.68139
▁stuff	-9.68204
▁但我們	-9.68239
做了	-9.68318
我想	-9.68393
方向	-9.684
▁wait	-9.68413
▁white	-9.68431
素	-9.68463
網絡	-9.68465
▁quickly	-9.68483
一年	-9.68529
▁night	-9.68533
依賴	-9.68533
絕	-9.68536
滿	-9.68538
伊斯蘭	-9.68573
這個問題	-9.68588
當地	-9.686
▁nor	-9.68691
▁fish	-9.68697
期間	-9.68741
阻止	-9.688
責任	-9.68849
▁ok	-9.68856
尋找	-9.68912
島	-9.68923
的研究	-9.68941
ning	-9.68967
零	-9.68998
張	-9.69052
que	-9.69069
▁stability	-9.69078
原則	-9.69084
▁couple	-9.69199
政權	-9.69266
看看	-9.69309
▁debate	-9.69336
▁develop	-9.69344
▁nations	-9.69365
中東	-9.69525
▁massive	-9.69558
皮	-9.69604
▁讓我們	-9.69616
izing	-9.69662
▁treat	-9.69669
建築	-9.6972
ie	-9.69764
女孩	-9.69802
的能力	-9.69864
容	-9.69885
▁member	-9.69885
1%	-9.69897
組	-9.69921
▁experiment	-9.69943
▁turkey	-9.69943
人生	-9.69994
朝鮮	-9.70012
基礎設施	-9.70023
▁german	-9.70033
黑	-9.70039
▁week	-9.70056
的想法	-9.70058
壞	-9.70072
▁decade	-9.70145
華	-9.70146
▁v	-9.70221
做的	-9.70235
ure	-9.70238
▁complex	-9.70255
18	-9.70289
依然	-9.70289
經濟學家	-9.70291
送	-9.70322
把它	-9.7034
▁18	-9.70397
歐元	-9.70409
角	-9.70452
及其	-9.70472
都在	-9.70528
效果	-9.70624
land	-9.70654
姆	-9.7069
▁那些	-9.70704
▁benefit	-9.70706
是我	-9.70742
▁greece	-9.70827
mer	-9.70879
她們	-9.7093
if	-9.71015
隊	-9.71062
話	-9.71078
▁require	-9.71097
▁我認為	-9.71125
▁represent	-9.71127
小孩	-9.71194
的政策	-9.71223
通脹	-9.71238
演講	-9.71246
▁但在	-9.71298
意思	-9.71454
▁term	-9.71468
▁可以	-9.71501
▁influence	-9.71581
石	-9.71613
12	-9.71655
▁seek	-9.71671
境	-9.71695
最重要的	-9.71706
換	-9.71754
▁russian	-9.7176
類似	-9.71777
巴基斯坦	-9.71787
▁meet	-9.71791
▁effect	-9.71795
製	-9.71962
成員	-9.7197
師	-9.72001
目的	-9.72074
別人	-9.72091
室	-9.72111
▁meeting	-9.72196
不到	-9.72231
▁difference	-9.72246
▁blood	-9.7241
隨	-9.72422
的結果	-9.72487
&	-9.72504
船	-9.72548
年輕	-9.72561
▁例如	-9.72579
一致	-9.72595
允許	-9.7262
叫做	-9.72642
▁接著	-9.72696
群	-9.7272
曼	-9.72757
▁sun	-9.72771
3%	-9.72816
還要	-9.72895
登	-9.72966
▁safe	-9.72989
▁turned	-9.73038
mb	-9.73062
▁maintain	-9.73106
▁size	-9.73112
北	-9.73119
▁area	-9.73125
▁organization	-9.73171
美聯儲	-9.73176
▁sal	-9.73184
像是	-9.73262
勒	-9.73316
▁isn	-9.73386
元	-9.73391
▁month	-9.73406
▁traditional	-9.73523
告訴	-9.73543
▁administration	-9.73596
si	-9.73601
▁rising	-9.73608
投	-9.73641
肯定	-9.73673
15	-9.73674
官員	-9.73733
積極	-9.73823
塊	-9.73858
▁late	-9.73946
價	-9.74007
▁field	-9.74022
置	-9.74076
nt	-9.74136
爆發	-9.74231
預算	-9.74234
▁near	-9.74273
▁investors	-9.74322
的目標	-9.74326
迪	-9.74366
▁largest	-9.74384
誰	-9.74461
清楚	-9.74509
食	-9.74512
har	-9.74543
現	-9.74546
▁millions	-9.74606
▁ensure	-9.74618
▁heard	-9.74632
發展中國家	-9.74656
▁civil	-9.74703
公開	-9.74728
ably	-9.74746
源	-9.74754
所以	-9.7485
▁office	-9.74859
▁red	-9.74884
▁learning	-9.74938
▁worked	-9.74942
▁wasn	-9.74948
演	-9.74985
▁places	-9.74989
第一次	-9.75018
▁changed	-9.75063
殺	-9.75139
▁imf	-9.75139
的情況	-9.75153
▁wall	-9.75203
40	-9.75236
經常	-9.75241
lin	-9.75244
▁freedom	-9.75366
聯繫	-9.75367
▁trust	-9.75377
多少	-9.75405
修	-9.75443
證	-9.75492
▁word	-9.75585
▁spend	-9.75624
艾	-9.75653
貝	-9.75653
也可以	-9.75675
實際上	-9.75736
損失	-9.75739
▁em	-9.75813
▁sw	-9.75855
▁wealth	-9.75876
日益	-9.75887
吉	-9.7594
專家	-9.7596
所謂的	-9.75989
fu	-9.76022
這場	-9.76027
nu	-9.76084
建設	-9.76208
▁dream	-9.76228
▁feeling	-9.76249
政	-9.7628
看見	-9.76293
的生活	-9.76308
▁decision	-9.76348
稅收	-9.76365
▁threat	-9.76402
想法	-9.76407
永遠	-9.7643
▁du	-9.76455
塞	-9.76517
▁effects	-9.76556
▁british	-9.76589
跑	-9.76589
▁receive	-9.76589
放在	-9.76622
這類	-9.76712
客	-9.76713
fl	-9.76733
▁species	-9.76733
creating	-9.76737
▁works	-9.76752
人員	-9.7677
建議	-9.76811
▁moral	-9.76824
大概	-9.76825
幾年	-9.76974
▁legal	-9.77026
mon	-9.7708
▁exchange	-9.77092
投票	-9.771
vo	-9.7712
▁我在	-9.77143
▁gas	-9.77161
調整	-9.77216
▁knowledge	-9.77242
坐	-9.77287
▁與	-9.77301
這樣做	-9.77314
▁amazing	-9.77315
▁hours	-9.77321
▁listen	-9.77331
▁fire	-9.77352
▁voice	-9.77388
▁whose	-9.77516
烏克蘭	-9.77533
汽車	-9.77535
種族	-9.77575
經驗	-9.77579
▁特別是	-9.77581
瞭解	-9.77591
▁everybody	-9.77606
▁政府	-9.7765
記	-9.77672
▁color	-9.77692
思想	-9.77692
▁respect	-9.77706
恢復	-9.77826
神經	-9.77892
▁每	-9.77901
之中	-9.77903
決策	-9.77904
短	-9.77976
▁當時	-9.77982
▁class	-9.78001
▁suggest	-9.78019
私	-9.78025
▁decline	-9.78046
fer	-9.78056
▁dollar	-9.78058
▁fast	-9.781
▁exist	-9.78102
▁annual	-9.78194
▁只要	-9.78194
婦女	-9.78195
▁met	-9.78209
經濟體	-9.78278
十年	-9.78281
選民	-9.78294
▁include	-9.78319
極端	-9.78328
趨勢	-9.78342
巨大	-9.78361
同意	-9.78379
臺	-9.78385
▁target	-9.78458
▁phone	-9.78469
失去	-9.7849
▁expect	-9.785
▁我們的	-9.78523
▁court	-9.78562
▁ne	-9.78591
行為	-9.78623
債券	-9.78639
讓人	-9.7866
全球化	-9.7867
▁green	-9.78674
▁beautiful	-9.78709
▁seven	-9.78717
預期	-9.78719
▁mov	-9.78851
▁shape	-9.78951
優	-9.78982
助	-9.79007
同樣的	-9.79036
退	-9.79064
ber	-9.79086
lock	-9.79109
▁syria	-9.79158
彼此	-9.79229
▁road	-9.79241
▁相反	-9.79283
亂	-9.79297
▁looks	-9.79299
牠們	-9.79319
傷	-9.79381
問題是	-9.79391
▁gain	-9.7943
▁equal	-9.79498
▁hi	-9.79517
▁cell	-9.79518
▁popular	-9.79526
僅	-9.79543
▁bar	-9.79547
值得	-9.79597
引	-9.79682
▁environmental	-9.79706
▁hear	-9.79753
▁還	-9.79785
災難	-9.79828
試著	-9.79843
▁gr	-9.79859
讓他們	-9.79872
第	-9.79888
▁understanding	-9.79912
▁nearly	-9.79992
▁truth	-9.79994
免	-9.80036
腳	-9.80048
▁fair	-9.80062
gi	-9.80104
連結	-9.80104
料	-9.80107
穆斯林	-9.80122
私人	-9.80132
ard	-9.80145
cl	-9.80145
nc	-9.80215
求	-9.80221
▁lo	-9.80279
具	-9.80336
and	-9.80343
病毒	-9.80344
諾	-9.80346
▁americans	-9.80355
▁god	-9.80412
救	-9.80491
▁sustainable	-9.80513
說明	-9.8056
賣	-9.80647
阿富汗	-9.80648
其他人	-9.80688
▁eight	-9.80734
終	-9.80768
團隊	-9.80769
lthough	-9.80861
▁relationship	-9.80865
輪	-9.80874
▁ourselves	-9.80875
鼓勵	-9.80875
廣泛	-9.80876
▁super	-9.80879
▁add	-9.80921
▁mon	-9.80956
手段	-9.80967
▁technologies	-9.81026
這件事	-9.81097
▁再	-9.81111
大多數	-9.81125
▁supply	-9.81253
▁stay	-9.81253
king	-9.8134
▁6	-9.814
課	-9.81401
▁scientists	-9.81428
▁hands	-9.81435
▁production	-9.81439
▁carbon	-9.81449
▁spread	-9.8147
60	-9.81553
▁takes	-9.81621
▁federal	-9.81709
com	-9.81717
▁effort	-9.8179
福	-9.81798
庫	-9.81861
工人	-9.81862
▁physical	-9.81937
洛	-9.81937
▁felt	-9.81943
▁paper	-9.81946
啊	-9.82014
假設	-9.82019
個月	-9.82098
▁manage	-9.82122
▁我們需要	-9.82217
▁forward	-9.82254
正常	-9.8228
▁perfect	-9.82319
▁basic	-9.82407
▁save	-9.82455
碳	-9.82469
▁communities	-9.82473
ud	-9.8254
▁hit	-9.8261
▁respond	-9.82626
▁unemployment	-9.82626
ec	-9.82637
每天	-9.82732
樣	-9.82738
7%	-9.828
▁用	-9.8281
筆	-9.82843
效率	-9.82852
些	-9.8286
▁adopt	-9.82934
▁goal	-9.82944
▁choice	-9.82964
▁leading	-9.82992
▁improve	-9.83058
認識	-9.83118
居	-9.83213
▁normal	-9.83245
公衆	-9.83249
ble	-9.83286
▁隨着	-9.83344
wa	-9.83346
▁今天	-9.83387
▁8	-9.83396
移動	-9.83398
策略	-9.83398
即	-9.8342
功能	-9.83488
分鐘	-9.83569
父母	-9.83608
望	-9.83672
nd	-9.83701
▁consequences	-9.83711
做到	-9.8374
犯	-9.83746
待	-9.83757
▁function	-9.83786
久	-9.83819
▁predict	-9.83849
▁generation	-9.83857
▁stock	-9.83858
保證	-9.83948
減	-9.83982
巴西	-9.83983
財富	-9.8402
▁happening	-9.84104
配	-9.84198
定義	-9.8421
溫	-9.84229
止	-9.84231
▁oh	-9.84244
▁whatever	-9.84268
若	-9.84312
▁而這	-9.84332
▁bush	-9.84381
▁br	-9.84407
班	-9.84409
負	-9.84421
▁leader	-9.84568
模型	-9.84571
istic	-9.84623
來看	-9.84636
症	-9.84637
恩	-9.84644
測試	-9.84663
▁也就是	-9.84709
恐懼	-9.84723
運	-9.84723
多數	-9.84816
森	-9.84872
基金	-9.84904
▁above	-9.84959
紅	-9.85028
電視	-9.85029
▁mass	-9.85043
其它	-9.85053
則是	-9.85067
那種	-9.85093
一條	-9.85141
冷	-9.85143
站	-9.85153
自身	-9.85169
▁attack	-9.85189
基於	-9.85226
用於	-9.85334
好的	-9.8534
▁treatment	-9.85386
台	-9.85391
重點	-9.85413
▁parents	-9.85484
歐	-9.85493
意識到	-9.85495
▁gave	-9.85513
中國的	-9.85521
巴勒斯坦	-9.8558
▁recognize	-9.85696
▁gu	-9.85711
▁tend	-9.85731
▁britain	-9.85748
其他國家	-9.85795
年輕人	-9.85817
fe	-9.85821
外國	-9.85823
▁stage	-9.85867
的機會	-9.85885
不要	-9.85905
▁star	-9.85908
資	-9.85953
適	-9.85966
▁message	-9.85992
▁direct	-9.86014
建造	-9.8602
院	-9.86144
第二	-9.86177
理由	-9.86246
觀點	-9.86271
九	-9.86304
導	-9.86349
倫	-9.86439
▁你會	-9.86455
▁claim	-9.86487
是由	-9.86492
常常	-9.86569
▁fed	-9.8659
吸引	-9.86641
引起	-9.86643
▁solve	-9.86646
ze	-9.86687
▁critical	-9.86704
ps	-9.86779
墨西哥	-9.86784
絲	-9.86784
骨	-9.86784
唯一	-9.86791
母親	-9.86841
的大	-9.86845
萊	-9.86864
▁當你	-9.8687
ward	-9.86887
ability	-9.86903
ner	-9.8691
過程中	-9.87
▁attempt	-9.87008
草	-9.87022
負責	-9.87052
▁wide	-9.87054
dash	-9.87066
▁lose	-9.8707
▁eat	-9.87082
那裡	-9.87184
意大利	-9.87185
eventually	-9.87185
ah	-9.87196
▁structure	-9.87219
ral	-9.87282
▁image	-9.87303
暴	-9.87315
▁9	-9.87327
讓你	-9.87349
河	-9.87387
形式	-9.87392
女人	-9.87442
▁animals	-9.87455
▁pick	-9.87526
ow	-9.87553
牠	-9.87564
rought	-9.87588
af	-9.87644
往往	-9.87692
獲	-9.87693
basically	-9.87742
▁measures	-9.87798
迅速	-9.8783
▁若	-9.87931
▁advanced	-9.87954
▁machine	-9.87959
▁cases	-9.87969
▁medical	-9.87993
留	-9.88001
想到	-9.88035
▁mu	-9.88048
包	-9.88132
明白	-9.88133
拍	-9.88154
投入	-9.88176
善	-9.88226
4%	-9.88311
▁achieve	-9.8836
股	-9.88393
160	-9.88431
請	-9.88563
最大	-9.88576
限	-9.88599
階段	-9.88644
贏得	-9.88677
▁當我們	-9.8868
2008	-9.88694
▁universe	-9.88888
過度	-9.88908
放棄	-9.88975
ai	-9.89083
國會	-9.8911
▁following	-9.89174
▁raise	-9.8922
▁send	-9.89238
mp	-9.89251
ten	-9.89294
▁father	-9.89302
▁programs	-9.89357
痛苦	-9.89395
確定	-9.89441
▁politicians	-9.89447
ron	-9.8946
▁launch	-9.89462
頂	-9.89496
蒂	-9.89545
▁我要	-9.89556
▁requires	-9.89616
▁&	-9.89677
蓋	-9.89706
當前	-9.89806
8%	-9.89818
ris	-9.89818
2%	-9.89823
▁protection	-9.89888
總理	-9.89909
hy	-9.89938
▁dead	-9.89944
歌	-9.89955
尋求	-9.89959
fa	-9.89962
ped	-9.89972
覺	-9.9
▁那就是	-9.90002
隻	-9.90023
生存	-9.90036
益	-9.90054
都不	-9.9006
處於	-9.90077
為了	-9.90095
▁如	-9.90106
▁與此同時	-9.90123
記錄	-9.90127
▁collapse	-9.90206
有很多	-9.90317
信任	-9.90318
▁turns	-9.90361
▁cooperation	-9.90372
有點	-9.90381
▁walk	-9.90465
一半	-9.90524
降	-9.90527
▁歐盟	-9.90607
的主要	-9.90612
▁capacity	-9.90621
▁guy	-9.90757
▁speak	-9.90774
▁failed	-9.90809
▁7	-9.90812
▁anyone	-9.90816
▁tr	-9.90816
彈	-9.90836
▁win	-9.90849
▁promise	-9.90875
農業	-9.90878
購買	-9.90957
▁couldn	-9.90986
座	-9.91005
▁parties	-9.9106
事實上	-9.91063
▁consumption	-9.91122
突然	-9.91127
如果你	-9.91147
▁parts	-9.91165
▁industrial	-9.91203
訊息	-9.91214
軍隊	-9.91226
復	-9.91274
更好的	-9.91281
▁我是	-9.91343
▁把	-9.91455
促進	-9.91473
▁12	-9.91491
聚	-9.91521
查	-9.91529
刻	-9.91532
▁university	-9.91541
▁commitment	-9.91548
剛	-9.91613
紙	-9.91618
融資	-9.91733
議會	-9.91744
▁yea	-9.91783
命	-9.91844
coming	-9.91919
的小	-9.91968
time	-9.92043
友	-9.92044
攻擊	-9.92048
回答	-9.92051
停止	-9.92053
▁dangerous	-9.92054
解決方案	-9.9208
使得	-9.92096
▁boost	-9.92131
成立	-9.9226
▁subject	-9.923
手機	-9.9234
證據	-9.92378
rus	-9.92404
例子	-9.92408
需	-9.92469
▁patients	-9.92483
到底	-9.92501
出了	-9.92515
▁official	-9.92521
▁travel	-9.92554
宣佈	-9.92555
▁results	-9.92557
警	-9.92597
野	-9.92612
發明	-9.92635
6%	-9.92718
物質	-9.92719
▁更	-9.92723
聲音	-9.92734
▁eyes	-9.92734
▁clearly	-9.92752
思	-9.92766
▁不管	-9.92768
lic	-9.92798
莫	-9.92803
é	-9.92809
而不是	-9.9289
▁visit	-9.92895
▁larger	-9.92912
▁wonder	-9.92976
▁tried	-9.92996
▁necessary	-9.93033
範圍	-9.93038
▁weapons	-9.9308
獨	-9.93092
滿足	-9.93105
▁majority	-9.93143
省	-9.9315
聯邦	-9.93152
▁die	-9.93163
數學	-9.93195
展示	-9.93237
射	-9.93281
障礙	-9.9332
舊	-9.93402
▁alternative	-9.93406
訓練	-9.93406
追求	-9.93411
激	-9.93455
輸	-9.93468
▁drug	-9.93477
很好	-9.93504
罪	-9.93542
▁available	-9.93577
▁block	-9.9361
根據	-9.93644
案	-9.9365
▁vision	-9.93666
聖	-9.93736
跳	-9.93746
ran	-9.9376
▁values	-9.93799
amp	-9.93807
僅僅	-9.93879
當然	-9.93881
整	-9.93895
治	-9.93912
牛	-9.9392
評估	-9.93921
▁2010	-9.93964
▁spen	-9.93977
逐漸	-9.94007
▁hundreds	-9.94012
土地	-9.94049
der	-9.94049
▁employment	-9.9411
經過	-9.94122
我在	-9.94122
可能是	-9.94126
有了	-9.94176
▁giving	-9.94179
懷疑	-9.94182
很多人	-9.9423
ification	-9.94246
應當	-9.94249
苦	-9.94302
ham	-9.94319
▁無論	-9.94397
創	-9.94491
廣	-9.94499
心理	-9.94534
▁reasons	-9.94538
目	-9.94551
▁emissions	-9.94611
央行	-9.94612
ify	-9.9466
▁humans	-9.94689
▁positive	-9.94698
充分	-9.94717
▁sell	-9.94764
▁shows	-9.94871
酒	-9.94871
行業	-9.94893
▁於是	-9.94963
更爲	-9.95057
預	-9.95098
▁council	-9.95132
比例	-9.95144
男性	-9.95213
者的	-9.95255
結合	-9.95298
明顯	-9.95307
領	-9.95317
充滿	-9.95424
▁friend	-9.95428
也沒有	-9.95495
弱	-9.95503
例	-9.95503
的未來	-9.95558
▁tools	-9.95573
大幅	-9.95575
ob	-9.95578
的觀點	-9.95579
ger	-9.95627
追	-9.95737
款	-9.95764
▁transform	-9.95793
▁boy	-9.95808
▁somebody	-9.95831
based	-9.95833
▁decisions	-9.95859
▁enter	-9.95889
倫敦	-9.95919
差異	-9.95954
智	-9.96005
對抗	-9.96052
穿	-9.96131
木	-9.96176
▁brazil	-9.96183
共和黨	-9.96183
化的	-9.96257
av	-9.96316
▁weeks	-9.96355
一張	-9.96362
▁measure	-9.96412
▁讓我	-9.96422
頓	-9.96447
蒙	-9.96447
一天	-9.9647
進程	-9.96481
我們可以	-9.96513
正確	-9.96571
強調	-9.96585
的孩子	-9.96602
削減	-9.96624
下去	-9.96646
▁highly	-9.96648
▁cover	-9.96742
團體	-9.9676
au	-9.9678
▁born	-9.9683
工資	-9.96837
ny	-9.96953
惡	-9.97
lan	-9.97013
▁ju	-9.97047
必要	-9.9712
pro	-9.97128
▁write	-9.97178
▁像	-9.97178
任務	-9.97179
fin	-9.97191
▁pe	-9.97192
▁dark	-9.97239
陷入	-9.97288
能量	-9.97289
▁expected	-9.97317
電話	-9.97353
不只是	-9.97372
偏	-9.97425
▁來	-9.97428
▁count	-9.97446
影響力	-9.97479
▁即	-9.97486
裡面	-9.97557
腐敗	-9.97602
ified	-9.97714
人士	-9.97763
普遍	-9.97783
▁ted	-9.97854
太空	-9.9792
▁numbers	-9.97938
普京	-9.97959
全球經濟	-9.97979
▁propos	-9.97979
團	-9.97979
▁worth	-9.97994
支	-9.98014
許多人	-9.98015
▁london	-9.98048
不需要	-9.98096
以上	-9.98114
伯	-9.98137
學家	-9.98146
100	-9.98159
晚	-9.98165
最高	-9.98175
怪	-9.98179
▁productivity	-9.98229
25	-9.98253
主義者	-9.98368
緊	-9.98374
改	-9.98378
概念	-9.98444
▁putin	-9.98452
lar	-9.9849
傷害	-9.98541
份	-9.98612
藏	-9.98674
果	-9.98692
王	-9.98695
▁defense	-9.98696
的例子	-9.98748
作為	-9.98767
80	-9.98803
這麼做	-9.98803
防	-9.98855
▁這是一個	-9.98862
批評	-9.98872
房	-9.98899
對話	-9.98909
uc	-9.98913
▁clean	-9.98949
ab	-9.9895
歐洲央行	-9.98953
協定	-9.98953
含	-9.99029
▁mark	-9.99062
民族	-9.99066
準	-9.99125
一份	-9.99152
朝	-9.99218
阿拉伯	-9.99226
▁pakistan	-9.99254
衰退	-9.99372
ties	-9.99459
▁其實	-9.9946
ping	-9.99462
▁deficit	-9.99504
▁cross	-9.99505
少數	-9.99525
▁intervention	-9.99583
儲蓄	-9.99584
▁digital	-9.99585
▁leg	-9.9962
發生了	-9.99629
權利	-9.99642
▁encourage	-9.99675
剛剛	-9.99702
表達	-9.99717
▁gone	-9.99726
計算	-9.99759
西班牙	-9.99766
集團	-9.99773
統治	-9.99823
▁正如	-9.99886
▁officials	-9.99892
方面的	-9.99905
▁export	-9.99907
運用	-9.9997
癌症	-9.99984
如今	-10.0001
試	-10.0006
的風險	-10.001
cra	-10.0013
信心	-10.0014
的關鍵	-10.0019
從未	-10.0022
▁有些	-10.0031
ea	-10.0032
mor	-10.0033
只要	-10.0034
義	-10.0041
韓國	-10.0043
它們的	-10.0043
▁ukraine	-10.005
奧巴馬	-10.0054
▁weak	-10.0055
▁task	-10.0059
cr	-10.0065
武器	-10.0067
▁ja	-10.0067
▁theory	-10.0068
ative	-10.0072
完	-10.0073
體制	-10.0075
聯	-10.0076
▁我們必須	-10.0077
▁map	-10.0077
▁inequality	-10.0077
▁kinds	-10.0081
在美國	-10.0082
承擔	-10.0087
富	-10.0089
看著	-10.0092
歸	-10.0096
記憶	-10.0096
▁material	-10.01
足	-10.0106
▁damage	-10.0115
男人	-10.0115
rate	-10.0116
商品	-10.0116
接近	-10.0117
▁他說	-10.012
▁street	-10.012
貧窮	-10.0124
工業	-10.0126
▁reli	-10.0136
▁conversation	-10.0142
gen	-10.0145
全部	-10.0151
pp	-10.016
▁police	-10.0161
▁broad	-10.0169
▁min	-10.0171
意識	-10.0174
優勢	-10.018
▁英國	-10.0186
▁contain	-10.0189
描述	-10.0189
io	-10.0191
問題上	-10.0192
產業	-10.0203
製作	-10.0205
▁commission	-10.0208
工程	-10.021
潛在	-10.0212
......	-10.0218
▁realized	-10.0218
10%	-10.0221
▁同樣	-10.0223
圈	-10.0235
▁happy	-10.0235
▁minutes	-10.0235
men	-10.0235
den	-10.0236
▁lu	-10.0239
劇	-10.0239
▁uk	-10.024
在那裡	-10.0241
▁source	-10.0242
護	-10.0244
堅持	-10.0246
▁base	-10.0248
脫	-10.0249
鐵	-10.0253
▁mil	-10.0256
▁blue	-10.0263
現今	-10.0268
▁直到	-10.0273
完美	-10.0274
ants	-10.0275
痛	-10.028
▁scientific	-10.0282
▁opportunities	-10.0282
▁strengthen	-10.0284
▁running	-10.0284
▁supposed	-10.0288
▁justice	-10.029
▁products	-10.0292
憲法	-10.0302
▁cha	-10.0304
▁film	-10.031
ya	-10.0314
▁firms	-10.0316
記得	-10.0319
▁strategic	-10.032
消費者	-10.0324
▁hospital	-10.0329
分裂	-10.0333
出來的	-10.0335
▁yourself	-10.0337
實驗室	-10.034
▁character	-10.0345
▁join	-10.035
貢獻	-10.0358
▁40	-10.0362
ov	-10.0365
han	-10.0365
驚	-10.0371
▁印度	-10.0374
▁su	-10.0375
▁advantage	-10.0377
▁concept	-10.0377
▁policymakers	-10.0377
▁changing	-10.038
去年	-10.0385
▁afghanistan	-10.0386
引發	-10.0393
▁而我	-10.0417
後果	-10.0418
▁德國	-10.0422
絕對	-10.0423
▁structural	-10.0424
▁held	-10.0424
辦	-10.0425
▁crime	-10.0427
▁press	-10.0429
屬於	-10.0429
瑪	-10.0434
議題	-10.0436
▁asian	-10.0442
智慧	-10.0443
▁unfortunately	-10.0447
ily	-10.045
毛	-10.0453
某個	-10.0454
▁choose	-10.0454
的一部分	-10.0456
▁quality	-10.0459
動作	-10.0464
一開始	-10.0465
慢	-10.0471
牆	-10.0472
▁agenda	-10.0482
▁girls	-10.0482
▁individuals	-10.0483
威	-10.0485
有什麼	-10.0489
赤字	-10.049
▁fi	-10.0491
▁bill	-10.0491
tan	-10.0499
裡的	-10.0499
▁absolute	-10.0501
▁我們在	-10.0501
▁banking	-10.0506
疑	-10.052
植物	-10.052
技能	-10.0521
角色	-10.0525
▁不是	-10.0526
▁projects	-10.0527
速度	-10.0527
ler	-10.0532
ja	-10.0534
▁counter	-10.0535
官	-10.0543
▁lab	-10.0547
▁genetic	-10.0551
這次	-10.0555
▁drugs	-10.0561
▁serve	-10.0572
▁service	-10.0575
戴	-10.0578
雅	-10.0578
▁type	-10.058
破	-10.0584
尤其	-10.0587
▁所有	-10.0587
▁trillion	-10.0588
告	-10.0593
百萬	-10.0593
▁fly	-10.0597
▁根據	-10.06
條約	-10.06
許	-10.0603
▁solutions	-10.0605
短期	-10.0606
懂	-10.0607
▁performance	-10.0608
英	-10.0611
▁online	-10.0612
▁okay	-10.0617
符合	-10.0618
▁direction	-10.0622
▁favor	-10.0626
人權	-10.0627
很快	-10.0629
▁voters	-10.0629
▁trend	-10.0629
住在	-10.0632
▁sex	-10.064
問題的	-10.0641
dr	-10.0642
但是	-10.0643
屬	-10.065
在一個	-10.0654
▁pen	-10.0658
賽	-10.066
對此	-10.0661
紐約	-10.0663
▁&#	-10.0671
ka	-10.0672
▁japanese	-10.0675
消失	-10.0676
▁suffer	-10.0676
▁新	-10.0681
▁signal	-10.0692
發生的	-10.0693
默	-10.0695
大型	-10.0695
散	-10.0701
托	-10.0705
甚麼	-10.0705
▁connect	-10.0706
▁regulation	-10.0714
▁relations	-10.0714
chi	-10.0716
▁我會	-10.0721
材料	-10.0725
▁seeing	-10.0725
互動	-10.0725
標	-10.0732
▁congress	-10.0734
▁surface	-10.0734
保險	-10.0734
▁designed	-10.0735
進展	-10.0736
應用	-10.0737
兩國	-10.0737
來源	-10.0751
▁struggle	-10.0754
景	-10.0755
發揮	-10.0758
測	-10.0759
的力量	-10.0762
▁egypt	-10.0762
▁fe	-10.0763
看來	-10.0768
息	-10.0769
▁assets	-10.0769
也在	-10.0771
▁responsibility	-10.0774
ft	-10.0778
▁gap	-10.0778
one	-10.078
醫院	-10.0784
▁argument	-10.0784
匯率	-10.0784
▁實際上	-10.0785
的政府	-10.0794
▁economists	-10.0799
▁請	-10.0801
▁通過	-10.0805
採用	-10.0807
套	-10.0809
▁dna	-10.0811
▁trans	-10.0815
勝	-10.0817
▁audience	-10.0833
更好	-10.0837
道路	-10.0841
▁爲了	-10.0852
一名	-10.0861
抗	-10.0861
設	-10.0864
發生在	-10.0866
▁rough	-10.0867
印	-10.0868
▁impossible	-10.0873
▁negative	-10.0873
▁protest	-10.0873
告訴我	-10.0877
即使	-10.0879
ade	-10.088
ile	-10.0887
而非	-10.0892
左右	-10.0895
有多	-10.0899
ric	-10.09
一隻	-10.09
餘	-10.0903
▁degree	-10.0903
▁hu	-10.0903
wise	-10.0906
會被	-10.0909
銷	-10.0913
▁organizations	-10.0914
iv	-10.0915
▁cold	-10.0915
▁kid	-10.0916
曲	-10.0917
和我	-10.0917
是如何	-10.0918
不過	-10.0922
下的	-10.0926
臉	-10.0931
槍	-10.0933
▁2015	-10.0938
簡單的	-10.0944
參加	-10.0945
▁日本	-10.0949
print	-10.0951
▁pain	-10.0953
▁shared	-10.0956
治理	-10.0957
▁因為我	-10.096
▁fail	-10.0965
相互	-10.0968
一系列	-10.0973
打擊	-10.0976
▁families	-10.0983
▁competition	-10.0983
▁agree	-10.0984
▁在我	-10.0986
你可以	-10.0987
學到	-10.0987
急	-10.099
提升	-10.099
▁zero	-10.0993
什麽	-10.0993
的支持	-10.0994
是因爲	-10.0997
有趣的	-10.1002
避	-10.1002
崩潰	-10.1003
擴張	-10.1004
▁limited	-10.101
▁pull	-10.1014
ey	-10.1015
▁network	-10.1016
▁liberal	-10.1027
▁towards	-10.1032
傑	-10.1034
▁biggest	-10.1034
▁opposition	-10.1034
eg	-10.1048
▁faster	-10.1048
right	-10.1049
▁religious	-10.1054
▁ban	-10.1056
▁sc	-10.1056
so	-10.1058
▁世界	-10.1062
off	-10.1065
一直在	-10.1069
夢想	-10.1071
▁intelligence	-10.1074
▁recession	-10.1074
▁mistake	-10.1085
特定	-10.1087
福利	-10.1087
在我	-10.1095
類似的	-10.1098
最好的	-10.1103
博	-10.1104
▁governance	-10.1106
持	-10.1109
不足	-10.1111
our	-10.1114
▁globalization	-10.1115
tive	-10.1115
聰明	-10.1115
政黨	-10.1119
移	-10.112
快樂	-10.1133
▁john	-10.1136
♫♫	-10.1137
▁scar	-10.1137
▁sl	-10.114
雨	-10.1146
▁shock	-10.1146
的聲音	-10.1148
扮演	-10.1156
▁realize	-10.1158
發達國家	-10.116
▁但如果	-10.1164
錄	-10.1166
背景	-10.1167
分配	-10.1169
qu	-10.117
負擔	-10.1173
哥	-10.1177
主席	-10.1178
加強	-10.1187
▁urban	-10.1187
很重要	-10.1198
可以在	-10.12
充	-10.1204
▁elections	-10.1205
▁argue	-10.1207
▁indian	-10.1211
ib	-10.1212
▁bio	-10.1214
▁el	-10.1217
遇到	-10.1224
gg	-10.1226
貨幣政策	-10.1227
金融危機	-10.1228
脆弱	-10.1228
一件	-10.1229
bl	-10.1235
詩	-10.1239
專	-10.124
感染	-10.1244
每一個	-10.1244
由於	-10.1245
上面	-10.1246
電子	-10.1254
硬	-10.1258
▁我知道	-10.1259
適應	-10.1272
▁最	-10.1272
▁z	-10.1276
全面	-10.1279
▁plant	-10.128
▁radical	-10.128
不夠	-10.1282
▁specific	-10.1282
干預	-10.1282
▁1990	-10.1284
背	-10.1285
▁muslim	-10.1286
▁list	-10.1287
年來	-10.1287
▁contrast	-10.129
▁卻	-10.1296
每個人都	-10.1297
失業	-10.1302
▁ni	-10.1306
發表	-10.1315
得以	-10.1319
物種	-10.1325
平等	-10.1325
▁cultural	-10.1328
出生	-10.1331
ray	-10.1332
▁micro	-10.1335
▁regard	-10.134
輕	-10.1341
▁app	-10.1344
票	-10.1349
▁fun	-10.135
▁wave	-10.135
ultimately	-10.1357
網站	-10.1357
強化	-10.136
在這	-10.1362
▁它是	-10.1364
收益	-10.1365
▁funds	-10.1367
我們在	-10.1369
▁skills	-10.137
等等	-10.137
防止	-10.1375
性別	-10.1376
▁enable	-10.1376
所有人	-10.1377
內容	-10.138
得多	-10.1385
▁initiative	-10.1385
該國	-10.1388
效應	-10.139
更大的	-10.1401
▁status	-10.1405
▁girl	-10.1406
▁becomes	-10.1406
象	-10.1407
找出	-10.1415
探索	-10.1416
主權	-10.1416
年後	-10.1417
ual	-10.1421
ev	-10.1441
政府的	-10.1444
ue	-10.1447
▁bottom	-10.1448
▁islamic	-10.145
▁rapid	-10.1456
未來的	-10.1461
▁terrorist	-10.1465
徹底	-10.1469
接觸	-10.1477
▁context	-10.1479
▁畢竟	-10.1479
呈現	-10.1481
空氣	-10.1483
hu	-10.1486
決	-10.149
態	-10.1495
議	-10.1497
▁surprise	-10.1501
有助於	-10.1501
▁contract	-10.1511
▁publish	-10.1511
▁fill	-10.1517
蘇聯	-10.1522
▁track	-10.1523
化學	-10.1529
▁wrote	-10.1533
給予	-10.1533
▁除了	-10.1542
示	-10.1549
談論	-10.1549
row	-10.155
▁tru	-10.1552
在這個	-10.1559
獎	-10.1565
害怕	-10.1565
惡化	-10.1572
▁park	-10.1573
nce	-10.1573
綠色	-10.1576
ee	-10.1577
現有	-10.1577
興奮	-10.1586
▁refugees	-10.1588
星期	-10.1593
中間	-10.1594
▁earlier	-10.1597
▁involved	-10.1604
▁ahead	-10.1604
末	-10.1617
▁below	-10.1617
ator	-10.162
▁recovery	-10.1625
站在	-10.1628
母	-10.1628
會在	-10.1629
▁transition	-10.1629
最新	-10.1629
普通	-10.1631
▁usually	-10.1637
▁goals	-10.1638
val	-10.1639
▁latin	-10.164
▁vast	-10.1652
一個人	-10.1655
▁none	-10.1656
禁	-10.1661
觸	-10.1661
while	-10.1663
老師	-10.1664
▁kill	-10.1668
ible	-10.167
▁finding	-10.1672
▁board	-10.1678
提到	-10.1679
own	-10.1679
▁fa	-10.1681
包含	-10.1683
成了	-10.1684
▁italy	-10.1686
拯救	-10.1694
框架	-10.1694
在未來	-10.1694
程式	-10.1699
供應	-10.17
20%	-10.1701
dna	-10.1701
▁directly	-10.1704
▁mid	-10.1704
燈	-10.1704
的發展	-10.1708
可以看到	-10.1713
mit	-10.1715
▁0	-10.1722
正式	-10.1726
▁nation	-10.1736
▁$1	-10.1737
的關係	-10.1741
影	-10.1748
▁medicine	-10.1748
太多	-10.1749
▁playing	-10.1752
bb	-10.1756
衝擊	-10.1759
成就	-10.1761
▁為了	-10.1761
襲擊	-10.177
擔憂	-10.177
強烈	-10.177
▁net	-10.1772
聯合	-10.1772
施	-10.1772
是要	-10.1774
照片	-10.1777
▁ka	-10.1778
爭	-10.1778
▁organ	-10.1785
布什	-10.1785
ice	-10.1788
▁succeed	-10.1792
hol	-10.1792
▁我們也	-10.1794
light	-10.1797
nes	-10.1802
▁cool	-10.1807
▁framework	-10.1814
▁第二	-10.1814
▁2009	-10.1815
外部	-10.1815
即將	-10.182
▁concern	-10.1822
▁我說	-10.1825
▁collective	-10.1827
▁training	-10.1832
nder	-10.1832
具體	-10.1835
▁kingdom	-10.1835
距離	-10.1836
當你	-10.1844
隱	-10.1845
潮	-10.1846
sha	-10.1847
俄國	-10.1849
tu	-10.1851
嚴重的	-10.1853
寶	-10.1857
亮	-10.1857
▁shown	-10.1861
不用	-10.1863
▁standard	-10.1875
的基礎	-10.1878
▁revenue	-10.1879
程	-10.188
▁independent	-10.1881
牌	-10.1889
▁farm	-10.1891
吸	-10.1893
▁全球	-10.1893
45	-10.1893
雖然	-10.1899
▁outcome	-10.19
肉	-10.1901
表面	-10.1902
▁era	-10.1906
認識到	-10.1909
城	-10.1911
▁mexico	-10.1913
▁check	-10.1913
▁corruption	-10.1914
何	-10.1917
▁2011	-10.1922
▁ready	-10.1926
犯罪	-10.1928
觀眾	-10.1935
付	-10.1942
▁purpose	-10.1946
激勵	-10.1946
▁stress	-10.1946
▁25	-10.1949
oo	-10.195
有效的	-10.1952
衛	-10.1953
是有	-10.1958
理想	-10.1966
意味著	-10.1968
gent	-10.1972
唱	-10.1979
秩序	-10.1979
全國	-10.1982
▁product	-10.1983
pl	-10.1988
有著	-10.1998
件事	-10.2003
▁worldwide	-10.2005
▁schools	-10.2009
▁societies	-10.2013
身份	-10.2015
是如此	-10.2015
▁solar	-10.2016
出現了	-10.2016
▁models	-10.2023
▁greek	-10.2024
勝利	-10.2026
強大的	-10.2028
公平	-10.2032
▁corporate	-10.2035
▁saudi	-10.2035
▁goods	-10.2036
得要	-10.2037
良	-10.2037
▁carry	-10.204
▁sign	-10.2045
封	-10.2046
▁bonds	-10.2047
麥	-10.2054
架	-10.2055
▁range	-10.2056
▁obvious	-10.2057
疫苗	-10.2069
支付	-10.207
坐在	-10.2073
第三	-10.2074
▁2012	-10.2079
▁conference	-10.208
▁doubt	-10.208
bal	-10.2082
勞	-10.2082
早期	-10.2083
cho	-10.2089
▁island	-10.2091
▁confidence	-10.2091
經濟學	-10.2096
載	-10.2103
▁meaning	-10.211
堅	-10.2111
▁expand	-10.2111
夜	-10.2112
了我	-10.2112
▁table	-10.2123
▁ones	-10.2125
決策者	-10.2125
取代	-10.2127
▁eye	-10.2127
▁第一	-10.2131
提供了	-10.2133
▁external	-10.2136
▁perspective	-10.2136
緊縮	-10.2137
害	-10.2137
專業	-10.2137
400	-10.2139
靈	-10.2141
war	-10.2148
▁search	-10.2148
▁points	-10.2148
爭論	-10.2159
成果	-10.2159
▁advance	-10.216
▁rep	-10.2163
說服	-10.2164
味	-10.2167
▁occur	-10.217
▁essential	-10.217
▁establish	-10.217
▁fo	-10.217
都能	-10.2171
奇怪	-10.2188
▁israeli	-10.2192
▁washington	-10.2193
part	-10.2195
以後	-10.2197
衛生	-10.2201
▁internal	-10.2205
當今	-10.2209
▁reserve	-10.2213
給我	-10.2214
爲什麼	-10.2224
car	-10.2225
▁sleep	-10.2239
茲	-10.2239
作品	-10.224
終於	-10.224
簡	-10.2242
債	-10.2245
洗	-10.225
▁像是	-10.2252
▁loss	-10.2253
▁guys	-10.226
家人	-10.2261
菌	-10.2261
▁depression	-10.2262
▁san	-10.2262
▁businesses	-10.2266
認	-10.2267
的全球	-10.2268
依	-10.227
實力	-10.2276
▁laws	-10.2277
char	-10.2285
▁fully	-10.229
▁creation	-10.2296
回應	-10.23
▁taxes	-10.2301
▁嗯	-10.2303
▁bomb	-10.2304
執政	-10.2306
▁everywhere	-10.2308
▁basis	-10.2308
▁對吧	-10.2314
貴	-10.2319
▁activity	-10.232
▁wish	-10.2324
▁我也	-10.2324
▁historical	-10.2326
崛起	-10.2331
▁ecb	-10.2331
ier	-10.2332
統計	-10.2334
▁standards	-10.2336
hen	-10.2337
糟糕	-10.2338
速	-10.234
cc	-10.2341
劑	-10.2342
▁worry	-10.2342
溝通	-10.2343
▁final	-10.2343
而已	-10.2345
▁而在	-10.235
更有	-10.2353
超級	-10.2355
▁還是	-10.2356
▁rec	-10.2357
▁forced	-10.2358
固	-10.2364
店	-10.2364
like	-10.2365
▁adapt	-10.2365
人物	-10.2366
▁wind	-10.2366
毫無	-10.2367
ight	-10.2368
我要	-10.2368
事物	-10.2376
▁forest	-10.2376
盤	-10.2377
▁chemical	-10.2377
醫學	-10.2377
巨	-10.2393
▁我們會	-10.2397
體驗	-10.2398
生活在	-10.24
▁matters	-10.2403
之處	-10.2406
衝	-10.2411
▁destroy	-10.2412
一段	-10.2412
手術	-10.2414
來到	-10.2414
9%	-10.2417
不但	-10.2419
▁drop	-10.2421
森林	-10.2425
▁asking	-10.2433
▁reject	-10.2435
警察	-10.2435
傳播	-10.2436
▁practice	-10.2438
nic	-10.244
農	-10.2442
za	-10.2448
▁wa	-10.245
▁negotiations	-10.2459
▁最近	-10.246
year	-10.2461
▁最終	-10.2462
在那	-10.2465
做什麼	-10.2465
yearold	-10.2466
▁2014	-10.2468
候選人	-10.247
▁enjoy	-10.247
我們所	-10.2473
▁ge	-10.2476
也能	-10.2477
▁limit	-10.2485
勢力	-10.2486
員工	-10.2487
▁11	-10.2488
沒有任何	-10.2488
世界各地	-10.2488
恐怖	-10.249
▁bear	-10.2492
寬	-10.2493
這位	-10.2495
len	-10.2496
▁2013	-10.2497
相同	-10.2498
逃	-10.2499
▁prefer	-10.2501
的角色	-10.2501
▁palestinian	-10.2503
細菌	-10.2506
▁大家	-10.2506
遭到	-10.2506
lit	-10.2507
排放	-10.2511
告訴我們	-10.2511
log	-10.2512
▁patient	-10.2515
蟲	-10.2517
▁authority	-10.2519
▁自	-10.2523
▁reduc	-10.2526
單一	-10.2527
▁mental	-10.2528
質量	-10.2529
▁ran	-10.2529
的增長	-10.253
就有	-10.2541
▁這裡	-10.2543
告訴你	-10.2545
舉行	-10.255
▁site	-10.2554
花了	-10.2554
spect	-10.2558
▁tu	-10.2559
▁active	-10.2561
構成	-10.2561
規定	-10.2566
▁root	-10.2566
周	-10.2569
▁exports	-10.2572
巴黎	-10.2576
付出	-10.2578
以為	-10.258
好處	-10.2581
順	-10.2587
▁不論	-10.2587
的歷史	-10.2588
▁extend	-10.2588
▁speed	-10.2588
複雜的	-10.2592
摩	-10.26
▁studies	-10.26
利潤	-10.26
▁putt	-10.2601
▁link	-10.2605
▁para	-10.2609
▁bubble	-10.2612
▁nine	-10.2617
▁da	-10.2619
point	-10.2619
想想	-10.2622
▁flow	-10.2623
▁therefore	-10.2624
統一	-10.2625
層面	-10.2627
在此	-10.2628
▁這樣的	-10.2631
▁collect	-10.2635
▁authorities	-10.2636
污染	-10.2647
黑人	-10.2651
搞	-10.2659
飛機	-10.266
▁paris	-10.2662
轉型	-10.2663
的挑戰	-10.2668
遠遠	-10.267
感受	-10.2671
▁fr	-10.2676
會發生	-10.2678
▁我們有	-10.2686
二十	-10.2687
團結	-10.2688
▁也是	-10.2689
▁treaty	-10.2691
50%	-10.2693
▁trouble	-10.2695
隔	-10.2696
緊張	-10.2696
合理	-10.2696
退出	-10.2697
▁integration	-10.2697
不平等	-10.2699
隨著	-10.27
▁interested	-10.2702
升	-10.2704
▁或許	-10.2706
遏制	-10.2707
特殊	-10.2707
▁cap	-10.2707
ath	-10.2709
▁events	-10.2713
▁enormous	-10.2719
▁door	-10.272
勞動力	-10.272
how	-10.2721
▁presidential	-10.2724
臨	-10.2728
醫	-10.2729
菲	-10.2731
備	-10.2734
顯著	-10.2734
述	-10.2734
▁college	-10.2743
▁upon	-10.2752
▁wouldn	-10.2753
▁因為我們	-10.2754
▁himself	-10.2755
他人	-10.2758
改變了	-10.2759
▁你知道	-10.276
地球上	-10.2762
碼	-10.2778
▁cheap	-10.2779
哪些	-10.278
就在	-10.2789
pla	-10.279
▁unique	-10.2791
生產率	-10.2796
也就是	-10.2798
注意	-10.2802
環	-10.2802
希	-10.2803
▁parliament	-10.2803
▁import	-10.2803
▁tiny	-10.2805
▁implement	-10.2805
cor	-10.2813
ome	-10.2814
▁unit	-10.2814
▁detail	-10.2815
▁500	-10.2823
▁healthy	-10.2828
▁easily	-10.2828
▁race	-10.2834
ain	-10.2837
狗	-10.284
赫	-10.284
按	-10.2851
佛	-10.2851
market	-10.2851
很大的	-10.2854
時刻	-10.2855
▁box	-10.2858
核心	-10.2858
是非常	-10.2862
▁village	-10.2864
代價	-10.2866
▁charge	-10.2868
▁diseases	-10.287
▁camp	-10.2871
當我	-10.2871
互相	-10.2871
跨	-10.2874
▁secret	-10.2875
▁telling	-10.2877
produc	-10.2879
▁feed	-10.288
put	-10.2882
癌	-10.2884
▁mine	-10.2886
回報	-10.2889
復甦	-10.2891
▁son	-10.2894
的可能性	-10.2896
▁jo	-10.29
當局	-10.2906
留下	-10.2918
▁movie	-10.2923
有一些	-10.2923
des	-10.2924
同事	-10.2925
▁guarantee	-10.2925
必須要	-10.2925
強大	-10.2928
釋放	-10.293
▁200	-10.2932
▁sitt	-10.2935
▁decide	-10.2938
誤	-10.2939
有限	-10.294
▁efficient	-10.294
消	-10.2941
mu	-10.2942
高度	-10.2948
net	-10.2949
相比	-10.295
▁objective	-10.2952
對我們	-10.2954
每個人	-10.2956
▁willing	-10.2964
▁trial	-10.2964
▁seemed	-10.2964
▁bigger	-10.2965
▁ice	-10.2965
成功的	-10.2966
動盪	-10.2976
▁fit	-10.2976
患者	-10.2977
du	-10.2979
很大	-10.2986
▁books	-10.2986
幕	-10.2986
▁virtual	-10.2987
▁severe	-10.2987
的速度	-10.2987
很有	-10.2987
▁attacks	-10.2987
估計	-10.2989
▁sit	-10.2991
食品	-10.2993
for	-10.2993
▁foundation	-10.2995
▁card	-10.2997
大陸	-10.2997
▁soviet	-10.2999
▁double	-10.2999
▁aim	-10.3001
q	-10.3002
儘管	-10.3002
重建	-10.3005
相反	-10.3008
▁factors	-10.3015
▁cur	-10.3016
的經驗	-10.3019
▁discovered	-10.302
▁male	-10.302
▁俄羅斯	-10.3021
▁associat	-10.3021
控	-10.3021
細	-10.3022
不想	-10.3023
▁technological	-10.3024
併	-10.3024
▁baby	-10.3025
立法	-10.3025
▁existing	-10.3029
▁continued	-10.3032
執	-10.3032
懷	-10.3035
進口	-10.3036
▁elsewhere	-10.3036
禁止	-10.3037
的反應	-10.304
▁engineer	-10.3044
▁continent	-10.3048
設備	-10.3049
▁artist	-10.3049
▁code	-10.3051
ub	-10.3053
國際社會	-10.3057
前景	-10.3057
窮	-10.3061
▁但它	-10.3062
所做的	-10.3064
房子	-10.3066
▁core	-10.307
該地區	-10.3077
更大	-10.3081
事務	-10.3081
預防	-10.3084
龍	-10.3085
取決於	-10.3086
▁morning	-10.3086
fold	-10.3089
▁法國	-10.3095
▁owing	-10.31
棒	-10.3104
arch	-10.3107
暗	-10.311
陸	-10.3112
的所有	-10.3114
記者	-10.3123
眼睛	-10.3123
葉	-10.3123
▁identity	-10.3123
削弱	-10.3123
all	-10.3127
pr	-10.3131
▁belief	-10.3135
▁burden	-10.3135
▁worst	-10.3136
注	-10.3142
積	-10.3144
form	-10.3145
▁gold	-10.3146
▁literally	-10.3148
恐怖主義	-10.3151
▁concerns	-10.3152
▁photograph	-10.3161
▁大部分	-10.3162
裝置	-10.3162
核武器	-10.3162
會說	-10.3167
國民	-10.3167
pri	-10.3173
還沒有	-10.3173
ther	-10.3178
第二個	-10.3179
▁correct	-10.3181
▁animal	-10.3181
呼	-10.3185
乎	-10.3188
回來	-10.3188
不得不	-10.3189
勞動	-10.3197
翻	-10.3197
▁birth	-10.3198
媽媽	-10.3198
組成	-10.3198
意見	-10.3204
特徵	-10.3212
▁paid	-10.3214
地區的	-10.3214
▁有人	-10.3218
▁store	-10.3219
願	-10.322
state	-10.3221
辯論	-10.3224
還在	-10.3229
▁overall	-10.323
▁images	-10.3231
缺	-10.3232
▁wants	-10.3232
ture	-10.3236
虛	-10.3236
齊	-10.3236
殘	-10.3238
▁established	-10.324
▁尤其是	-10.3242
憤怒	-10.3249
▁facing	-10.3249
貶值	-10.3249
混亂	-10.3249
是很	-10.325
迫使	-10.3253
▁我們要	-10.3254
能讓	-10.3255
▁ab	-10.3259
演化	-10.3264
▁teach	-10.3266
▁management	-10.3268
幾個月	-10.327
五年	-10.3273
美麗	-10.3275
版	-10.3276
2010	-10.3278
rn	-10.3279
百分之	-10.3285
妳	-10.3287
1.	-10.3297
use	-10.3297
ake	-10.3299
注意到	-10.3299
娜	-10.3299
政客	-10.33
程序	-10.3304
務	-10.3307
▁unlikely	-10.3307
民主黨	-10.3309
看到的	-10.331
▁surprising	-10.3312
▁various	-10.3313
美好	-10.3318
▁connection	-10.3318
族	-10.332
▁prison	-10.3321
丁	-10.3325
忽視	-10.3325
ium	-10.3329
▁smart	-10.3331
emp	-10.3334
集中	-10.3337
弄	-10.3338
2009	-10.3339
▁reduction	-10.3339
收集	-10.334
足夠	-10.334
▁60	-10.3343
▁又	-10.3345
▁在這個	-10.3347
段	-10.3351
規	-10.336
▁smaller	-10.336
原因是	-10.3361
的作用	-10.3364
夢	-10.3367
▁cr	-10.3368
都沒有	-10.3369
▁estimate	-10.337
ition	-10.3372
並未	-10.3376
創造出	-10.3388
▁socalled	-10.3389
好像	-10.3398
的生命	-10.3399
▁te	-10.34
瑞	-10.3401
▁guess	-10.3402
的狀況	-10.3413
▁responsible	-10.3415
粉	-10.3415
▁text	-10.3415
▁breath	-10.3415
變得更	-10.3423
人類的	-10.3425
流動	-10.3427
▁commercial	-10.3428
▁牠們	-10.3428
質疑	-10.3429
▁river	-10.344
的核心	-10.3446
父親	-10.3446
▁border	-10.345
緩	-10.345
共識	-10.3454
xi	-10.3459
▁otherwise	-10.3462
相似	-10.3467
▁boom	-10.3469
▁moved	-10.3469
情況下	-10.3474
就像是	-10.3478
tur	-10.3483
▁mention	-10.3484
兩年	-10.3488
•	-10.3492
競選	-10.3492
今年	-10.3498
我認為	-10.3499
地圖	-10.3502
般	-10.3503
kept	-10.3503
蘇	-10.3504
low	-10.3506
▁burn	-10.3507
▁died	-10.3513
▁ball	-10.3517
民粹主義	-10.3518
不應該	-10.3518
▁speech	-10.3519
▁rapidly	-10.352
借	-10.3521
競爭力	-10.3527
一家	-10.3527
▁army	-10.3528
▁bodies	-10.3531
習慣	-10.3531
主導	-10.3533
你會	-10.3536
靜	-10.3539
▁sent	-10.3541
▁religion	-10.3544
▁wild	-10.3544
▁summer	-10.3545
▁qua	-10.3545
▁required	-10.3548
的需求	-10.3552
14	-10.3557
▁crucial	-10.3557
縮	-10.3559
大大	-10.356
▁original	-10.3565
信用	-10.3569
丟	-10.357
▁reveal	-10.357
▁investments	-10.3571
▁factor	-10.3571
▁但他們	-10.3573
一步	-10.3587
究竟	-10.3588
每一	-10.3591
將在	-10.3595
▁famous	-10.3596
燃料	-10.3597
太陽	-10.3598
▁asset	-10.3601
▁train	-10.3604
▁powers	-10.3608
結論	-10.3611
work	-10.3612
set	-10.3622
▁female	-10.3622
辛	-10.3622
▁letter	-10.3625
邊緣	-10.3625
down	-10.3629
帝國	-10.363
可行	-10.3631
露	-10.3635
在過去	-10.3636
▁dynamic	-10.3636
華盛頓	-10.3636
▁content	-10.3636
▁obviously	-10.3636
▁我們就	-10.3636
▁attract	-10.3646
▁5%	-10.3648
▁desire	-10.3649
組合	-10.365
▁2007	-10.365
鬥爭	-10.3651
▁extra	-10.3651
加速	-10.3652
▁touch	-10.3657
▁由	-10.3657
幹	-10.3661
貨	-10.3662
▁constant	-10.3662
▁cycle	-10.3662
ever	-10.3665
耶	-10.3675
▁opinion	-10.3675
▁ver	-10.3684
樂觀	-10.3684
訪	-10.3685
▁humanity	-10.3685
▁nobody	-10.3688
的數據	-10.3689
文章	-10.3689
▁gives	-10.3691
戶	-10.3692
▁cat	-10.3694
易	-10.3698
▁express	-10.3699
穩	-10.37
▁killed	-10.3701
▁safety	-10.3704
麻	-10.3705
透	-10.3706
得到了	-10.3711
▁danger	-10.3714
▁brother	-10.3715
凱	-10.3715
的國際	-10.3715
多麼	-10.3718
發出	-10.372
部長	-10.3721
br	-10.3727
材	-10.3728
▁gene	-10.3728
▁disaster	-10.3728
箱	-10.3728
嬰兒	-10.3728
▁subsidi	-10.373
▁foot	-10.3735
▁17	-10.3739
的人們	-10.374
▁generate	-10.3742
職業	-10.3744
▁survive	-10.3746
▁plants	-10.3747
▁ill	-10.3749
▁host	-10.3749
的概念	-10.375
實在	-10.3751
兩種	-10.3751
▁expansion	-10.3755
都可以	-10.3757
認知	-10.376
▁professional	-10.3762
萬人	-10.3764
很少	-10.3764
猜	-10.3768
尾	-10.3768
思維	-10.377
▁nice	-10.3771
▁這是我	-10.3771
相同的	-10.3774
▁特朗普	-10.3778
▁過去	-10.3781
▁english	-10.3781
▁defend	-10.3781
▁wonderful	-10.3783
cle	-10.3792
▁virus	-10.3796
稱為	-10.3799
bur	-10.3802
▁waste	-10.3803
不太	-10.3804
鏡	-10.3807
國際貨幣基金組織	-10.3808
▁substantial	-10.3808
其實是	-10.3808
of	-10.3809
增長率	-10.3813
ko	-10.3815
▁standing	-10.3816
被迫	-10.3816
▁object	-10.3817
可以用	-10.3818
▁至少	-10.3818
完整	-10.3821
▁electricity	-10.3823
那裏	-10.3823
▁haven	-10.3824
▁1980	-10.3831
捕	-10.3835
原本	-10.3841
滑	-10.3845
禮	-10.3846
▁providing	-10.3848
撞	-10.3848
▁lines	-10.3849
▁additional	-10.3852
遺	-10.386
帕	-10.3862
▁battle	-10.3862
變革	-10.3862
▁round	-10.3863
ou	-10.3864
持有	-10.3868
▁ii	-10.3869
neither	-10.3875
▁transfer	-10.3876
和經濟	-10.3877
尊重	-10.3878
也將	-10.3878
關心	-10.388
▁remind	-10.3886
岸	-10.3887
▁method	-10.3889
主題	-10.389
轉向	-10.3891
集體	-10.3894
ker	-10.3895
雙方	-10.3896
編	-10.3902
▁meant	-10.3902
酷	-10.3902
▁conservative	-10.3902
▁harm	-10.3903
▁bus	-10.3906
聽起來	-10.3908
飛行	-10.3908
首先	-10.3908
贏	-10.391
▁在美國	-10.3912
埃	-10.3912
▁condition	-10.3915
總體	-10.3926
題	-10.3934
los	-10.3936
▁committ	-10.3939
羣體	-10.3941
▁hundred	-10.3942
顏色	-10.3943
▁elite	-10.3944
▁2000	-10.3945
如同	-10.3954
let	-10.3954
▁compared	-10.3955
▁activities	-10.3956
▁screen	-10.3956
和政治	-10.3959
▁cars	-10.396
行星	-10.3963
▁photo	-10.397
▁criminal	-10.397
▁eastern	-10.397
▁fighting	-10.3973
▁一旦	-10.3974
席	-10.398
▁independence	-10.3983
武裝	-10.3984
ana	-10.3986
▁stronger	-10.3993
▁google	-10.3996
▁mix	-10.3997
ically	-10.4002
▁communication	-10.4011
▁square	-10.4011
▁principle	-10.4012
整體	-10.4012
▁我希望	-10.4015
抗議	-10.4017
還會	-10.4017
大國	-10.402
個國家	-10.402
的利益	-10.402
sen	-10.4023
章	-10.4023
的感覺	-10.4024
遭受	-10.4026
失業率	-10.4026
▁fat	-10.4031
▁miles	-10.4031
加劇	-10.4031
糖	-10.4038
約翰	-10.4038
補貼	-10.4038
▁warming	-10.4039
▁causes	-10.4048
▁proposal	-10.4048
35	-10.405
精英	-10.4053
視爲	-10.4053
▁flu	-10.4055
ack	-10.4056
▁arriv	-10.4056
沉	-10.4062
▁effectively	-10.4064
▁pattern	-10.4067
北約	-10.4068
所在	-10.4068
為何	-10.4069
unless	-10.407
▁bin	-10.407
很容易	-10.4071
電力	-10.4072
深刻	-10.4076
航	-10.4078
▁否則	-10.4079
擺脫	-10.408
退休	-10.408
學院	-10.4081
▁deficits	-10.4091
泡沫	-10.4093
依靠	-10.4094
無論	-10.4097
▁discussion	-10.4097
▁consumer	-10.4098
500	-10.4101
▁journey	-10.4107
梅	-10.4107
烏	-10.4107
▁feet	-10.4107
▁即便	-10.4107
▁caus	-10.411
克服	-10.4112
▁neighbors	-10.4118
▁easier	-10.4121
aries	-10.4126
▁multi	-10.4131
那是	-10.4134
▁surplus	-10.4134
▁forms	-10.4136
ory	-10.4137
支持者	-10.4139
和社會	-10.4139
影像	-10.4142
帶來了	-10.4142
▁afford	-10.4145
▁funding	-10.4146
副	-10.4147
弗	-10.4148
居民	-10.4149
▁perform	-10.4149
其中一個	-10.4149
的環境	-10.415
之所以	-10.4155
van	-10.4157
丹	-10.4158
par	-10.4159
互	-10.4159
gal	-10.4161
貼	-10.4162
▁convince	-10.4162
▁我們都	-10.4164
▁assume	-10.4167
17	-10.4168
想象	-10.4169
▁agreed	-10.4171
▁confront	-10.4172
幅	-10.4174
右	-10.4175
▁prove	-10.4175
人數	-10.4175
▁event	-10.4176
▁incredible	-10.4176
堡	-10.4176
▁detect	-10.4176
人民幣	-10.4177
▁secure	-10.4178
▁aren	-10.4182
消除	-10.4184
closer	-10.4186
2015	-10.4189
▁intellectual	-10.419
▁sexual	-10.419
▁rare	-10.4192
對我	-10.4194
▁due	-10.4196
old	-10.4197
帶著	-10.4198
mar	-10.4198
▁roll	-10.4202
協調	-10.4204
衣	-10.4205
年齡	-10.4207
信號	-10.4207
要如何	-10.4209
▁ended	-10.4217
▁promote	-10.4226
交通	-10.4229
信仰	-10.4232
金融市場	-10.4232
房間	-10.4234
局面	-10.4235
尚	-10.4239
▁mission	-10.4245
孩子們	-10.4245
基本上	-10.4248
中央	-10.4249
▁fine	-10.425
給了	-10.4257
▁driving	-10.426
爭議	-10.4261
ff	-10.4269
另	-10.4269
麗	-10.4272
休	-10.4273
霍	-10.4274
趕	-10.4274
監獄	-10.4274
參	-10.4274
的重要	-10.4275
▁career	-10.4276
還能	-10.4278
動力	-10.4281
的朋友	-10.4287
▁gender	-10.4288
一百	-10.4288
▁spain	-10.4289
試驗	-10.429
▁quarter	-10.4297
press	-10.4302
▁essentially	-10.4302
制裁	-10.4302
▁據	-10.4311
pt	-10.4311
阻礙	-10.4316
呼籲	-10.4316
教訓	-10.4316
▁immediately	-10.432
▁saving	-10.4323
公司的	-10.4323
有許多	-10.4324
top	-10.4326
展開	-10.4328
年以來	-10.4328
警告	-10.433
▁我覺得	-10.4333
▁stem	-10.4333
當我們	-10.4337
bsp	-10.4341
▁robot	-10.4341
▁borders	-10.4342
▁有時	-10.4343
廠	-10.4343
這兩個	-10.4346
做的事	-10.4346
測量	-10.4348
以下	-10.435
歷	-10.4355
兒子	-10.4355
受害者	-10.4358
▁feature	-10.4358
歷史上	-10.4365
▁如果我	-10.4367
雲	-10.4372
▁output	-10.4382
這些國家	-10.4383
▁ke	-10.4384
進化	-10.4386
▁vulnerable	-10.4386
▁partnership	-10.4387
▁terrorism	-10.4387
四個	-10.4391
▁pursue	-10.4392
▁lived	-10.4398
館	-10.44
▁tough	-10.4402
▁steps	-10.4402
官方	-10.4405
所需要的	-10.4407
大家都	-10.4408
圓	-10.4415
差距	-10.4415
▁summit	-10.4415
gan	-10.442
推進	-10.4424
遊	-10.4425
供	-10.4426
▁financing	-10.4429
▁universal	-10.4429
文明	-10.4432
▁march	-10.4433
的照片	-10.4433
▁holding	-10.4434
▁prosperity	-10.4444
觀念	-10.4446
加上	-10.4447
sign	-10.4447
可持續	-10.4448
▁match	-10.4458
價值觀	-10.4459
研發	-10.4461
rank	-10.4461
像這樣	-10.4462
數位	-10.4462
▁trip	-10.4464
▁cuts	-10.4465
足以	-10.4466
必	-10.447
的技術	-10.4471
▁option	-10.4471
冒	-10.4472
▁creative	-10.4472
▁memory	-10.4472
有能力	-10.4473
▁partners	-10.4477
合法	-10.4484
一群	-10.4487
▁tool	-10.4493
本國	-10.4497
那時	-10.4497
淨	-10.45
式的	-10.45
▁threaten	-10.4505
作出	-10.4506
狀	-10.4508
有一天	-10.4509
▁institutional	-10.4512
振	-10.4513
▁employ	-10.4514
有時候	-10.4514
兩者	-10.4515
pu	-10.4516
▁apply	-10.4518
對待	-10.4522
浮	-10.4523
態度	-10.4523
21	-10.4525
夥伴	-10.4528
▁sovereign	-10.4528
餐	-10.4528
訂	-10.4529
▁leaving	-10.4529
▁throw	-10.4529
期望	-10.4531
▁farmers	-10.4534
之下	-10.4535
數百萬	-10.4539
正確的	-10.454
折	-10.4543
乘	-10.4543
▁trigger	-10.4543
民族主義	-10.4545
最好	-10.4548
▁rock	-10.4556
▁sad	-10.4557
▁draw	-10.4558
敵	-10.4559
▁deeply	-10.4561
▁interact	-10.4563
的同時	-10.4568
▁thanks	-10.4571
▁involve	-10.4577
▁hiv	-10.4582
至關重要	-10.4587
▁property	-10.4587
理念	-10.4591
魔	-10.4601
▁housing	-10.4601
世界銀行	-10.4603
和美國	-10.4605
表演	-10.4605
▁人類	-10.4607
纔	-10.4609
部份	-10.461
▁camera	-10.4612
這些人	-10.4612
遲	-10.4615
▁writing	-10.4616
潛	-10.4616
沒人	-10.462
了一些	-10.462
lor	-10.4626
桌	-10.463
盟友	-10.463
馬上	-10.4633
▁choices	-10.4639
▁doctors	-10.4642
略	-10.4643
▁importance	-10.4646
大量的	-10.4649
居住	-10.4649
▁我可以	-10.4651
顧	-10.4654
替	-10.4658
擺	-10.4659
莉	-10.4659
▁發自	-10.466
走向	-10.4663
▁mag	-10.4665
激進	-10.4671
▁showing	-10.4672
▁insurance	-10.4674
掌握	-10.4674
能否	-10.4674
潛力	-10.4678
▁falling	-10.4678
將其	-10.4678
place	-10.4678
▁sounds	-10.468
最近的	-10.4681
保守	-10.4688
▁instrument	-10.4688
不管	-10.4692
響	-10.47
▁unlike	-10.47
季	-10.4701
守	-10.4702
▁expensive	-10.4703
▁september	-10.4703
▁onto	-10.4705
ku	-10.4707
給你	-10.4708
實行	-10.471
辦公室	-10.4718
教授	-10.4718
的行為	-10.4723
造成的	-10.4723
藝術家	-10.4725
200	-10.4726
展	-10.4728
男	-10.4732
託	-10.4732
渴望	-10.4732
▁possibility	-10.4733
坦	-10.4735
能在	-10.4736
▁weaken	-10.4736
▁differences	-10.4738
會讓	-10.4738
▁cru	-10.4738
爲了	-10.474
▁我很	-10.4745
圍	-10.4746
窮人	-10.4746
是這樣	-10.4747
▁primary	-10.4747
craft	-10.4748
位於	-10.4749
fo	-10.4749
女兒	-10.475
▁computers	-10.4751
▁去年	-10.4752
跟我	-10.4752
▁作爲	-10.4753
▁version	-10.4756
gar	-10.4757
▁useful	-10.4758
與其	-10.4758
▁consensus	-10.4762
安排	-10.4765
外交政策	-10.4768
▁previous	-10.4768
▁allies	-10.4768
▁savings	-10.4769
ek	-10.4773
佈	-10.4776
波蘭	-10.4779
峯會	-10.4784
▁please	-10.4787
矛盾	-10.4791
上了	-10.4794
可靠	-10.4795
說話	-10.4797
30%	-10.4799
▁evolution	-10.4801
自動	-10.4805
▁他們會	-10.4808
▁stable	-10.4808
注意力	-10.4811
變成了	-10.4816
▁reserves	-10.4816
今天的	-10.4817
理性	-10.4818
洞	-10.482
亦	-10.4821
診斷	-10.4821
▁student	-10.4823
rk	-10.4824
正義	-10.4825
的做法	-10.4826
志	-10.4832
▁strength	-10.4833
▁principles	-10.4834
▁manufacturing	-10.4836
▁除非	-10.4836
▁weight	-10.4838
打開	-10.4838
當選	-10.4839
夠	-10.484
▁skin	-10.4846
軟	-10.4846
▁pet	-10.4847
舞	-10.4849
▁actions	-10.4851
▁barack	-10.4851
▁這就	-10.4852
▁doctor	-10.4854
▁talks	-10.4855
▁mom	-10.4856
指數	-10.4857
▁raised	-10.4865
2000	-10.4866
ide	-10.4866
▁older	-10.4868
龐大	-10.4868
真相	-10.4869
一件事	-10.4873
只會	-10.4874
新興市場	-10.4883
超越	-10.4883
▁vital	-10.4893
▁considered	-10.4893
局勢	-10.4897
育	-10.4898
大小	-10.49
▁republican	-10.4902
所帶來的	-10.4909
▁不幸的是	-10.491
▁favorite	-10.4911
▁grand	-10.4911
直到	-10.492
耗	-10.4925
▁platform	-10.4925
▁fix	-10.493
▁hot	-10.4934
▁coal	-10.4935
▁consumers	-10.4938
▁continues	-10.4939
高達	-10.495
後者	-10.4951
裁	-10.4952
suddenly	-10.4955
香	-10.4955
喔	-10.4955
▁apparent	-10.4955
▁alliance	-10.4955
有時	-10.4956
hal	-10.4958
一代	-10.4961
▁borrow	-10.4967
太陽能	-10.4969
做得	-10.4971
▁16	-10.4971
▁spot	-10.4973
▁page	-10.4973
▁—	-10.4976
▁hum	-10.4978
▁materials	-10.4978
童	-10.4984
搭	-10.4985
caused	-10.4994
▁sky	-10.4996
廢	-10.4999
甚	-10.4999
lam	-10.5001
▁series	-10.5001
不僅僅是	-10.5008
適合	-10.5012
巧	-10.5015
▁接下來	-10.5017
tter	-10.5018
ica	-10.5019
資本主義	-10.5026
0.	-10.5028
▁crises	-10.503
▁indicat	-10.5031
增加了	-10.5033
▁machines	-10.5037
任何人	-10.5041
rich	-10.5041
將是	-10.5042
lat	-10.5042
珍	-10.5045
ug	-10.5046
▁faces	-10.505
比如	-10.5052
▁addition	-10.5057
造成了	-10.5058
左	-10.5058
▁hole	-10.5058
盛	-10.5061
相當於	-10.5063
繞	-10.5067
▁george	-10.5076
▁visual	-10.5076
忽略	-10.5076
▁shortterm	-10.5077
▁zone	-10.5077
這些問題	-10.5081
▁這意味着	-10.5082
實體	-10.5086
ju	-10.5087
▁reaction	-10.5087
▁identify	-10.5091
規劃	-10.5091
擔任	-10.5092
長大	-10.5092
面前	-10.5093
load	-10.5095
除了	-10.51
▁lies	-10.5101
供給	-10.5101
我們能	-10.5102
出現在	-10.5103
遍	-10.5105
聞	-10.5106
驚訝	-10.5106
▁bird	-10.5106
創意	-10.5109
爲何	-10.5109
多年	-10.511
週期	-10.511
視覺	-10.511
▁dog	-10.5111
bar	-10.5114
真是	-10.5115
隨後	-10.5117
▁nato	-10.5127
▁hero	-10.5127
帶來的	-10.513
▁suffering	-10.5135
頁	-10.5137
▁software	-10.5137
黎巴嫩	-10.5137
儲備	-10.5137
▁reduced	-10.5139
句	-10.5145
尼亞	-10.5158
22	-10.5158
事業	-10.516
▁2005	-10.5164
秒	-10.5167
▁profound	-10.5167
廣告	-10.5168
預計	-10.5168
司法	-10.517
produced	-10.5173
▁regions	-10.5174
系	-10.518
的那樣	-10.5181
▁earn	-10.5181
▁vaccine	-10.5183
循環	-10.5183
▁notice	-10.5186
▁pop	-10.5188
鄰國	-10.5194
ought	-10.5196
▁temperature	-10.5198
下跌	-10.5202
沒錯	-10.5202
看待	-10.5203
一間	-10.5204
典	-10.5211
礦	-10.5213
▁southern	-10.5213
言論	-10.5216
▁engage	-10.5217
樓	-10.5217
bor	-10.5219
▁第三	-10.522
危險的	-10.5221
▁stick	-10.5231
40%	-10.5231
▁arm	-10.5232
▁negotiat	-10.5233
領土	-10.5234
▁whom	-10.5236
所謂	-10.5237
27	-10.5239
喜	-10.5242
附	-10.5243
▁abuse	-10.5247
▁rely	-10.525
考慮到	-10.5252
收到	-10.5257
的過程	-10.5258
▁permanent	-10.526
▁sanctions	-10.526
▁ratio	-10.5266
▁chain	-10.5267
ology	-10.5267
有機會	-10.527
藍	-10.5274
享受	-10.5275
▁entirely	-10.5276
▁poll	-10.5277
創作	-10.5283
認真	-10.5285
2.	-10.529
▁highest	-10.5298
深入	-10.5299
流動性	-10.5306
雪	-10.5306
判斷	-10.5307
▁而我們	-10.5308
要做	-10.5318
▁judge	-10.5322
顯	-10.5322
150	-10.5323
▁town	-10.5324
▁managed	-10.5324
▁spring	-10.5324
邊境	-10.5325
男孩	-10.5326
▁connected	-10.5327
星球	-10.5329
▁korean	-10.5333
▁看看	-10.5338
kin	-10.5338
meter	-10.5339
都知道	-10.534
pen	-10.5343
▁examples	-10.5346
ung	-10.5348
▁elected	-10.5351
▁rural	-10.5353
隨着	-10.5356
grade	-10.5365
▁13	-10.5366
600	-10.5367
▁victory	-10.5368
讚	-10.5368
軟體	-10.5371
▁sources	-10.5373
▁sides	-10.5377
增強	-10.5379
▁teachers	-10.538
23	-10.538
有趣	-10.5381
▁blind	-10.5384
拍攝	-10.5384
指標	-10.5386
▁ideal	-10.5386
een	-10.5387
▁islam	-10.5393
▁奧巴馬	-10.5398
一邊	-10.5401
▁constitution	-10.5409
年間	-10.5412
邏輯	-10.5416
16	-10.5417
在歐洲	-10.5422
是最	-10.5423
capable	-10.5424
批	-10.5428
邀請	-10.5431
不只	-10.5433
部隊	-10.5435
▁hour	-10.5436
▁suggests	-10.5437
▁widely	-10.5445
▁australia	-10.5447
法庭	-10.5449
反而	-10.545
也不會	-10.545
的名字	-10.5456
zz	-10.5456
▁discover	-10.5456
模	-10.5459
興	-10.546
二氧化碳	-10.5478
$	-10.5478
破產	-10.548
去做	-10.5487
▁heat	-10.5492
困境	-10.5493
拜	-10.5494
▁bridge	-10.5495
斯特	-10.5499
美金	-10.5501
▁talked	-10.5504
的人口	-10.5507
▁emotional	-10.5508
▁web	-10.5509
谷	-10.551
app	-10.5513
▁incentives	-10.5515
▁fell	-10.5517
的行爲	-10.552
要麼	-10.552
uck	-10.5523
▁flows	-10.5526
一部分	-10.5526
保障	-10.5526
期待	-10.5529
▁14	-10.5535
偉大的	-10.5536
▁complicated	-10.5538
兵	-10.5541
床	-10.5542
方針	-10.5542
致力於	-10.5542
這一切	-10.5545
對我來說	-10.5545
的城市	-10.5545
▁以色列	-10.5546
徒	-10.5548
醒	-10.5556
抱	-10.5558
▁incredibly	-10.5558
▁written	-10.5558
辭	-10.5558
糧食	-10.5558
▁mountain	-10.5558
▁excessive	-10.5559
最初	-10.556
立場	-10.5562
▁arms	-10.5568
▁關於	-10.557
▁played	-10.5571
▁contribute	-10.5572
▁daughter	-10.5574
驅動	-10.5582
法案	-10.5587
▁plastic	-10.559
▁opposite	-10.559
嚴格	-10.5591
▁bringing	-10.5602
▁誰	-10.5604
▁industries	-10.5606
股票	-10.5607
提醒	-10.5607
my	-10.5607
的第一	-10.5607
術	-10.561
後來	-10.561
▁她們	-10.5612
低於	-10.5613
▁song	-10.5616
▁educat	-10.5617
pping	-10.562
壯	-10.5622
▁scenario	-10.5622
閱讀	-10.5622
▁operat	-10.5632
回家	-10.5636
▁pose	-10.5638
世代	-10.5638
衡量	-10.5639
過於	-10.5639
的理由	-10.5643
▁我相信	-10.5644
泰	-10.5646
大選	-10.5651
▁exception	-10.5652
評論	-10.5652
▁hair	-10.5657
均	-10.5661
特別是	-10.5667
air	-10.5669
▁austerity	-10.567
▁stimulus	-10.567
▁surround	-10.567
照顧	-10.5671
her	-10.5671
▁understood	-10.5672
很可能	-10.5673
75	-10.5679
lf	-10.5683
▁chris	-10.5686
呼吸	-10.5687
校	-10.5696
▁profit	-10.5698
亡	-10.57
匯	-10.5701
碎	-10.5701
必要的	-10.5702
紀錄	-10.5703
瘋狂	-10.5703
▁arabia	-10.5705
▁xi	-10.5705
▁document	-10.5716
旁	-10.5718
▁circle	-10.5719
案例	-10.5722
▁limits	-10.5722
scale	-10.5726
原子	-10.5734
2007	-10.5734
▁contrary	-10.5735
▁faith	-10.5735
▁narrative	-10.5735
▁這也是	-10.5739
是從	-10.5748
整合	-10.5759
頗	-10.5767
▁extraordinary	-10.5767
▁tight	-10.5769
受益	-10.5772
▁significantly	-10.5775
2030	-10.5782
帳	-10.5784
主張	-10.5784
▁technical	-10.5784
不好	-10.5784
▁taught	-10.5784
至今	-10.579
途	-10.5792
到達	-10.5794
乳	-10.58
真的很	-10.5801
好了	-10.5801
ik	-10.5802
▁lesson	-10.5806
▁separate	-10.5807
stone	-10.5807
貧	-10.5813
有着	-10.5814
招	-10.5816
物理	-10.582
看過	-10.5821
del	-10.583
流行	-10.5831
▁sum	-10.5831
打破	-10.5835
▁logic	-10.5836
▁observ	-10.5837
訴	-10.5839
位置	-10.5842
對其	-10.5847
stream	-10.5848
▁另一個	-10.585
▁apart	-10.5852
採	-10.5852
▁promot	-10.5856
留在	-10.5858
功	-10.5858
▁gather	-10.5865
我會	-10.5867
熱情	-10.587
創造了	-10.5876
喝	-10.5882
擠	-10.5882
▁healthcare	-10.5882
獵	-10.5882
缺陷	-10.5882
的地區	-10.5896
▁yield	-10.5898
檢查	-10.5899
▁coalition	-10.5899
ivity	-10.5901
▁transformation	-10.5903
足夠的	-10.5904
▁statement	-10.5907
▁soft	-10.5908
▁losses	-10.5909
century	-10.591
雄	-10.5914
雜	-10.5915
也不是	-10.5915
意外	-10.5916
承受	-10.5916
▁named	-10.5917
全新	-10.5925
▁catch	-10.5925
判	-10.5929
患	-10.5929
medi	-10.5929
▁♪	-10.593
惠	-10.5931
操作	-10.5933
麻煩	-10.5933
▁experts	-10.5934
青	-10.5935
對象	-10.594
▁magic	-10.5941
經營	-10.5946
▁patterns	-10.5946
唯一的	-10.595
每次	-10.5953
瘧疾	-10.5955
出去	-10.5957
情形	-10.5959
▁今年	-10.5961
的學生	-10.5963
寄	-10.5964
批准	-10.5965
分歧	-10.5965
學會	-10.5969
pan	-10.5971
▁但他	-10.5974
所面臨的	-10.5974
堆	-10.5975
▁construction	-10.5986
相關的	-10.5988
▁determine	-10.5989
▁sand	-10.5991
的權利	-10.5998
工程師	-10.5999
▁tension	-10.6
▁fan	-10.6
的部分	-10.6002
▁在過去	-10.6002
面臨着	-10.6006
▁claims	-10.601
▁types	-10.6012
』	-10.6014
獨裁	-10.6024
花費	-10.6027
▁partner	-10.6029
替代	-10.6031
不願	-10.6034
序	-10.6041
▁competitive	-10.6044
是誰	-10.6046
碰	-10.6046
aught	-10.6047
▁sat	-10.6048
▁regular	-10.6048
富裕	-10.6048
緩慢	-10.6048
社群	-10.6048
宣傳	-10.6049
另外	-10.605
▁device	-10.6059
經歷了	-10.606
300	-10.6061
不一樣	-10.6063
▁syrian	-10.6064
透明	-10.6064
▁combination	-10.6065
皇	-10.6065
英雄	-10.6065
客戶	-10.6065
▁perceiv	-10.6065
▁researchers	-10.6067
▁compet	-10.607
▁king	-10.6072
▁robots	-10.6072
我自己	-10.6073
困	-10.6077
鎖	-10.6081
的努力	-10.6081
一體化	-10.6081
ama	-10.6083
▁except	-10.6083
rr	-10.6086
▁replace	-10.6087
獨特	-10.6088
介	-10.6096
審	-10.6096
的看法	-10.6097
『	-10.6098
脈	-10.6098
工廠	-10.6099
先生	-10.6101
▁recover	-10.6105
獲得了	-10.6109
嚇	-10.6115
▁component	-10.6115
▁resistance	-10.6116
波動	-10.6118
沒有人	-10.612
▁bacteria	-10.6122
water	-10.6123
unk	-10.6127
的大腦	-10.6127
偷	-10.6132
800	-10.6133
▁2001	-10.6133
▁describe	-10.6133
kan	-10.6135
識	-10.6138
體現	-10.6139
▁loans	-10.6148
▁survey	-10.6149
摧毀	-10.6149
▁expectations	-10.6149
▁consistent	-10.6149
感謝	-10.615
▁plans	-10.6153
▁blame	-10.6155
▁faced	-10.6159
▁就在	-10.616
og	-10.6162
我們需要	-10.6163
泡	-10.6166
入侵	-10.6167
▁cash	-10.6172
▁networks	-10.6179
的角度	-10.6179
發動	-10.6179
從事	-10.6182
▁neighborhood	-10.6183
lash	-10.6184
歐洲人	-10.6187
▁我們已經	-10.6188
下一個	-10.6188
的變化	-10.6189
▁各位	-10.6189
這段	-10.6191
失去了	-10.6192
鳥	-10.6193
轉移	-10.6198
▁channel	-10.62
天然氣	-10.62
未能	-10.6201
▁actual	-10.6213
村	-10.6215
健	-10.6216
▁monitor	-10.6217
▁games	-10.6224
展現	-10.6227
▁mobile	-10.6232
這個世界	-10.6233
類型	-10.6233
過了	-10.6234
▁repeat	-10.6234
▁bond	-10.6234
附近	-10.6235
2002	-10.6237
imf	-10.6241
一套	-10.6242
幸福	-10.6243
你能	-10.6245
沿	-10.6246
眾	-10.625
▁exercise	-10.6251
您	-10.6251
▁extent	-10.6251
利比亞	-10.6251
loc	-10.6252
ong	-10.6253
旨在	-10.6258
裂	-10.6261
▁va	-10.6263
▁colleagues	-10.6266
據	-10.6267
▁abandon	-10.6268
▁equity	-10.6268
pacific	-10.6271
千萬	-10.6272
卻是	-10.6275
讓它	-10.6276
▁gains	-10.6276
興趣	-10.6276
2012	-10.6278
重組	-10.6279
的重要性	-10.628
▁grant	-10.6281
紐	-10.6284
敢	-10.6285
加拿大	-10.6285
▁finish	-10.6285
▁coast	-10.6285
▁relationships	-10.6287
▁emerge	-10.6296
▁symbol	-10.6302
仔細	-10.6302
混	-10.6309
late	-10.631
都要	-10.6314
德里	-10.6315
敗	-10.6316
2020	-10.6316
▁但卻	-10.6318
通貨膨脹	-10.6319
▁resolve	-10.6319
gotten	-10.6324
▁sustain	-10.6324
▁genes	-10.6325
怎麼做	-10.6325
美國總統	-10.6329
堂	-10.633
▁govern	-10.6331
最低	-10.6333
▁strange	-10.6334
▁ordinary	-10.6336
▁populist	-10.6336
▁uncertainty	-10.6337
由此	-10.6338
動機	-10.6339
▁turning	-10.6341
▁在這	-10.6342
宣稱	-10.6343
▁1970	-10.6343
▁entrepreneur	-10.6345
的目的	-10.6345
比賽	-10.6345
中央銀行	-10.6347
忙	-10.6353
牙	-10.6354
約束	-10.6354
80%	-10.6355
▁distribution	-10.6358
產出	-10.6363
zo	-10.6366
▁possib	-10.6368
賺	-10.6369
擴散	-10.6371
謝	-10.6386
報導	-10.6387
▁analysis	-10.6388
旗	-10.6388
籌	-10.6388
▁latest	-10.639
爆炸	-10.6395
▁這是個	-10.6401
賴	-10.6405
譜	-10.6406
標誌	-10.6406
構	-10.6409
ets	-10.641
突	-10.6411
對美國	-10.6411
應該是	-10.6416
不錯	-10.642
睡	-10.6422
▁default	-10.6423
佩	-10.6423
浪費	-10.6424
課程	-10.6424
▁jump	-10.6424
的威脅	-10.6429
▁iranian	-10.6429
▁improv	-10.643
▁然後我	-10.6433
各個	-10.6433
元素	-10.6433
晚上	-10.6436
遭遇	-10.6439
簽署	-10.644
幸運	-10.6442
▁reading	-10.6447
是為了	-10.6449
▁discuss	-10.6453
首相	-10.6457
南非	-10.6458
顯而易見	-10.6458
▁precisely	-10.6466
補	-10.6474
▁violent	-10.6475
哈馬斯	-10.6475
歧視	-10.6476
上漲	-10.6476
▁我想要	-10.6477
藉由	-10.648
的態度	-10.6487
▁diplomatic	-10.6489
▁我就	-10.6489
遇	-10.6492
▁vehicle	-10.6493
牢	-10.6493
▁northern	-10.6493
豐富	-10.6493
意願	-10.6495
▁這不是	-10.6496
旅行	-10.6496
merely	-10.6498
等待	-10.6498
同時也	-10.6499
▁circumstances	-10.651
style	-10.6511
▁representative	-10.6511
涉及	-10.6514
白人	-10.6517
就要	-10.6519
社	-10.652
hand	-10.6521
▁embrace	-10.6522
▁undermine	-10.6526
ries	-10.6528
酸	-10.6528
▁wife	-10.6528
政治家	-10.6529
來做	-10.6531
管制	-10.6531
訪問	-10.6532
新興	-10.6536
▁generations	-10.6536
stra	-10.6538
▁whi	-10.6541
一大	-10.6543
凡	-10.6544
右翼	-10.6544
▁ignore	-10.6545
▁tradition	-10.6546
▁remarkable	-10.6549
back	-10.655
的事實	-10.655
win	-10.6553
個體	-10.6557
尖	-10.6562
▁atmosphere	-10.6563
▁giant	-10.6563
▁window	-10.6564
負面	-10.6568
▁roman	-10.657
肯	-10.6577
▁purchase	-10.6581
▁ancient	-10.6581
▁trick	-10.6581
發電	-10.6586
▁wages	-10.6588
導致了	-10.659
這張	-10.6592
富有	-10.6595
爬	-10.6598
▁agriculture	-10.6598
▁crazy	-10.6598
▁honest	-10.6598
我們要	-10.6599
鄰	-10.6603
尚未	-10.6606
uff	-10.661
什	-10.6614
過來	-10.6615
耳	-10.6616
▁implication	-10.6616
▁assistance	-10.6617
▁2006	-10.6619
▁pal	-10.6619
準備好	-10.6622
歡迎	-10.6623
▁appropriate	-10.6624
損	-10.6633
▁hamas	-10.6634
這點	-10.6636
▁productive	-10.6637
接下來	-10.6646
節目	-10.6647
抽	-10.6651
‧	-10.6651
幼	-10.6651
犧牲	-10.6651
荷蘭	-10.6652
mission	-10.6652
細節	-10.6653
取消	-10.6653
▁necessar	-10.6658
文字	-10.6659
▁practical	-10.6659
經濟發展	-10.6664
▁households	-10.6665
橫	-10.6669
▁300	-10.667
ina	-10.6677
▁paul	-10.6677
給他們	-10.668
▁immediate	-10.6682
disc	-10.6682
bol	-10.6686
▁empower	-10.6688
背後	-10.6688
▁seriously	-10.6688
衛星	-10.669
一段時間	-10.669
▁rain	-10.669
▁seat	-10.6692
大眾	-10.67
視為	-10.6702
迴	-10.6704
阿根廷	-10.6705
▁libya	-10.6705
具備	-10.6706
粒子	-10.6707
▁journalist	-10.6718
▁hate	-10.6718
哪裡	-10.672
輛	-10.6723
▁pan	-10.6728
把這些	-10.6732
▁broken	-10.6732
的空間	-10.6733
▁我們知道	-10.6735
▁deeper	-10.6737
▁achieved	-10.6739
▁resist	-10.674
街	-10.6742
轉換	-10.6744
脫離	-10.6748
本來	-10.6752
針	-10.6753
費用	-10.6753
run	-10.6756
phe	-10.6758
▁clinton	-10.6759
貌	-10.6759
▁disappear	-10.6759
指責	-10.6759
所造成的	-10.6759
▁spoke	-10.6759
▁setting	-10.676
旅程	-10.676
▁另外	-10.676
▁review	-10.6761
▁mess	-10.6761
▁generally	-10.6762
準確	-10.6768
幾十年	-10.6771
根本不	-10.6772
談談	-10.6776
▁cloud	-10.6777
▁protein	-10.6777
遜	-10.6777
的工具	-10.6778
如果我們	-10.6783
▁firm	-10.6785
周圍	-10.6785
當作	-10.6788
▁quick	-10.679
馬克	-10.6791
的任務	-10.6791
液	-10.6792
另一種	-10.6793
的成本	-10.6794
▁algorithm	-10.6795
抑制	-10.6795
▁beat	-10.6798
的責任	-10.6799
▁不要	-10.68
▁resolution	-10.6809
▁dad	-10.6811
誠	-10.6811
▁department	-10.6813
裔	-10.6813
▁crowd	-10.6813
▁malaria	-10.6813
冒險	-10.6813
鮮	-10.6813
▁我們現在	-10.6813
▁sharing	-10.6816
圖片	-10.6822
▁comment	-10.6822
的長期	-10.6823
劃	-10.683
▁television	-10.6831
停滯	-10.6831
固定	-10.6833
▁driver	-10.6835
▁threats	-10.6836
▁politically	-10.6837
世界經濟	-10.6838
third	-10.6839
很簡單	-10.684
▁ethnic	-10.6849
互聯網	-10.6849
形狀	-10.685
一塊	-10.6854
邁	-10.6854
這就是	-10.686
一切都	-10.6861
房地產	-10.6867
突破	-10.6868
缺少	-10.6868
▁efficiency	-10.6869
免費	-10.6869
單位	-10.6875
▁有些人	-10.688
刑	-10.6881
▁grown	-10.6885
厚	-10.6885
25%	-10.6892
▁21	-10.6893
撤	-10.6902
▁california	-10.6903
▁article	-10.6903
莎	-10.6903
妥協	-10.6904
qua	-10.6904
邊界	-10.6907
▁losing	-10.6908
▁streets	-10.691
採取行動	-10.6911
的唯一	-10.6914
▁alive	-10.6915
很棒的	-10.6916
▁disorder	-10.6922
▁improvement	-10.6928
的壓力	-10.6934
▁announced	-10.6935
都很	-10.6936
▁engineering	-10.6937
袋	-10.6937
游	-10.694
熟悉	-10.694
園	-10.6941
前進	-10.6946
最爲	-10.6947
徵	-10.695
命運	-10.6953
▁我開始	-10.6954
▁wage	-10.6957
對他們	-10.696
所需的	-10.6962
圖像	-10.6965
宣	-10.6967
▁facebook	-10.697
2011	-10.6971
▁那時	-10.6971
衆	-10.6972
13	-10.6972
羅馬	-10.6974
▁trees	-10.6974
▁sufficient	-10.6977
監督	-10.6977
▁dispute	-10.6977
緊密	-10.698
stopped	-10.6982
▁multiple	-10.6995
甲	-10.6995
▁brexit	-10.6995
蛋白質	-10.6995
▁contribution	-10.6996
溫和	-10.6996
掌	-10.7001
是爲了	-10.7002
了很多	-10.7003
▁construct	-10.7008
活力	-10.701
一片	-10.7011
產生了	-10.7012
肥	-10.7013
溫度	-10.7018
促使	-10.7022
交流	-10.7023
連接	-10.7023
加州	-10.7024
▁structures	-10.7024
的基本	-10.7024
這個國家	-10.7028
田	-10.7032
▁somewhere	-10.7032
所說的	-10.7033
一生	-10.7034
也無法	-10.704
不確定性	-10.7042
▁walking	-10.7046
ose	-10.7046
▁dan	-10.7049
蛋	-10.7049
▁explore	-10.7052
演說	-10.7054
▁dance	-10.7055
地點	-10.7055
的承諾	-10.706
糟	-10.7062
▁concerned	-10.7067
▁forget	-10.7069
▁anybody	-10.7069
▁raising	-10.7069
以外	-10.7073
對手	-10.7076
的價值	-10.7078
ending	-10.7086
▁2016	-10.7086
▁appeal	-10.7088
▁heavy	-10.7088
取得了	-10.7102
▁enterprise	-10.7106
▁outcomes	-10.7109
損害	-10.711
▁enhance	-10.711
▁options	-10.7112
進行了	-10.7114
▁80	-10.7116
,	-10.7117
▁sectors	-10.7122
盧	-10.7125
奴	-10.7125
黨派	-10.7125
▁related	-10.7126
複製	-10.7128
看到了	-10.7128
▁2%	-10.7129
可以讓	-10.7133
伊斯蘭教	-10.7134
▁combined	-10.7138
▁refugee	-10.714
▁accident	-10.7143
▁anywhere	-10.7143
▁november	-10.7143
緊急	-10.7144
▁master	-10.7148
搖	-10.7148
從來沒有	-10.715
▁sold	-10.7151
多邊	-10.7152
的資料	-10.7153
髮	-10.7159
出於	-10.716
災	-10.7161
▁daily	-10.7163
這條	-10.717
▁minds	-10.7171
邦	-10.718
仿	-10.7181
愛爾蘭	-10.7181
▁welcome	-10.7181
▁defeat	-10.7181
培養	-10.7181
所有人都	-10.7183
ji	-10.7189
ologist	-10.7194
▁narrow	-10.72
孔	-10.72
▁nigeria	-10.72
▁strike	-10.72
割	-10.72
黑暗	-10.72
感受到	-10.7201
維護	-10.7202
開支	-10.7203
首次	-10.7205
▁argued	-10.7207
▁rid	-10.7213
在座	-10.7213
因為我	-10.7215
ency	-10.7218
拼	-10.7218
芬	-10.7218
解放	-10.7218
▁happiness	-10.7219
cur	-10.7222
物體	-10.7222
▁suit	-10.7223
oli	-10.7223
認同	-10.7224
沙特	-10.7224
▁killing	-10.7226
毀	-10.7237
腿	-10.7237
▁overcome	-10.7237
畢業	-10.7238
火星	-10.724
▁objects	-10.7241
際	-10.7241
▁reward	-10.7247
更高的	-10.7248
起到	-10.7248
提出了	-10.725
範	-10.7251
2013	-10.7254
搬	-10.7256
操縱	-10.7256
不幸	-10.7256
▁variet	-10.7257
▁june	-10.726
▁它會	-10.7261
顆	-10.7264
談到	-10.7264
點子	-10.7266
非常重要	-10.7267
做法	-10.7267
延	-10.727
▁gun	-10.7271
俄	-10.7271
偶	-10.7271
▁familiar	-10.7275
皮膚	-10.7275
農民	-10.7276
▁civilian	-10.7278
萬億美元	-10.728
各自	-10.7284
60%	-10.7284
打算	-10.7284
▁improved	-10.7286
▁pictures	-10.729
毫無疑問	-10.7294
▁supplie	-10.7294
▁drink	-10.7294
▁ignor	-10.7294
90%	-10.7294
紅色	-10.7296
▁shot	-10.7296
▁bla	-10.73
▁elements	-10.7302
有利	-10.7308
▁wood	-10.731
杜	-10.7313
茨	-10.7313
象徵	-10.7314
指導	-10.7315
步驟	-10.7317
的事物	-10.732
乾	-10.7332
▁communist	-10.7332
▁december	-10.7332
▁command	-10.7332
士兵	-10.7333
側	-10.7351
▁liquidity	-10.7353
設計師	-10.7356
接著	-10.736
arian	-10.7363
會把	-10.7365
▁typically	-10.7367
▁現在我們	-10.7367
▁corner	-10.7369
體內	-10.737
握	-10.737
▁fourth	-10.737
▁frank	-10.7372
表現出	-10.7375
▁origin	-10.7377
cher	-10.7385
叛	-10.7389
自身的	-10.7389
雜誌	-10.7389
▁secretary	-10.7391
有些人	-10.7393
vol	-10.7394
習	-10.7394
的答案	-10.7394
都被	-10.7398
不滿	-10.7401
之上	-10.7404
產量	-10.7405
▁tv	-10.7405
伊斯蘭國	-10.7406
漁	-10.7408
捍衛	-10.7408
▁hurt	-10.7408
▁instance	-10.7408
▁escape	-10.7408
兄弟	-10.7408
左翼	-10.7408
▁finger	-10.7411
衆多	-10.7413
有利於	-10.7414
的位置	-10.7414
▁resource	-10.7422
▁sharp	-10.7424
▁islamist	-10.7425
▁murder	-10.7427
返	-10.7427
克里斯	-10.7427
一千	-10.7431
▁gla	-10.7436
傾向	-10.7444
發現了	-10.7444
聽過	-10.7446
▁stabiliz	-10.7447
雞	-10.7447
孤立	-10.7447
▁prepared	-10.7448
▁operations	-10.7449
手中	-10.7449
▁ear	-10.745
term	-10.745
▁wake	-10.7451
▁基本上	-10.7452
ulat	-10.7455
▁formal	-10.7458
更高	-10.7461
▁radio	-10.7464
域	-10.7464
垃圾	-10.7466
克林頓	-10.7466
▁talent	-10.7466
▁bias	-10.7467
gun	-10.7469
▁tree	-10.747
▁capitalism	-10.7478
聊	-10.7481
關聯	-10.7483
消滅	-10.7486
就必須	-10.7487
▁lift	-10.7487
念	-10.7489
會導致	-10.7491
在其	-10.7494
可以通過	-10.7499
道理	-10.7503
▁twice	-10.7505
兆	-10.7505
賦予	-10.7505
▁diversity	-10.7505
致命	-10.7506
spread	-10.7507
▁我們將	-10.7508
▁mechanism	-10.7508
▁ko	-10.7516
非法	-10.7517
▁mars	-10.7521
mini	-10.7522
▁keeping	-10.7523
▁biology	-10.7524
▁cutting	-10.7524
▁architecture	-10.7525
謝謝	-10.7527
fra	-10.7527
▁household	-10.7528
說過	-10.7529
tune	-10.7532
第四	-10.7536
▁processes	-10.754
幣	-10.7542
▁aware	-10.7543
conscious	-10.7543
咖啡	-10.7543
債權人	-10.7543
▁victims	-10.7558
▁interaction	-10.7559
▁restore	-10.7559
設施	-10.756
啦	-10.7563
▁legitimacy	-10.7563
兼	-10.7563
培訓	-10.7563
▁interview	-10.7563
博士	-10.7564
▁brand	-10.7565
▁我們還	-10.7566
決心	-10.7567
eng	-10.7569
▁station	-10.757
▁engine	-10.7573
▁speaking	-10.7577
hor	-10.7579
滅	-10.7581
▁sch	-10.7581
▁rational	-10.7583
追蹤	-10.7583
我們必須	-10.7584
▁executive	-10.7584
發佈	-10.7585
▁sin	-10.7586
▁survival	-10.7587
▁insist	-10.7587
重視	-10.7593
▁par	-10.7596
構建	-10.7596
▁renminbi	-10.7602
▁biological	-10.7602
官僚	-10.7602
艱難	-10.7608
額外	-10.7612
▁lessons	-10.7615
在這方面	-10.7617
斯坦	-10.7617
康	-10.7621
不受	-10.7621
佔據	-10.7622
按照	-10.7623
靈活	-10.7623
▁migration	-10.7624
▁stake	-10.7624
上帝	-10.7626
▁youth	-10.7632
發行	-10.7636
▁operate	-10.7637
綠	-10.764
拖	-10.7641
屆	-10.7641
▁bound	-10.7642
aimed	-10.7648
▁targets	-10.7649
稱爲	-10.765
2014	-10.7651
因為我們	-10.7652
應該要	-10.7654
揚	-10.766
薄	-10.7661
▁immigration	-10.7661
貓	-10.7661
▁exploit	-10.7661
▁muscle	-10.7661
品質	-10.7663
▁palestinians	-10.7664
這兩	-10.7667
▁其次	-10.7668
微生物	-10.7673
▁becom	-10.7674
明智	-10.7679
見到	-10.768
奶	-10.768
▁trading	-10.768
對方	-10.7681
婚	-10.769
故	-10.7691
65	-10.7693
保留	-10.7697
awa	-10.7698
刺	-10.77
eless	-10.7702
器官	-10.7702
account	-10.7703
▁2004	-10.7704
奪	-10.7705
融合	-10.7707
學者	-10.7708
▁sheet	-10.771
▁compromise	-10.771
zi	-10.7712
所能	-10.7717
不知	-10.7718
▁belong	-10.7719
▁arrangement	-10.772
▁regulatory	-10.772
▁economist	-10.7728
▁release	-10.7728
一些人	-10.773
▁opt	-10.7731
▁cast	-10.7732
fri	-10.7737
在我們的	-10.7738
▁deploy	-10.774
▁lebanon	-10.774
大西洋	-10.774
還可以	-10.7741
▁後來	-10.7748
這麼多	-10.7748
最多	-10.7754
迎	-10.7759
▁exciting	-10.776
▁multilateral	-10.776
▁harder	-10.776
現狀	-10.776
▁quo	-10.7763
探	-10.7766
症狀	-10.7767
猶太人	-10.7776
▁capture	-10.7777
▁cook	-10.7778
▁christian	-10.7779
意識形態	-10.7779
猶太	-10.7784
國外	-10.7786
人均	-10.7789
▁spin	-10.7789
也可能	-10.7791
各地	-10.7792
lon	-10.7792
▁這是我們	-10.7796
閃	-10.7799
▁distance	-10.7799
銷售	-10.78
生態	-10.7804
公正	-10.7807
介紹	-10.7819
磁	-10.7819
信貸	-10.782
的作品	-10.782
讓他	-10.7823
專利	-10.7823
▁profits	-10.7825
的基因	-10.7831
神經元	-10.7831
朗	-10.7837
讓人們	-10.7837
牽	-10.7839
intended	-10.7839
雙邊	-10.7842
▁沒有人	-10.7844
一台	-10.7846
▁reported	-10.7847
▁mal	-10.7849
抓	-10.7858
浪	-10.7858
▁advocate	-10.7859
▁floor	-10.7859
機械	-10.786
共和國	-10.786
釋	-10.7861
提振	-10.7861
▁calling	-10.7862
▁glass	-10.7863
生長	-10.7867
給我們	-10.787
侵	-10.7877
將來	-10.7878
▁application	-10.7879
早已	-10.788
▁accus	-10.788
▁committee	-10.788
的時代	-10.788
遺傳	-10.7881
▁我發現	-10.7886
屋	-10.7893
利亞	-10.7894
▁moon	-10.7896
獻	-10.7899
漢	-10.79
▁commodity	-10.79
▁abroad	-10.79
▁odd	-10.79
▁background	-10.7901
感興趣	-10.7901
哪個	-10.7902
24	-10.7903
是不是	-10.7904
2017	-10.7908
▁你就	-10.7908
吸收	-10.791
始	-10.791
▁movements	-10.7915
驚人的	-10.7916
lay	-10.7917
一旦	-10.7917
▁equivalent	-10.792
▁紐約	-10.7926
▁teacher	-10.7927
▁ensur	-10.793
▁tap	-10.7938
合法性	-10.794
▁centuries	-10.794
▁physics	-10.794
▁strategies	-10.794
委	-10.794
▁pollution	-10.794
律師	-10.794
營養	-10.7942
▁accounts	-10.7942
五十	-10.7944
更快	-10.7944
▁recognized	-10.7945
2050	-10.7947
▁pace	-10.7947
儲	-10.7949
▁身為	-10.795
到處	-10.7953
消息	-10.7954
敵人	-10.7958
陰	-10.796
▁agricultural	-10.796
▁david	-10.796
盈餘	-10.796
70%	-10.796
head	-10.7964
▁shi	-10.7964
很好的	-10.7966
ari	-10.7975
的後果	-10.7977
鏈	-10.798
▁bilateral	-10.798
▁compassion	-10.798
▁employees	-10.798
孩童	-10.798
基金會	-10.7981
印象	-10.7981
▁anymore	-10.7983
常見	-10.7987
不如	-10.7988
▁date	-10.7989
尤	-10.7993
永	-10.7997
▁我不知道	-10.7998
榮	-10.8
▁perception	-10.8001
▁laugh	-10.8001
大自然	-10.8003
打造	-10.802
瑞典	-10.8022
覆蓋	-10.8022
▁prize	-10.8022
高於	-10.8022
引導	-10.8029
已經開始	-10.8032
▁conventional	-10.8032
▁opening	-10.8035
兩位	-10.8037
修正	-10.8037
▁fossil	-10.8042
▁welfare	-10.8042
▁cyber	-10.8042
悲劇	-10.8042
▁settlement	-10.8044
income	-10.8057
fall	-10.8058
問我	-10.8059
壁	-10.8062
泥	-10.8062
▁senior	-10.8062
▁technique	-10.8062
懲罰	-10.8062
資助	-10.8063
篇	-10.8064
偏見	-10.8065
內戰	-10.8066
謀	-10.8078
燒	-10.8082
▁flood	-10.8082
well	-10.8091
二戰	-10.8093
才是	-10.8099
▁auto	-10.8102
繼	-10.8103
twitter	-10.8103
疊	-10.8103
淡	-10.8103
震驚	-10.8104
▁chair	-10.8104
女士	-10.8106
hir	-10.8108
身邊	-10.8109
還沒	-10.8114
法院	-10.8119
▁math	-10.8122
▁distinct	-10.8124
▁compar	-10.8124
立刻	-10.8125
▁missing	-10.8128
會造成	-10.8128
▁anyway	-10.8134
▁percentage	-10.8135
▁planning	-10.8135
自由貿易	-10.8137
的好處	-10.8141
▁transport	-10.8142
數百	-10.8142
▁newspaper	-10.8144
▁sick	-10.8145
羣	-10.8145
▁sentence	-10.8146
三十	-10.8149
的意義	-10.8159
▁supported	-10.8161
民主國家	-10.8163
賓	-10.8165
隆	-10.8165
▁professor	-10.8165
羊	-10.8165
壽命	-10.8165
來自於	-10.8165
傳遞	-10.8165
▁peaceful	-10.817
諸	-10.8176
在全球	-10.8177
現場	-10.8178
▁abe	-10.8181
不穩定	-10.8182
訊	-10.8183
胡	-10.8186
教導	-10.8187
terrible	-10.8194
▁muslims	-10.8195
同一	-10.8195
狂	-10.8201
▁republic	-10.8203
▁witness	-10.8206
嘴	-10.8206
▁email	-10.8207
有多少	-10.821
的方式來	-10.821
▁players	-10.8211
▁constitutional	-10.8216
油價	-10.8221
▁stars	-10.8224
中產階級	-10.8227
稱之為	-10.8227
合理的	-10.8228
抓住	-10.8229
報道	-10.8233
金錢	-10.8237
其他地方	-10.8242
▁artificial	-10.8248
▁landscape	-10.8248
共享	-10.8248
▁leverage	-10.8249
▁adjustment	-10.825
不少	-10.825
已經有	-10.825
會產生	-10.8252
優先	-10.8252
▁signs	-10.8255
佔領	-10.826
升值	-10.826
29	-10.8261
金融機構	-10.8261
▁24	-10.8264
角度	-10.8269
煙	-10.8269
踏	-10.8269
▁absence	-10.8269
▁kenya	-10.8269
generat	-10.8272
差別	-10.8272
700	-10.8274
拿出	-10.8277
bra	-10.8282
什麼樣的	-10.8282
很棒	-10.8283
bert	-10.8288
跡	-10.8289
陳	-10.829
▁assumption	-10.829
▁excited	-10.829
數千	-10.8293
規範	-10.8294
▁crop	-10.8296
▁practices	-10.8297
▁edge	-10.8299
三年	-10.8299
▁因為他們	-10.8304
的樣子	-10.8304
▁所有這些	-10.8306
崗位	-10.831
▁conclusion	-10.8311
▁agency	-10.8311
公園	-10.8312
報紙	-10.8312
社交	-10.8314
情報	-10.8314
1999	-10.8318
iz	-10.8321
▁這些人	-10.8323
不久	-10.8328
▁spirit	-10.8331
腐	-10.8331
克斯	-10.8332
緬甸	-10.8332
▁explanation	-10.8332
賭	-10.8332
▁類似地	-10.8332
運輸	-10.8333
信念	-10.8333
▁operation	-10.8337
的最佳	-10.8342
rum	-10.8351
戈	-10.8353
▁sister	-10.8353
▁iron	-10.8358
確認	-10.8362
出版	-10.8367
重複	-10.8372
跨國	-10.8373
▁institute	-10.8374
▁random	-10.8374
▁但這些	-10.8379
▁remained	-10.8381
仍在	-10.8383
以此	-10.8386
反映	-10.8386
否認	-10.8386
冷戰	-10.8388
記住	-10.8389
▁lending	-10.8395
桑	-10.8395
典型	-10.8396
放緩	-10.8397
將它	-10.8398
▁2003	-10.8407
jo	-10.8411
薪	-10.8413
共產主義	-10.8416
▁flight	-10.8419
▁capita	-10.842
甚至是	-10.8421
power	-10.8423
▁devices	-10.8423
的說法	-10.8428
▁minute	-10.8433
▁$2	-10.8436
會看到	-10.8437
▁opponent	-10.8437
國防	-10.8438
▁communicate	-10.8438
否	-10.844
評	-10.8441
maker	-10.8451
與美國	-10.8453
幾年前	-10.8455
controlled	-10.8456
幻	-10.8457
累	-10.8458
▁volatil	-10.8459
▁chief	-10.8459
什葉派	-10.8459
捲	-10.8459
▁arrest	-10.8459
▁patent	-10.8459
艾滋病	-10.8459
▁candidate	-10.846
例外	-10.8462
司	-10.8462
▁highlight	-10.8463
ulation	-10.8467
▁wire	-10.8469
▁wherea	-10.8476
28	-10.8479
▁unprecedented	-10.848
示威	-10.8481
從中	-10.8482
lk	-10.8484
僅僅是	-10.8484
ept	-10.8485
▁但是我	-10.8487
有沒有	-10.8494
妙	-10.8497
▁author	-10.8498
▁這將	-10.85
奉	-10.8501
瓶	-10.8501
▁macroeconomic	-10.8501
猛	-10.8501
遜尼派	-10.8501
▁novel	-10.8503
▁competitiveness	-10.8503
線上	-10.8507
那就是	-10.8511
described	-10.8514
比率	-10.8519
▁我們應該	-10.852
飯	-10.8523
▁academic	-10.8523
▁referendum	-10.8523
不起	-10.8524
形象	-10.8524
▁defined	-10.8525
話題	-10.8527
日程	-10.8527
反映了	-10.8527
戰鬥	-10.8528
宏觀經濟	-10.8531
26	-10.8533
不像	-10.8538
只需要	-10.8538
▁prospects	-10.8543
稀	-10.8544
▁imbalance	-10.8544
藍色	-10.8545
je	-10.855
心臟	-10.8552
▁bare	-10.8557
▁demo	-10.8559
身為	-10.8561
▁switch	-10.8566
寧	-10.8566
腫瘤	-10.8566
▁beauty	-10.8566
▁honor	-10.8566
昂貴	-10.8566
農村	-10.8566
便宜	-10.8566
▁pension	-10.8567
solving	-10.8567
▁membership	-10.8568
ular	-10.8569
小組	-10.8572
▁inspired	-10.8579
▁slightly	-10.8587
▁neighbor	-10.8591
—	-10.86
▁citizen	-10.8602
board	-10.8602
敏感	-10.8603
▁paint	-10.8605
蜂	-10.8609
▁acknowledge	-10.8609
▁director	-10.8609
挺	-10.8609
最佳	-10.861
▁guard	-10.861
▁sunni	-10.8613
忘記	-10.8618
chan	-10.8622
▁institution	-10.8623
很快就	-10.8625
▁我們能	-10.8626
1997	-10.8631
▁determined	-10.8631
申請	-10.8631
▁civilization	-10.8634
▁reviv	-10.8638
estimated	-10.8644
統	-10.8644
覆	-10.8647
洋	-10.865
▁candidates	-10.8651
慘	-10.8652
▁relevant	-10.8652
▁symptom	-10.8652
抗生素	-10.8652
▁我們發現	-10.8654
不必	-10.8656
情感	-10.866
發起	-10.8664
▁added	-10.8667
組成的	-10.8668
一座	-10.8668
刊	-10.8674
鞋	-10.8674
▁dam	-10.8674
消耗	-10.8674
財務	-10.8677
喬治	-10.8679
啓動	-10.8682
▁worried	-10.8683
gram	-10.8686
▁collaborat	-10.8687
肺	-10.8695
▁comprehensive	-10.8696
駕駛	-10.8696
▁attitude	-10.8696
▁presence	-10.8696
推翻	-10.8697
▁而這些	-10.8698
▁experienc	-10.8698
也很	-10.87
反對派	-10.8704
▁bankers	-10.8706
把它們	-10.8708
存活	-10.8709
菸	-10.8717
▁ecosystem	-10.8718
截	-10.8718
▁fresh	-10.8718
塑膠	-10.8718
▁scene	-10.8718
吸引力	-10.8718
巴勒斯坦人	-10.872
▁hearing	-10.8727
▁lay	-10.8733
解決問題	-10.8734
就開始	-10.8736
前提	-10.8738
▁dramatic	-10.8738
▁agencies	-10.8739
技巧	-10.874
抵制	-10.874
神奇	-10.8742
▁differently	-10.875
義務	-10.8751
要讓	-10.8756
class	-10.8758
的時刻	-10.8761
▁democracies	-10.8761
▁crash	-10.8761
大多	-10.8765
得出	-10.8772
▁affairs	-10.8773
erson	-10.8774
也是如此	-10.8776
選項	-10.8779
▁mechanisms	-10.8779
▁同時也	-10.8781
▁recommend	-10.8783
▁tissue	-10.8783
諷刺	-10.8783
▁blow	-10.8783
ani	-10.8785
▁hall	-10.8792
▁lie	-10.8793
的一切	-10.8795
▁forth	-10.8798
今日	-10.8803
黃	-10.8803
▁weren	-10.8805
▁genuine	-10.8805
委內瑞拉	-10.8805
引擎	-10.8805
法官	-10.8809
勞動力市場	-10.8811
gged	-10.8811
纔是	-10.8815
排除	-10.8819
形式的	-10.8821
的內容	-10.8827
地緣政治	-10.8827
階層	-10.8828
暴露	-10.8828
照護	-10.8829
▁creditors	-10.8833
▁score	-10.8834
▁bright	-10.8835
推出	-10.8839
美國經濟	-10.884
成功地	-10.8843
伴	-10.8848
漲	-10.8849
灰	-10.885
專案	-10.8851
名字	-10.8851
區別	-10.8853
運行	-10.8857
已經被	-10.8863
聲稱	-10.8866
▁church	-10.8872
▁dialogue	-10.8872
▁inclusive	-10.8872
▁legislation	-10.8872
永續	-10.8872
困擾	-10.8872
自殺	-10.8875
參與者	-10.8875
當前的	-10.8876
製造業	-10.8881
我們現在	-10.8891
▁define	-10.8892
譽	-10.8893
不可思議	-10.8894
▁activist	-10.8894
▁donald	-10.8894
黃金	-10.8895
▁closed	-10.8896
uni	-10.8897
還需要	-10.8901
▁shut	-10.8903
生物學	-10.8908
fortunately	-10.8908
▁apple	-10.8915
▁rescue	-10.8916
▁pin	-10.8917
失望	-10.8919
小型	-10.8919
建立一個	-10.892
在中國	-10.8921
良好	-10.8925
無疑	-10.8934
播	-10.8934
▁impose	-10.8935
舒	-10.8938
湯	-10.8939
▁destruction	-10.8939
皆	-10.8939
螢幕	-10.8939
沒有什麼	-10.8941
足球	-10.8941
可持續發展	-10.8942
資格	-10.8943
可能性	-10.8943
很明顯	-10.8944
可以從	-10.8946
所知	-10.8946
▁emerged	-10.8948
說法	-10.8951
不僅是	-10.8952
推行	-10.8952
一篇	-10.8959
勃	-10.8961
鞏固	-10.8961
甘	-10.8961
香港	-10.8961
▁ongoing	-10.8962
建立了	-10.8968
▁特別是在	-10.8972
就不會	-10.8973
more	-10.8976
嚴	-10.8978
危	-10.8979
變得更加	-10.8979
現金	-10.8983
▁accumulat	-10.8983
▁cambridge	-10.8983
傢伙	-10.8983
春	-10.8983
▁dozen	-10.8983
▁phase	-10.8983
▁weather	-10.8983
原始	-10.8984
az	-10.8985
▁achiev	-10.8989
環境中	-10.8996
全球性	-10.8998
▁republicans	-10.9
▁kim	-10.9002
近期	-10.9004
馬拉	-10.9004
噴	-10.9006
▁fascinat	-10.9006
盲	-10.9006
激烈	-10.9006
途徑	-10.9006
▁occurred	-10.9008
lie	-10.9008
走到	-10.9018
▁broke	-10.9022
月份	-10.9025
孕	-10.9028
妹	-10.9028
掛	-10.9028
杯	-10.9028
虛擬	-10.9029
▁distribut	-10.903
▁package	-10.903
▁adults	-10.903
夏天	-10.9031
▁diver	-10.9034
強制	-10.9034
人工	-10.9036
那天	-10.9036
算是	-10.9037
▁sustained	-10.9039
設立	-10.9043
▁fle	-10.9044
生活中	-10.9046
▁rat	-10.9047
棄	-10.9049
胎	-10.9051
▁definition	-10.9051
▁desperate	-10.9051
▁rhetoric	-10.9051
賈	-10.9051
▁genome	-10.9051
街頭	-10.9055
▁conduct	-10.906
全都	-10.9063
必然	-10.9065
把我	-10.9066
哥倫比亞	-10.9074
化石燃料	-10.9074
▁sudden	-10.9074
的代價	-10.9074
暫時	-10.9075
作家	-10.9077
▁opened	-10.9078
▁vari	-10.9081
▁div	-10.9081
佳	-10.9084
▁armed	-10.9093
▁obstacle	-10.9096
▁shoot	-10.9096
▁gaza	-10.9096
不安	-10.9097
▁broader	-10.9098
直覺	-10.9098
▁pound	-10.9099
是一位	-10.9101
▁drawing	-10.9103
▁resulting	-10.911
▁teaching	-10.9114
▁closely	-10.9115
▁rein	-10.9116
stood	-10.9117
誘	-10.9119
▁presidency	-10.9119
牧	-10.9119
▁participation	-10.9121
議員	-10.9123
高級	-10.9124
▁electro	-10.9125
以往	-10.913
▁custom	-10.9138
▁divide	-10.914
港	-10.9141
橋	-10.9142
▁transparency	-10.9142
▁dramatically	-10.9143
終結	-10.9144
加沙	-10.9149
何時	-10.9153
▁即使是	-10.916
▁architect	-10.9164
▁deflation	-10.9165
愈	-10.9165
作物	-10.9165
扭曲	-10.9165
開心	-10.9166
▁pur	-10.9168
▁joint	-10.9173
▁introduced	-10.9174
▁scientist	-10.918
奈	-10.9187
高中	-10.9187
郵	-10.9187
竭	-10.9187
▁venezuela	-10.9187
▁contact	-10.9187
焦慮	-10.9188
模擬	-10.9188
毫不	-10.9188
億人	-10.9189
▁inevitable	-10.919
正面	-10.919
不喜歡	-10.9191
▁weakness	-10.9191
▁barriers	-10.9192
▁reverse	-10.9194
問題在於	-10.92
ett	-10.9208
▁babies	-10.921
▁creativity	-10.921
▁january	-10.921
人工智慧	-10.9211
大會	-10.9213
estate	-10.9227
在哪裡	-10.9228
鐘	-10.9228
▁eliminate	-10.9228
▁height	-10.9231
趨	-10.9233
氏	-10.9233
匹	-10.9233
憑	-10.9233
▁electoral	-10.9233
血液	-10.9234
2005	-10.9235
地說	-10.9237
二十年	-10.9237
gate	-10.924
殖民	-10.9243
學術	-10.9243
主流	-10.9244
▁她說	-10.9244
人體	-10.9247
▁refus	-10.9253
level	-10.9253
▁joy	-10.9255
▁authoritarian	-10.9256
李	-10.9256
afraid	-10.9257
沙特阿拉伯	-10.9258
▁dealing	-10.9263
▁pursu	-10.9268
ttle	-10.9269
股市	-10.9278
鼓	-10.9279
怒	-10.9279
▁sco	-10.928
▁insight	-10.9283
企業家	-10.9284
underlying	-10.929
▁invent	-10.929
今	-10.929
script	-10.929
在內的	-10.9291
早上	-10.9292
爭取	-10.9294
▁tech	-10.9298
堪	-10.93
abilities	-10.9302
凱恩斯	-10.9303
番	-10.9303
違約	-10.9304
▁mad	-10.9304
生態系統	-10.9305
一部	-10.9313
american	-10.9317
小心	-10.9319
偉大	-10.9323
▁empire	-10.9326
▁rival	-10.9326
永久	-10.9326
帶到	-10.9327
放大	-10.9328
一個國家	-10.9336
related	-10.9336
存在於	-10.9338
廳	-10.9344
多樣性	-10.9345
繪	-10.9349
▁forecast	-10.9349
噸	-10.9349
難題	-10.9351
文件	-10.9355
ley	-10.9361
此類	-10.9362
生產力	-10.9365
▁accomplish	-10.9372
駐	-10.9372
▁illegal	-10.9372
▁soldiers	-10.9372
▁staff	-10.9372
▁england	-10.9372
探討	-10.9373
支撐	-10.9373
顧問	-10.9375
流入	-10.9376
你知道	-10.9382
特性	-10.9383
似	-10.9386
▁compete	-10.9387
涉	-10.939
▁noneth	-10.9393
麽	-10.9396
▁emergency	-10.9396
誇	-10.9396
1989	-10.9396
▁remote	-10.9396
▁exceed	-10.9396
鄰居	-10.9397
處在	-10.9398
性質	-10.9398
平民	-10.9401
架構	-10.9401
lum	-10.9404
當下	-10.9407
下面	-10.941
才會	-10.9416
病患	-10.9418
▁smell	-10.9419
▁poland	-10.9422
▁renewable	-10.9422
▁attend	-10.9422
紀念	-10.9423
諸多	-10.9424
▁regardless	-10.9425
毒品	-10.9429
例如	-10.943
▁engaged	-10.9433
納入	-10.9433
族群	-10.9433
▁bone	-10.9435
▁poorest	-10.9436
青年	-10.9437
▁molecules	-10.9439
歲時	-10.9439
戲	-10.9442
飾	-10.9443
賬戶	-10.9443
▁crack	-10.9445
看似	-10.9446
二十世紀	-10.9446
▁soil	-10.9447
▁habit	-10.9452
熟	-10.9463
智能	-10.9463
▁adult	-10.9465
況	-10.9465
各國政府	-10.9466
▁location	-10.9466
▁deposit	-10.9471
▁hang	-10.9473
▁expression	-10.9473
前所未有的	-10.9482
▁儘管如此	-10.9485
負債	-10.9487
燃	-10.9489
阻	-10.9489
晶	-10.949
▁aggressive	-10.949
▁argentina	-10.949
▁museum	-10.949
▁neurons	-10.949
死於	-10.9501
▁july	-10.9505
擔	-10.9507
敬	-10.9513
▁phenomenon	-10.9513
▁cloth	-10.9514
▁1960	-10.9518
我覺得	-10.9518
家族	-10.9524
設定	-10.9526
▁enabl	-10.9526
先進	-10.9528
地下	-10.9532
他說	-10.9533
mark	-10.9534
氧	-10.9536
媽	-10.9537
家裡	-10.9537
▁satellite	-10.9537
▁fashion	-10.9537
貫	-10.9537
青少年	-10.9537
差不多	-10.9537
▁canada	-10.9537
▁peak	-10.9539
def	-10.954
▁egyptian	-10.954
vin	-10.9542
▁achievement	-10.9545
▁actors	-10.9547
99	-10.9549
好事	-10.9554
我們自己	-10.9555
療	-10.9557
▁notion	-10.9559
▁website	-10.9561
▁hong	-10.9561
鼓舞	-10.9561
ken	-10.9562
▁divided	-10.9562
▁sovereignty	-10.9563
成熟	-10.9564
▁declared	-10.9569
十億	-10.9571
sembl	-10.9572
▁deserve	-10.9572
兩次	-10.9573
▁chart	-10.9577
人心	-10.9578
無限	-10.9581
乏	-10.9584
刀	-10.9585
熊	-10.9585
輔	-10.9585
▁kong	-10.9586
▁motivat	-10.9591
▁謝謝大家	-10.9591
這種情況	-10.9592
範圍內	-10.9593
條款	-10.9594
使我們	-10.9596
混合	-10.9597
來看看	-10.9598
ident	-10.9602
▁failing	-10.9602
▁guide	-10.9603
烈	-10.9606
婦	-10.9608
▁accurate	-10.9609
▁husband	-10.9609
▁provision	-10.9609
蘋果	-10.9609
▁false	-10.9609
肌肉	-10.9609
跡象	-10.9609
▁emotions	-10.9609
伴隨	-10.9611
▁scan	-10.9612
人們對	-10.9613
住房	-10.9616
他們所	-10.9616
▁可是	-10.962
儲存	-10.9621
跌	-10.9626
▁exposed	-10.9633
▁speculat	-10.9633
▁painful	-10.9635
更重要的是	-10.9635
▁prospect	-10.9637
做過	-10.9639
世界上最	-10.9644
分別	-10.9647
領導者	-10.9651
持久	-10.9654
幾天	-10.9656
伸	-10.9656
▁prevail	-10.9656
習近平	-10.9656
▁ambition	-10.9656
▁moderate	-10.9657
free	-10.9663
▁react	-10.9668
▁boat	-10.9674
他們自己	-10.9679
攻	-10.968
菜	-10.9681
博物館	-10.9681
▁bunch	-10.9681
▁infection	-10.9681
引入	-10.9685
建築物	-10.9686
▁corporations	-10.9698
▁select	-10.97
沮喪	-10.9705
▁aggregate	-10.9705
▁creature	-10.9705
沖	-10.9705
慈善	-10.9705
youtube	-10.9705
三分之一	-10.9706
我們如何	-10.9708
部落	-10.9714
後面	-10.9714
有一種	-10.9715
公里	-10.9716
▁lend	-10.9718
rick	-10.9721
▁intention	-10.9722
拉美	-10.9727
南部	-10.9728
蠻	-10.9729
▁currencies	-10.9729
▁innovative	-10.9729
軸	-10.9729
減輕	-10.973
▁settle	-10.9731
▁proud	-10.9734
保羅	-10.9734
▁painting	-10.9734
都市	-10.9738
這一問題	-10.9744
鎮	-10.9747
▁換句話說	-10.9753
柯	-10.9753
遵守	-10.9753
▁dying	-10.9754
融入	-10.9754
▁disrupt	-10.9755
物品	-10.9755
▁migrants	-10.9756
擁	-10.9757
▁dc	-10.9758
便是	-10.9762
兩大	-10.9763
▁demonstrate	-10.9768
此前	-10.9768
有兩個	-10.9769
借貸	-10.9771
了解到	-10.9772
▁fulfill	-10.9777
1998	-10.9777
毀滅	-10.9778
面積	-10.9778
fusion	-10.978
過渡	-10.9782
▁pack	-10.9786
聲明	-10.9786
mber	-10.9789
獲取	-10.9791
違	-10.9797
▁participate	-10.98
捐	-10.9801
改造	-10.9802
違反	-10.9805
畫面	-10.9813
現代化	-10.9816
▁invented	-10.9822
▁dimension	-10.9824
▁occasion	-10.9826
▁territory	-10.9826
volving	-10.9826
發達經濟體	-10.9826
活躍	-10.9827
訊號	-10.9827
常規	-10.9827
▁mouth	-10.985
▁troops	-10.985
阿薩德	-10.985
▁transaction	-10.985
▁instability	-10.985
勇氣	-10.9851
▁marriage	-10.9852
▁我現在	-10.9853
拿到	-10.9857
▁equality	-10.986
▁fallen	-10.9861
的立場	-10.9863
深度	-10.9863
業務	-10.9865
▁myth	-10.9865
▁diplomacy	-10.9875
▁reinforce	-10.9875
階級	-10.9875
柏林	-10.9876
之時	-10.9876
隱藏	-10.9876
形勢	-10.9878
▁bought	-10.988
而來	-10.9888
見過	-10.9889
合成	-10.9891
去看	-10.9891
啓	-10.9895
▁shin	-10.9895
量子	-10.9896
申	-10.9899
▁manufacture	-10.99
埋	-10.99
▁immigrants	-10.9902
英里	-10.9903
▁walked	-10.9903
▁delay	-10.9904
任期	-10.9904
▁layer	-10.9911
▁proved	-10.9918
英語	-10.9919
路上	-10.992
認定	-10.9924
▁valuable	-10.9924
升級	-10.9926
▁specifically	-10.9927
堅定	-10.9928
公投	-10.9929
▁bat	-10.9932
可怕的	-10.9936
▁carried	-10.994
沃	-10.9945
悲	-10.9946
▁adjust	-10.9946
地理	-10.9947
隔離	-10.9947
斥	-10.9948
▁secular	-10.9949
▁universities	-10.9949
氣候變遷	-10.9949
連續	-10.9949
▁stuck	-10.9951
▁users	-10.9952
長時間	-10.9952
▁motion	-10.9955
▁officer	-10.9957
ility	-10.9958
染	-10.9961
▁exit	-10.9965
前往	-10.997
搜尋	-10.9974
強硬	-10.9977
即便	-10.9979
▁sought	-10.9982
▁parent	-10.9985
激發	-10.9985
▁epi	-10.9985
avi	-10.9987
nna	-10.9989
史上	-10.999
ez	-10.999
▁evolved	-10.999
dependent	-10.999
graph	-10.9993
▁rose	-10.9996
▁signed	-10.9996
temporary	-10.9997
不確定	-10.9997
窗	-10.9998
涯	-10.9998
▁proportion	-10.9998
▁wisdom	-10.9998
▁obligation	-11
小小的	-11.0005
從而	-11.0007
察	-11.0013
第三個	-11.0014
結構性	-11.002
監	-11.0021
衣服	-11.0021
襲	-11.0023
▁october	-11.0023
▁climb	-11.0023
監控	-11.0024
種植	-11.0024
交換	-11.0026
▁dig	-11.0027
要素	-11.0029
▁bold	-11.0031
立即	-11.0034
想知道	-11.0042
▁graduate	-11.0046
傳染	-11.0048
▁advice	-11.0048
▁tremendous	-11.0048
鑽	-11.0048
▁convert	-11.0048
北京	-11.0048
鉅額	-11.0049
▁flaw	-11.0049
創傷	-11.005
指控	-11.005
▁meaningful	-11.0051
談話	-11.0052
▁expanding	-11.0054
沒什麼	-11.0063
released	-11.0063
▁supporters	-11.0067
達到了	-11.0067
多年來	-11.0068
tally	-11.0068
room	-11.0073
獄	-11.0073
▁mortgage	-11.0073
▁straight	-11.0073
▁wellbeing	-11.0073
▁slide	-11.0074
老鼠	-11.0075
▁priority	-11.0075
▁particles	-11.0077
權威	-11.0079
陣	-11.0085
▁separat	-11.0088
▁€	-11.0092
喬	-11.0092
集中在	-11.0094
▁excess	-11.0096
路線	-11.0096
暖	-11.0098
練	-11.0098
謹慎	-11.0098
▁robust	-11.0098
澳大利亞	-11.0098
恐怖分子	-11.01
not	-11.0102
▁也就是說	-11.0109
背後的	-11.0109
這是一個	-11.0112
受歡迎	-11.0114
▁nationalism	-11.0119
▁oxygen	-11.0123
爸爸	-11.0123
短缺	-11.0125
▁assert	-11.0126
grad	-11.0135
你自己	-11.0139
驚人	-11.014
▁因爲它	-11.0148
稅率	-11.0148
戀	-11.0149
▁concrete	-11.0149
世上	-11.0149
▁ruling	-11.0149
▁italian	-11.0149
▁translate	-11.015
形容	-11.0152
有點像	-11.0156
選舉中	-11.0163
估	-11.0163
gh	-11.0166
不存在	-11.0169
▁neuro	-11.0173
▁courage	-11.0174
漂亮	-11.0174
▁dominat	-11.0175
▁engagement	-11.0179
發射	-11.018
公約	-11.0183
中國經濟	-11.0185
▁nationalist	-11.0185
rin	-11.0187
論文	-11.0194
孤	-11.0198
欠	-11.0199
貪	-11.0199
良好的	-11.02
之路	-11.02
tech	-11.0202
▁diet	-11.0202
已有	-11.0204
carbon	-11.021
▁fate	-11.021
多種	-11.0214
▁linked	-11.0215
攝影	-11.022
有更多	-11.0223
脂	-11.0225
梯	-11.0225
拆	-11.0225
▁destin	-11.0225
▁lawyer	-11.0225
願望	-11.0226
注入	-11.0228
▁borrowing	-11.0229
tz	-11.0233
▁isolat	-11.0236
走進	-11.0237
也不能	-11.0237
中期	-11.0241
藥品	-11.0242
就是這樣	-11.0248
漏	-11.025
拉丁美洲	-11.025
▁august	-11.025
▁coffee	-11.025
▁storm	-11.025
秘密	-11.025
rc	-11.0253
忘	-11.0255
▁association	-11.0256
兩倍	-11.026
▁element	-11.0264
藉	-11.0265
在乎	-11.0267
▁但它們	-11.0271
▁cry	-11.0274
▁medium	-11.0274
▁epidemic	-11.0275
▁indonesia	-11.0275
▁legacy	-11.0275
▁privilege	-11.0275
嚴肅	-11.0275
桶	-11.0275
▁sample	-11.0276
原來	-11.0276
▁establishment	-11.0282
擴展	-11.0283
bank	-11.0289
bro	-11.0292
▁forever	-11.0292
想起	-11.0293
▁bra	-11.0299
▁rub	-11.0301
租	-11.0301
▁antibiotic	-11.0301
▁democrats	-11.0301
▁disagree	-11.0301
▁display	-11.0301
冠	-11.0301
▁quiet	-11.0301
▁另一方面	-11.0301
慢慢	-11.0302
哈佛	-11.0303
aba	-11.031
越來越多的	-11.0311
診	-11.0313
進來	-11.0316
宗	-11.0322
一小	-11.0323
送到	-11.0323
▁statistics	-11.0325
澤	-11.0327
▁adequate	-11.0327
▁gift	-11.0327
▁sensor	-11.0327
承	-11.0327
論壇	-11.0327
▁mandate	-11.0328
很有趣	-11.0329
一定要	-11.0329
誕生	-11.0329
改進	-11.0331
版本	-11.0332
900	-11.0333
本質	-11.0336
▁spur	-11.0338
這些東西	-11.0342
是怎麼	-11.0345
national	-11.0345
穆	-11.0352
插	-11.0352
▁error	-11.0352
依據	-11.0353
新興經濟體	-11.0353
人才	-11.0356
▁然後我們	-11.0356
▁sequence	-11.0357
隨機	-11.0358
十五	-11.036
▁terror	-11.036
美國政府	-11.0365
▁anger	-11.0372
數十年	-11.0373
這份	-11.0374
▁fixed	-11.0375
簽	-11.0378
▁jewish	-11.0378
▁nobel	-11.0378
▁educational	-11.0379
安倍	-11.0384
稍	-11.0397
▁overwhelming	-11.0399
凝	-11.0404
▁combat	-11.0404
優秀	-11.0404
審查	-11.0405
▁fellow	-11.0405
私人部門	-11.0407
走出	-11.041
以及其他	-11.0413
威爾	-11.0413
▁addressing	-11.0427
找到了	-11.043
hood	-11.043
▁confirm	-11.043
分離	-11.043
軌道	-11.0431
創業	-11.0433
▁egg	-11.0437
eath	-11.0443
較低	-11.0447
uk	-11.0449
實質	-11.0454
財	-11.0454
▁credibility	-11.0456
太平洋	-11.0456
▁applied	-11.0456
▁scheme	-11.0456
▁volume	-11.0456
▁fruit	-11.0456
▁gulf	-11.0457
密切	-11.0459
▁attractive	-11.0461
▁warning	-11.0468
burg	-11.0468
long	-11.047
東歐	-11.0475
15%	-11.0479
答	-11.0479
徑	-11.048
粗	-11.0482
納粹	-11.0482
滅絕	-11.0483
頻	-11.0484
平台	-11.0485
▁marine	-11.0486
rou	-11.0487
錯了	-11.0489
許多國家	-11.0492
▁concentrat	-11.0493
▁implemented	-11.0496
推特	-11.0497
就這樣	-11.0498
把他們	-11.05
trained	-11.0505
純	-11.0507
▁absorb	-11.0508
▁division	-11.0508
▁recognition	-11.0508
謎	-11.0508
▁missile	-11.0508
▁accelerat	-11.0508
導彈	-11.051
海岸	-11.0512
接收	-11.0512
隨時	-11.0515
▁cri	-11.0515
在非洲	-11.0521
一面	-11.0531
玻	-11.0534
關閉	-11.0535
▁panel	-11.0538
要把	-11.054
▁traffic	-11.0542
▁journal	-11.0542
加以	-11.0543
再一次	-11.0547
絕大多數	-11.0548
影響到	-11.0549
lv	-11.0551
幾百	-11.0555
▁iraqi	-11.0555
atory	-11.0555
障	-11.056
鋼	-11.056
▁heavily	-11.0561
舉措	-11.0561
berg	-11.0561
一支	-11.0565
選票	-11.0569
要比	-11.0572
沒能	-11.0576
用戶	-11.0577
腦部	-11.058
▁organized	-11.058
荷	-11.0586
1990	-11.0587
惜	-11.0587
幫助我們	-11.0587
▁hunt	-11.0589
▁route	-11.0591
很久	-11.0595
更容易	-11.0596
歐盟委員會	-11.06
遷	-11.0604
這邊	-11.0606
群體	-11.0608
夏	-11.061
也許是	-11.0612
衰	-11.0612
同性戀	-11.0613
鯨	-11.0613
▁beijing	-11.0613
▁easing	-11.0613
延伸	-11.0613
清潔	-11.0614
很有可能	-11.0618
▁好吧	-11.0619
就越	-11.0632
彩	-11.0638
濟	-11.0639
哭	-11.064
kar	-11.0642
▁constrain	-11.0643
arm	-11.0644
北部	-11.0646
提議	-11.0655
無數	-11.0657
▁carefully	-11.0657
▁pure	-11.066
宮	-11.0665
▁indicate	-11.0666
▁geopolitical	-11.0666
▁chronic	-11.0666
迫切	-11.0667
▁sustainability	-11.0667
▁sugar	-11.0667
▁index	-11.0667
專門	-11.0669
uri	-11.0671
廉價	-11.0672
四年	-11.0676
深遠	-11.0678
與此	-11.0678
▁calculat	-11.0686
財政政策	-11.0686
▁liquid	-11.069
willingness	-11.069
陷	-11.0691
▁diminish	-11.0693
愛滋病	-11.0693
升高	-11.0698
分之一	-11.07
▁mobil	-11.0703
極爲	-11.071
衡	-11.071
旅	-11.0711
運轉	-11.0713
▁consume	-11.0714
漸	-11.0717
▁uncertain	-11.0718
肢	-11.0719
▁brutal	-11.0719
▁copy	-11.072
醫師	-11.0721
信譽	-11.0721
▁automat	-11.0722
介入	-11.0722
血管	-11.0723
早就	-11.0723
很小	-11.0724
精確	-11.0725
▁pot	-11.0725
▁included	-11.0727
包容	-11.073
不願意	-11.0731
considerable	-11.0734
▁noticed	-11.0737
前面	-11.0738
不斷地	-11.0741
遭	-11.0742
織	-11.0745
32	-11.0746
▁immune	-11.0746
▁childhood	-11.0747
逆轉	-11.0747
48	-11.0747
電池	-11.0748
2006	-11.0748
▁diverse	-11.0749
▁initial	-11.075
▁你可以看到	-11.0752
效益	-11.0755
▁alter	-11.0758
基因組	-11.0762
uch	-11.0769
▁simpl	-11.0769
250	-11.0771
逐	-11.0772
恨	-11.0773
荒	-11.0773
▁discipline	-11.0773
▁equipment	-11.0773
侷限	-11.0773
妮	-11.0773
棟	-11.0773
▁examin	-11.0773
▁classroom	-11.0774
本人	-11.0776
顯得	-11.0777
▁mutual	-11.0781
會帶來	-11.0783
武	-11.0785
2001	-11.0787
告訴你們	-11.0787
看不到	-11.0789
回收	-11.079
行政	-11.079
ography	-11.0791
滿意	-11.0793
很高	-11.0796
畢	-11.0799
歡	-11.0799
膠	-11.08
掃	-11.08
sensitive	-11.08
恐慌	-11.08
▁幸運的是	-11.08
看上去	-11.08
喪失	-11.0801
外面	-11.0801
脫歐	-11.0801
縮小	-11.0808
啟	-11.0809
▁因為這	-11.082
star	-11.0824
肩	-11.0827
全球變暖	-11.0827
衷	-11.0827
演算法	-11.0827
幅度	-11.0829
▁typical	-11.0831
▁topic	-11.0835
▁surviv	-11.0837
▁declining	-11.0854
▁merkel	-11.0854
撒	-11.0854
▁slowdown	-11.0856
google	-11.0856
震	-11.0866
▁wider	-11.087
▁discovery	-11.0873
落後	-11.0878
耐	-11.0878
庫爾德	-11.0881
譴責	-11.0881
▁alien	-11.0881
▁saved	-11.0886
▁ceo	-11.0886
使命	-11.0888
技	-11.0895
scope	-11.0897
自由化	-11.0898
▁writer	-11.0901
祕	-11.0907
凍	-11.0908
▁participants	-11.0908
▁scholar	-11.0908
▁champion	-11.0908
慨	-11.0908
▁desert	-11.0908
緊迫	-11.0909
每一個人	-11.0909
漫畫	-11.0909
議程	-11.091
versus	-11.0911
▁flat	-11.0912
海外	-11.0912
▁eliminat	-11.0914
分散	-11.0916
說出	-11.0917
▁determin	-11.0922
▁injur	-11.0926
把這個	-11.0928
所有這些	-11.0929
這樣一個	-11.093
劣	-11.0935
五個	-11.0935
▁minority	-11.0935
▁humanitarian	-11.0935
▁valley	-11.0935
▁ireland	-11.0936
對外	-11.0936
同一個	-11.0939
▁customers	-11.094
平臺	-11.0944
無力	-11.0945
對中國	-11.0946
▁mr	-11.0948
想出	-11.0954
尋	-11.0954
多久	-11.0958
進去	-11.0959
高效	-11.096
挑	-11.096
▁nowadays	-11.0963
▁prosecut	-11.0963
役	-11.0963
睡眠	-11.0963
▁sorry	-11.0963
旁邊	-11.0964
修復	-11.0965
大膽	-11.0969
跟著	-11.097
▁那就	-11.097
3.	-11.0978
大多數人	-11.0978
可能導致	-11.0979
▁ultimate	-11.0979
放到	-11.098
考	-11.0985
holder	-11.0985
一定會	-11.0986
▁vietnam	-11.099
卵	-11.099
▁relief	-11.099
塵	-11.099
防禦	-11.099
掙扎	-11.099
沙漠	-11.0991
迴歸	-11.0991
環保	-11.0992
療法	-11.1001
pac	-11.1007
▁現在我	-11.1008
▁cure	-11.1014
weapon	-11.1014
拋	-11.1017
罰	-11.1018
▁challenging	-11.1018
▁fantastic	-11.1018
▁hunger	-11.1018
▁shadow	-11.1018
▁critics	-11.1018
願景	-11.1018
根源	-11.1021
▁hack	-11.1024
▁jail	-11.1026
減稅	-11.1027
明年	-11.1031
▁previously	-11.1033
證實	-11.1035
左邊	-11.1042
也應該	-11.1043
▁imagination	-11.1045
修改	-11.1047
▁1930	-11.1053
為止	-11.1054
圍繞	-11.1061
與其他	-11.1063
臨時	-11.1065
▁refer	-11.1065
▁thu	-11.1068
▁harvard	-11.1073
峰	-11.1073
強迫	-11.1074
▁contribut	-11.1075
▁economically	-11.1076
▁existence	-11.1077
導向	-11.1077
越來越多	-11.1078
創造力	-11.1079
職位	-11.1082
案件	-11.1087
不平等性	-11.1091
本地	-11.1093
騙	-11.11
▁georgia	-11.11
▁install	-11.11
▁至於	-11.1101
把自己	-11.1101
▁revis	-11.1102
▁foster	-11.1102
絕望	-11.1103
1991	-11.1103
使其	-11.1105
▁pair	-11.1108
種子	-11.1109
出售	-11.1109
▁ethical	-11.111
matic	-11.1111
▁complexity	-11.1111
都必須	-11.1114
被視爲	-11.1115
越南	-11.1117
▁tons	-11.1121
身分	-11.1124
▁urgent	-11.1125
遙	-11.1127
扎	-11.1128
▁assembly	-11.1128
放鬆	-11.113
▁brown	-11.113
帶給	-11.113
▁gradually	-11.114
份子	-11.1142
銀	-11.1147
iness	-11.1149
渡	-11.1151
豪	-11.1153
免疫	-11.1154
午	-11.1156
煤	-11.1156
鬼	-11.1156
塔利班	-11.1156
資產負債表	-11.1156
▁silence	-11.1156
▁subsequent	-11.1156
▁consciousness	-11.1156
▁retain	-11.1156
重塑	-11.1157
▁via	-11.1161
適用於	-11.1162
一個新的	-11.1164
任命	-11.1166
can	-11.1168
vy	-11.1168
▁sight	-11.1168
檢測	-11.1171
各方	-11.1174
▁classic	-11.1176
▁irre	-11.1178
伐	-11.1184
▁instruct	-11.1184
▁implies	-11.1184
漸漸	-11.1184
掌控	-11.1185
▁solid	-11.1185
▁alarm	-11.1185
cap	-11.1191
走上	-11.1193
▁compare	-11.1204
採取了	-11.1208
焦點	-11.121
▁mirror	-11.1212
▁quantum	-11.1212
▁taiwan	-11.1212
▁renew	-11.1212
▁governor	-11.1216
▁remove	-11.1217
▁refuse	-11.1217
▁neo	-11.1218
沒辦法	-11.1232
▁luck	-11.1233
內心	-11.1233
因為他們	-11.1239
麥克	-11.1239
▁restor	-11.124
極度	-11.124
▁anxiety	-11.124
▁regulators	-11.124
量化寬鬆	-11.124
▁mitigat	-11.124
模糊	-11.124
▁constraints	-11.1241
陣營	-11.1241
路徑	-11.1242
存款	-11.1242
聚集	-11.1243
在某些	-11.1248
ological	-11.1249
戰後	-11.1249
▁lucky	-11.1251
武力	-11.1253
穿著	-11.1254
▁skill	-11.1258
▁clinical	-11.1259
專注	-11.1264
召	-11.1266
▁taste	-11.1267
圖書館	-11.1268
▁berlin	-11.1268
遙遠	-11.127
召開	-11.1271
抵達	-11.1271
gy	-11.1271
半島	-11.1272
將繼續	-11.1274
鎮壓	-11.1274
▁passion	-11.1277
▁historic	-11.1279
這隻	-11.1282
33	-11.1285
ase	-11.1285
house	-11.1285
這張照片	-11.1286
一國	-11.1287
▁threatened	-11.1296
▁compound	-11.1297
▁complain	-11.1297
▁judgment	-11.1297
飢餓	-11.1297
抵抗	-11.1297
殘酷	-11.1297
▁peer	-11.1297
借款	-11.1298
▁polar	-11.1299
▁undermin	-11.1299
使用者	-11.1299
▁treasury	-11.1301
▁motor	-11.1302
偵測	-11.1305
大屠殺	-11.1305
▁naturally	-11.1308
遊行	-11.1313
字母	-11.1315
nie	-11.1316
不論	-11.132
策	-11.1322
▁extract	-11.1325
太大	-11.1326
獲勝	-11.1326
人道主義	-11.1327
蚊子	-11.1327
▁revers	-11.1329
在英國	-11.1343
此次	-11.1345
大樓	-11.1346
灣	-11.1351
definitely	-11.1353
▁ambitious	-11.1353
▁pregnan	-11.1353
▁struggling	-11.1353
洪	-11.1353
授權	-11.1354
也必須	-11.1357
濫用	-11.1358
大部份	-11.1358
▁hop	-11.136
引發了	-11.1363
ruct	-11.1364
是對的	-11.1366
動態	-11.137
傳達	-11.1372
36	-11.1375
卻沒有	-11.1378
確	-11.138
恐	-11.1381
中國人	-11.1381
▁demographic	-11.1382
膜	-11.1382
葛	-11.1382
恥	-11.1382
勇敢	-11.1382
樣本	-11.1383
公佈	-11.1384
▁stranger	-11.1386
imposed	-11.1388
standing	-11.1401
▁assess	-11.1408
吞	-11.141
腺	-11.141
騎	-11.141
炎	-11.141
▁primarily	-11.141
灌	-11.141
▁kick	-11.1411
練習	-11.1411
講話	-11.1414
▁plane	-11.1414
▁opposed	-11.1414
▁electric	-11.1414
怎麼辦	-11.1422
好好	-11.1426
粒	-11.1435
▁expenditure	-11.1439
▁legitimate	-11.1439
埃爾多安	-11.1439
▁analyz	-11.1439
長達	-11.1447
所產生的	-11.145
▁formula	-11.145
▁convention	-11.1452
▁bag	-11.1453
▁ski	-11.1459
國王	-11.1462
聖戰	-11.1467
蹤	-11.1467
▁encouraging	-11.1468
癮	-11.1468
▁decisionmaking	-11.1468
▁approaches	-11.1469
等於	-11.1471
靠近	-11.1475
▁coral	-11.1476
種類	-11.1483
▁introduce	-11.1484
acceptable	-11.1485
微小	-11.1488
充滿了	-11.1489
企	-11.149
▁surge	-11.1493
▁conducted	-11.1494
肆	-11.1497
孟加拉	-11.1497
屍	-11.1497
蔓延	-11.1497
編輯	-11.1497
▁electronic	-11.1497
復興	-11.1497
逐步	-11.1498
該如何	-11.1498
播放	-11.1502
▁merc	-11.1503
▁restrict	-11.1506
hara	-11.1511
形成了	-11.1515
讓大家	-11.1517
▁meters	-11.1523
▁normally	-11.1525
▁hyper	-11.1525
以至於	-11.1526
累積	-11.1526
失衡	-11.1526
妻子	-11.1527
▁grab	-11.1529
永遠不會	-11.1535
小說	-11.1538
父	-11.154
越多	-11.1542
我們想要	-11.1542
十二	-11.1543
efficient	-11.1547
革	-11.1551
回去	-11.1551
逆	-11.1553
▁solidarity	-11.1554
川	-11.1554
英格蘭	-11.1554
眼前	-11.1554
▁鑑於	-11.1555
奇蹟	-11.1555
拋棄	-11.1555
▁yellow	-11.1555
陽光	-11.1556
國家安全	-11.1556
▁gay	-11.1559
每天都	-11.1563
四十	-11.1565
在印度	-11.1566
無可	-11.1572
認可	-11.1572
▁demonstrated	-11.1573
扣	-11.1583
▁paradox	-11.1583
▁preced	-11.1584
▁prediction	-11.1589
好消息	-11.1589
智利	-11.159
▁clinic	-11.1593
鄉	-11.1595
鼠	-11.1611
男子	-11.162
▁hopeful	-11.1622
臟	-11.1638
遠離	-11.1638
▁shark	-11.1642
審判	-11.1642
地帶	-11.1645
農場	-11.1646
印尼	-11.1647
nazi	-11.1655
1000	-11.1661
感覺到	-11.1666
security	-11.1667
柏	-11.167
滋	-11.1671
▁encounter	-11.1671
凌	-11.1671
▁intense	-11.1671
強勁	-11.1672
▁frame	-11.1673
研究所	-11.1673
三十年	-11.1674
▁flag	-11.1675
generated	-11.1677
施加	-11.1678
▁deter	-11.1681
結婚	-11.1686
陷入了	-11.1688
日常	-11.169
開車	-11.1694
經濟危機	-11.1694
一組	-11.1696
▁continu	-11.1697
▁marginal	-11.1699
藝	-11.17
▁比方說	-11.1701
摸	-11.1701
▁brief	-11.1701
掃描	-11.1701
仇恨	-11.1701
模仿	-11.1701
緩解	-11.1703
▁grid	-11.1705
原理	-11.171
古巴	-11.171
▁investigat	-11.1712
oid	-11.1713
▁progressive	-11.1714
37	-11.1717
概	-11.172
年度	-11.1721
1995	-11.1727
羞	-11.173
▁kremlin	-11.173
▁promising	-11.173
納稅人	-11.173
庇護	-11.173
股東	-11.1733
東亞	-11.1736
工業化	-11.1742
▁blog	-11.1744
▁franc	-11.1746
鬥	-11.1748
located	-11.1753
continuing	-11.1759
▁sentiment	-11.176
▁taliban	-11.176
棋	-11.176
▁surgery	-11.1761
專注於	-11.1765
通縮	-11.177
一顆	-11.1777
候	-11.1781
即時	-11.1789
吹	-11.1789
辱	-11.1789
intensive	-11.1789
昆蟲	-11.1789
▁illness	-11.179
▁noise	-11.179
幫忙	-11.179
瑞士	-11.1791
managing	-11.1792
▁loud	-11.1792
ima	-11.1792
日漸	-11.1792
來講	-11.1807
決定要	-11.1809
可怕	-11.1811
右邊	-11.1818
爛	-11.1819
1979	-11.1819
翻譯	-11.1819
1994	-11.182
世俗	-11.182
低估	-11.1823
作者	-11.1823
教室	-11.1825
向前	-11.1826
自信	-11.183
歐洲國家	-11.1847
垂	-11.1849
新加坡	-11.1849
▁metaphor	-11.1849
婚姻	-11.1849
▁我的意思是	-11.1849
之內	-11.1849
▁priorities	-11.185
工作者	-11.185
金屬	-11.1853
▁sharply	-11.1855
oma	-11.186
▁hide	-11.1861
▁chose	-11.1869
東盟	-11.1877
▁breast	-11.1879
搶	-11.1879
耀	-11.1879
▁puzzle	-11.1879
躲	-11.1879
鼻	-11.1879
▁behave	-11.1879
▁evil	-11.1879
▁suspect	-11.188
▁bottle	-11.188
▁weird	-11.188
償還	-11.1882
comfortable	-11.1894
某人	-11.1896
▁incentive	-11.1899
法治	-11.19
▁whenever	-11.1902
哲學	-11.1906
空中	-11.1908
▁admit	-11.1908
黏	-11.1909
滾	-11.1909
▁horizon	-11.1909
▁sophisticated	-11.1909
▁tomorrow	-11.1909
▁distort	-11.1909
乾淨	-11.1909
ibility	-11.1909
▁robert	-11.191
integrated	-11.192
再生	-11.1923
wearing	-11.1928
仁	-11.1939
+	-11.1939
豬	-11.1939
▁garden	-11.1939
臺灣	-11.194
幸	-11.1949
▁lifetime	-11.1951
▁inevitab	-11.1966
iphone	-11.1968
販	-11.1969
▁suicide	-11.1969
▁supreme	-11.1969
▁client	-11.1969
▁tumor	-11.1971
角落	-11.1973
天氣	-11.1973
▁shop	-11.1974
感知	-11.1975
是否能	-11.1977
身處	-11.1977
貨幣聯盟	-11.1978
特質	-11.1981
極其	-11.199
▁bud	-11.1991
符	-11.1994
責	-11.1994
是否會	-11.1997
區分	-11.1998
曉	-11.2
茶	-11.2
卓	-11.2
主宰	-11.2
▁chile	-11.2
寶寶	-11.2001
創立	-11.2002
–	-11.2004
2016	-11.2008
其他地區	-11.2009
極端主義	-11.2013
iff	-11.2015
會議上	-11.2019
艱	-11.2021
valuation	-11.2022
▁marri	-11.2024
殺害	-11.2028
▁criticism	-11.203
▁hidden	-11.203
▁volunteer	-11.203
輕易	-11.2031
祖先	-11.2031
漫長	-11.2034
direct	-11.2036
▁producers	-11.2038
▁preserve	-11.2039
▁handle	-11.204
無關	-11.2044
腦中	-11.2045
▁cow	-11.2046
車子	-11.2051
噢	-11.206
縫	-11.206
▁horse	-11.2061
尋常	-11.2061
▁addict	-11.2062
▁pig	-11.2063
▁assessment	-11.2064
死亡率	-11.2069
不良	-11.2073
恰	-11.2079
英文	-11.208
保護主義	-11.2083
關稅	-11.209
成千上萬	-11.2091
腸	-11.2091
▁procedure	-11.2091
壟斷	-11.2091
▁bailout	-11.2092
▁replaced	-11.2092
反覆	-11.2093
▁somewhat	-11.2095
這個想法	-11.2097
餐廳	-11.2097
名義	-11.21
野心	-11.2101
看到的是	-11.2101
爆	-11.2109
不足以	-11.211
炸彈	-11.211
美洲	-11.2118
鬆	-11.2119
賞	-11.2122
▁kilometers	-11.2122
格魯吉亞	-11.2122
紋	-11.2122
陪	-11.2122
弊	-11.2122
▁visible	-11.2122
綜合	-11.2122
演奏	-11.2122
▁toxic	-11.2122
創建	-11.2124
臉書	-11.2126
▁bang	-11.2127
地面	-11.2127
▁trap	-11.2129
有益	-11.2131
uit	-11.2136
▁programm	-11.2139
負責任	-11.2145
▁prepar	-11.2147
在今年	-11.2148
▁colombia	-11.2153
▁extremist	-11.2153
▁intelligent	-11.2153
戲劇	-11.2153
▁rebel	-11.2154
▁emphasize	-11.2154
成績	-11.2154
▁winning	-11.2155
交談	-11.2159
▁label	-11.216
洲	-11.217
▁geo	-11.2175
數十億	-11.2178
名叫	-11.2179
工會	-11.2179
旋	-11.2182
尼日利亞	-11.2183
胸	-11.2183
蘇格蘭	-11.2183
▁brilliant	-11.2183
▁erdoğan	-11.2183
▁invisible	-11.2183
▁occupation	-11.2183
▁restaurant	-11.2183
▁studied	-11.2183
▁pledge	-11.2183
▁shrink	-11.2183
考驗	-11.2183
▁shame	-11.2186
▁pool	-11.2187
經濟政策	-11.2193
首要	-11.2195
融	-11.2199
▁rebuild	-11.2209
教學	-11.221
▁measured	-11.2211
憲	-11.2212
▁transparent	-11.2214
▁tackle	-11.2214
火箭	-11.2215
人羣	-11.2216
▁season	-11.2219
這個故事	-11.222
逃離	-11.2229
▁execut	-11.2243
逼	-11.2245
▁acquire	-11.2245
描繪	-11.2245
能看到	-11.2254
金融體系	-11.2255
排名	-11.2259
2004	-11.226
天空	-11.2266
▁drawn	-11.2266
▁properly	-11.2268
偏好	-11.2271
有效地	-11.2273
做好	-11.2274
▁recruit	-11.2277
盜	-11.2277
▁誠然	-11.2277
趣	-11.2284
北極	-11.2284
大蕭條	-11.2285
▁比如說	-11.2289
檢	-11.229
泰國	-11.2292
深深	-11.2301
▁corrupt	-11.2303
出色	-11.2305
law	-11.2307
俗	-11.2307
不公平	-11.2307
繁	-11.2307
輩	-11.2308
▁plenty	-11.2308
▁restructuring	-11.2308
伏	-11.2308
拔	-11.2308
欲	-11.2308
▁credible	-11.2308
喫	-11.2308
枝	-11.2308
渠道	-11.2308
▁於是我	-11.2308
▁revolutionary	-11.2315
稍微	-11.2316
預見	-11.2331
韓	-11.2332
▁collection	-11.2335
奏	-11.2338
▁mathematics	-11.2339
▁mosquito	-11.2339
▁sweden	-11.2339
聆聽	-11.2339
尊嚴	-11.2339
▁angry	-11.2339
疲軟	-11.2339
擅長	-11.234
▁tea	-11.234
▁modest	-11.2341
廣場	-11.2345
▁mc	-11.2348
itude	-11.2351
▁fake	-11.2352
1980	-11.2358
售	-11.2359
▁risky	-11.2368
▁consequence	-11.2369
另外一個	-11.237
墨	-11.2371
▁february	-11.2371
▁flexible	-11.2371
▁twentieth	-11.2371
▁snow	-11.2371
剝奪	-11.2371
燃燒	-11.2371
▁lung	-11.2371
暗示	-11.2372
減速	-11.2372
爲此	-11.2372
▁statistic	-11.2373
▁awareness	-11.2373
▁outbreak	-11.2376
解讀	-11.2377
▁transportation	-11.2377
▁rating	-11.2382
▁collaboration	-11.2383
不太可能	-11.2385
promised	-11.2385
勞工	-11.2388
[	-11.2389
verse	-11.2393
可見	-11.2396
軍方	-11.2396
靈感	-11.2397
誕	-11.2399
宏	-11.24
虎	-11.2402
證券	-11.2402
▁grave	-11.2403
▁rush	-11.2404
專制	-11.2405
情境	-11.2406
延長	-11.241
幾乎所有	-11.2411
不應	-11.2415
▁integrat	-11.2416
多樣化	-11.2418
pon	-11.2426
辯	-11.2432
3⁄4	-11.2434
▁jordan	-11.2434
到目前爲止	-11.2434
瑟	-11.2434
▁proceed	-11.2434
自主	-11.2434
競賽	-11.2434
補充	-11.2434
飽受	-11.2435
份額	-11.2444
▁speaker	-11.2448
served	-11.2457
怕	-11.2457
有超過	-11.2459
▁initially	-11.2461
階	-11.2463
#	-11.2464
姓	-11.2466
槓桿	-11.2466
▁explicit	-11.2466
▁nervous	-11.2466
▁sarkozy	-11.2466
▁voting	-11.2466
▁假如	-11.2466
▁norms	-11.2467
手臂	-11.2467
▁reasonable	-11.2467
▁richard	-11.2469
風暴	-11.247
反抗	-11.2471
▁pole	-11.2473
自願	-11.2475
受傷	-11.2477
▁yu	-11.2486
湧	-11.2496
▁magazine	-11.2497
▁unexpected	-11.2497
基督教	-11.2497
▁winner	-11.25
▁assad	-11.2501
這個詞	-11.2501
之類的	-11.2502
基地	-11.2504
反過來	-11.251
主意	-11.2513
wide	-11.2516
開展	-11.2525
時機	-11.2525
瘋	-11.2528
生活方式	-11.2528
填	-11.2529
慣	-11.2529
á	-11.2529
▁contradict	-11.2529
▁dinner	-11.2529
指揮	-11.253
▁cuba	-11.253
▁chaos	-11.2532
▁celebrat	-11.2533
▁truck	-11.2534
ika	-11.2539
天然	-11.2542
▁proper	-11.2545
▁invited	-11.2547
▁persist	-11.2548
▁restriction	-11.2551
阿拉伯世界	-11.2553
抑	-11.2561
塗	-11.2561
▁surveillance	-11.2561
▁yemen	-11.2561
愚蠢	-11.2561
顛覆	-11.2561
抵押	-11.2561
做的是	-11.2564
▁permit	-11.2566
面向	-11.2567
教師	-11.2567
諸如	-11.2568
清單	-11.2569
要花	-11.2571
部署	-11.2575
緣	-11.2586
剩	-11.2587
▁decisive	-11.2594
劍橋	-11.2594
▁affordable	-11.2601
傾向於	-11.2602
絕非	-11.2602
更具	-11.2607
教徒	-11.2613
萬美元	-11.2615
▁bull	-11.2616
生意	-11.2618
31	-11.2619
同情	-11.2621
甜	-11.2626
▁minimum	-11.2626
氫	-11.2626
▁requirements	-11.2626
▁plus	-11.2626
▁capabilities	-11.2626
傾聽	-11.2628
▁metal	-11.2635
迫	-11.2635
得知	-11.2636
▁shortage	-11.2638
▁frequently	-11.2638
▁exact	-11.2642
幾乎沒有	-11.2643
署	-11.2644
▁這裡有	-11.2644
yard	-11.2645
好奇	-11.2647
順利	-11.2651
琴	-11.2658
▁convict	-11.2658
▁prohibit	-11.2658
▁accompani	-11.2658
罷	-11.2658
▁numer	-11.2658
捕捉	-11.2658
抱怨	-11.2658
約旦	-11.2659
谷歌	-11.2659
▁classes	-11.2659
考量	-11.2661
品牌	-11.2663
件事情	-11.2664
下滑	-11.2665
隨之	-11.2679
主動	-11.2679
萬個	-11.2683
▁younger	-11.2686
2003	-11.2686
喪	-11.269
▁expense	-11.2691
▁jihad	-11.2691
▁spanish	-11.2691
▁stimulate	-11.2691
▁turkish	-11.2691
看不見	-11.2691
▁repeatedly	-11.2691
▁feedback	-11.2691
沉默	-11.2692
環境下	-11.2696
最後一個	-11.27
一個例子	-11.2704
▁curve	-11.2709
研	-11.2715
罪行	-11.2721
遞	-11.2722
▁quantitative	-11.2723
▁resilience	-11.2723
陌生人	-11.2723
▁april	-11.2723
生理	-11.2723
▁isolation	-11.2729
否決	-11.2732
弱勢	-11.2734
風格	-11.2737
▁usual	-11.2739
交給	-11.2742
政變	-11.2747
▁appreciate	-11.2748
▁plann	-11.2748
▁prior	-11.2753
光線	-11.2753
共產黨	-11.2756
占	-11.2756
▁consult	-11.2756
輕鬆	-11.2756
教堂	-11.2758
這張圖	-11.2763
女子	-11.2763
輸入	-11.2763
new	-11.2769
所看到的	-11.2771
▁consideration	-11.2781
通訊	-11.2788
戒	-11.2789
撥	-11.2789
▁cognitive	-11.2789
▁confident	-11.2789
▁dominant	-11.2789
▁illusion	-11.2789
晨	-11.2789
嚴厲	-11.2789
干涉	-11.2789
延續	-11.2789
▁strict	-11.2789
積累	-11.2789
120	-11.279
▁elder	-11.2791
推廣	-11.2792
腦袋	-11.2795
源自	-11.2797
已經成爲	-11.2798
digit	-11.2799
▁milk	-11.2809
殺死	-11.2815
很高興	-11.2817
演員	-11.2819
▁prosper	-11.2819
池	-11.282
▁struck	-11.2822
▁unsustainable	-11.2822
鋪	-11.2822
喚	-11.2822
▁securities	-11.2822
蘇丹	-11.2822
▁tear	-11.2825
倫理	-11.2832
▁rio	-11.2832
助長	-11.2834
有興趣	-11.2836
oon	-11.2841
相機	-11.2843
world	-11.2852
赤	-11.2854
駕	-11.2854
癱瘓	-11.2855
菲律賓	-11.2855
(	-11.2855
▁reputation	-11.2855
▁request	-11.2855
▁stretch	-11.2855
逮捕	-11.2855
▁nowhere	-11.2855
容忍	-11.2855
▁repair	-11.2855
中東地區	-11.2855
單純	-11.2856
有害	-11.2857
▁simultaneously	-11.2858
對立	-11.286
▁victim	-11.2863
意圖	-11.2871
地震	-11.2871
峯	-11.2871
▁meat	-11.2872
▁assum	-11.2878
讓它們	-11.2883
▁quote	-11.2884
▁removed	-11.2885
孫	-11.2888
繩	-11.2888
投資於	-11.2888
▁tank	-11.2889
▁split	-11.289
了不起的	-11.289
▁liberalization	-11.2891
意義上	-11.2892
穿過	-11.2892
▁$3	-11.2895
▁string	-11.2897
忘了	-11.29
盟	-11.2904
計算機	-11.2905
38	-11.2905
▁negotiate	-11.291
富人	-11.2916
豐	-11.292
疲	-11.2921
▁attribut	-11.2921
▁gravity	-11.2921
▁psychological	-11.2921
煤炭	-11.2921
▁branch	-11.2921
討厭	-11.2921
飲食	-11.2921
理事會	-11.2922
▁flee	-11.2922
侵犯	-11.2922
公尺	-11.2922
何種	-11.2924
喜愛	-11.2925
投機	-11.2928
觀看	-11.2928
急需	-11.293
▁combine	-11.293
大衛	-11.2935
底下	-11.2936
河流	-11.2937
論點	-11.2938
布什政府	-11.2943
銳	-11.2954
▁inadequate	-11.2954
▁possess	-11.2954
醉	-11.2954
鹽	-11.2954
▁ideological	-11.2954
▁cup	-11.2955
契約	-11.2955
告訴各位	-11.2959
轉移到	-11.2962
外界	-11.2963
管道	-11.2965
更低	-11.2965
全球金融危機	-11.2981
大聲	-11.2984
還記得	-11.2987
▁greenhouse	-11.2988
喊	-11.2988
嘿	-11.2988
▁navigat	-11.2988
能做到	-11.2989
啟發	-11.299
55	-11.2993
一點點	-11.2997
▁observers	-11.3005
演變	-11.3008
總量	-11.301
這座	-11.3018
望遠鏡	-11.3021
▁fragile	-11.3021
▁territorial	-11.3021
infected	-11.3021
1992	-11.3021
▁club	-11.3021
抵消	-11.3022
成分	-11.3023
先前	-11.3023
▁thin	-11.3024
沃爾	-11.3026
▁commit	-11.3029
敏	-11.303
▁accelerate	-11.3034
▁ride	-11.3038
律	-11.3041
精力	-11.3043
是正確的	-11.3044
▁brave	-11.3046
分佈	-11.3049
▁semi	-11.3051
▁hire	-11.3052
第一步	-11.3052
忍	-11.3052
▁arise	-11.3053
▁breakthrough	-11.3055
▁palestine	-11.3055
▁parallel	-11.3055
▁vladimir	-11.3055
餵	-11.3055
▁folks	-11.3055
▁fragment	-11.3055
▁routine	-11.3055
▁inject	-11.3055
更不用說	-11.3055
丈夫	-11.3055
定律	-11.3057
隱私	-11.3057
也同樣	-11.3057
街道	-11.3058
還有其他	-11.3063
▁momentum	-11.3064
監管者	-11.3065
1945	-11.3071
▁droppe	-11.3072
▁dry	-11.3077
▁devastating	-11.3081
自由主義	-11.3082
在很大程度上	-11.3084
宜	-11.3088
飲	-11.3088
泛	-11.3088
▁appreciation	-11.3089
▁approve	-11.3089
▁reluctan	-11.3089
▁singapore	-11.3089
哦	-11.3089
▁memories	-11.3089
煽動	-11.3089
▁orbit	-11.309
充足	-11.309
多元	-11.3103
▁recep	-11.3106
椅	-11.3119
一直都	-11.3122
惑	-11.3122
憂	-11.3122
鑑	-11.3122
慶祝	-11.3123
虐待	-11.3123
▁title	-11.3124
▁curious	-11.3124
一百萬	-11.3126
分類	-11.3131
服務業	-11.3131
十年前	-11.3136
▁frustrat	-11.3142
▁coup	-11.3146
list	-11.3152
援	-11.3155
討	-11.3155
污	-11.3156
湖	-11.3157
誓	-11.3157
嚴峻	-11.3157
松	-11.3157
脊	-11.3157
▁identified	-11.3157
▁steel	-11.3157
▁simulat	-11.3157
word	-11.3159
驚奇	-11.3159
34	-11.3161
經理	-11.3164
協	-11.3169
事故	-11.3173
就好像	-11.3185
三種	-11.3187
可再生能源	-11.3191
▁pharmaceutical	-11.3191
簡直	-11.3193
相對於	-11.3193
流程	-11.3194
跨越	-11.3196
做的事情	-11.3197
更少	-11.3201
metric	-11.3202
剛好	-11.3211
前任	-11.3216
險	-11.3222
旋轉	-11.3223
須	-11.3225
覽	-11.3225
柔	-11.3225
▁pocket	-11.3225
默克爾	-11.3225
滴	-11.3225
▁conservation	-11.3227
▁unknown	-11.3227
悲觀	-11.3228
幾十年來	-11.3229
總結	-11.3231
超出	-11.3235
▁comfort	-11.3237
南方	-11.3239
▁hub	-11.324
起作用	-11.3244
普及	-11.3244
街上	-11.3249
這兩種	-11.325
煩	-11.3255
陷阱	-11.3259
頻率	-11.3261
▁loose	-11.3262
greg	-11.3262
▁evolutionary	-11.3262
建構	-11.3267
▁theater	-11.327
▁以便	-11.3272
曲線	-11.3278
始於	-11.328
家長	-11.328
膽	-11.3286
經濟復甦	-11.3287
▁vice	-11.3292
躍	-11.3293
弟	-11.3294
▁distinguish	-11.3294
芝加哥	-11.3294
年紀	-11.3295
盒子	-11.3296
情景	-11.3297
比喻	-11.3298
識別	-11.3298
聽說	-11.33
fish	-11.3305
quarter	-11.3306
引用	-11.3309
▁organic	-11.3313
新技術	-11.3317
▁facilities	-11.3328
▁tunisia	-11.3328
井	-11.3328
膨脹	-11.3328
▁nurse	-11.3328
獎勵	-11.3328
▁emergence	-11.3329
黑洞	-11.333
幻想	-11.333
誠實	-11.3331
▁accountability	-11.3331
▁tpp	-11.3332
▁observation	-11.3337
國債	-11.3339
▁就連	-11.334
▁stance	-11.3344
更好地	-11.3345
必需	-11.335
▁careful	-11.3351
born	-11.3356
漫	-11.3357
西方國家	-11.336
串	-11.3363
泉	-11.3363
▁discrimination	-11.3363
▁suppress	-11.3363
▁unusual	-11.3363
文學	-11.3364
▁prepare	-11.3372
星系	-11.3372
北方	-11.3374
擔保	-11.3379
那邊	-11.3392
呆	-11.3398
▁length	-11.3398
▁possibilities	-11.3398
▁align	-11.3398
干擾	-11.3398
憂慮	-11.3398
標籤	-11.3398
靈魂	-11.3398
挪威	-11.3398
▁smile	-11.3398
白宮	-11.3399
動員	-11.3401
▁aspects	-11.3403
▁weigh	-11.3405
▁offset	-11.3406
▁proven	-11.3421
本質上	-11.3424
▁enforce	-11.343
閉	-11.3431
娛樂	-11.3433
▁amazon	-11.3433
▁imperative	-11.3433
▁workforce	-11.3433
哇	-11.3433
殼	-11.3433
葡萄牙	-11.3433
▁retail	-11.3433
tariff	-11.3433
欺騙	-11.3433
恰恰	-11.3434
▁factory	-11.3435
預算赤字	-11.3435
找不到	-11.3436
▁deny	-11.3448
促成	-11.3464
忠	-11.3468
▁enemy	-11.3468
▁intervene	-11.3468
▁erupt	-11.3468
drive	-11.3472
95	-11.3473
特權	-11.3475
ough	-11.3477
sector	-11.3484
塑造	-11.3486
日常生活	-11.3494
財產	-11.3497
法則	-11.3502
僱	-11.3502
適用	-11.3503
▁grandmother	-11.3503
‘	-11.3503
▁dismiss	-11.3503
▁fiction	-11.3503
后	-11.3503
酵	-11.3503
▁sphere	-11.3503
擁抱	-11.3504
這本書	-11.3504
扭轉	-11.3504
也因此	-11.3504
▁asean	-11.3504
▁funny	-11.3505
密碼	-11.3505
季度	-11.3507
▁enact	-11.3509
▁evaluat	-11.3513
▁chip	-11.3516
發言	-11.3518
用途	-11.3519
流感	-11.3522
▁invention	-11.3528
未知	-11.3529
▁motivation	-11.353
剛才	-11.3535
欺	-11.3538
賦	-11.3539
閒	-11.3539
疏	-11.3539
▁equation	-11.3539
冬	-11.3539
溢	-11.3539
蟻	-11.3539
逝	-11.3539
邪惡	-11.3539
測驗	-11.3539
僵局	-11.3539
傳染病	-11.354
▁cro	-11.354
碰到	-11.3542
▁assist	-11.3545
告訴他們	-11.3546
▁etc	-11.3546
億歐元	-11.3551
獨裁者	-11.3558
▁你可能會	-11.3558
▁accord	-11.3562
發達	-11.3564
艘	-11.3574
君	-11.3574
惱	-11.3574
稱之爲	-11.3574
正如	-11.3574
布朗	-11.3576
舉辦	-11.3577
建築師	-11.3577
過剩	-11.3579
帶領	-11.3587
北美	-11.3588
再度	-11.3589
&#	-11.3591
歐盟成員國	-11.3596
圖表	-11.3598
最早	-11.3599
▁homo	-11.3603
短暫	-11.3605
籍	-11.3609
有足夠的	-11.3609
▁coordination	-11.361
▁eradicat	-11.361
▁phrase	-11.361
▁plot	-11.361
填補	-11.361
寬鬆	-11.361
周邊	-11.3612
看起來像	-11.3613
▁這些都是	-11.3616
▁upper	-11.3621
▁dar	-11.3623
玩具	-11.3625
liberal	-11.363
▁investigation	-11.3632
44	-11.3635
得不到	-11.3637
聽見	-11.3641
▁initiat	-11.3643
欣	-11.3645
▁aspiration	-11.3645
▁condemn	-11.3645
▁constitute	-11.3645
巴沙爾	-11.3645
驕傲	-11.3645
▁ideology	-11.3645
▁telescope	-11.3645
麵包	-11.3646
▁instant	-11.3646
困惑	-11.3646
▁mainstream	-11.3647
▁calm	-11.3648
長期以來	-11.3655
作業	-11.3655
其自身	-11.3656
▁anticipat	-11.3658
▁drought	-11.3659
▁rob	-11.3666
包容性	-11.3669
抵	-11.3676
▁bann	-11.3679
balancing	-11.3681
▁ebola	-11.3681
克里姆林宮	-11.3681
▁invasion	-11.3681
宿	-11.3681
憐	-11.3681
▁mood	-11.3681
目睹	-11.3681
▁analog	-11.3681
領先	-11.3687
重量	-11.3691
▁evolve	-11.3693
forcing	-11.3693
▁rocket	-11.3694
▁demonstration	-11.3696
手指	-11.3697
學位	-11.37
fewer	-11.3713
謊	-11.3716
縱	-11.3717
倖	-11.3717
▁expertise	-11.3717
匈牙利	-11.3717
回憶	-11.3717
▁roof	-11.3719
▁loop	-11.3722
▁withdrawal	-11.3724
卡爾	-11.3727
▁implementation	-11.373
應付	-11.3734
更重要	-11.3734
在這裏	-11.3735
物價	-11.3746
辨	-11.3747
霸	-11.3751
秀	-11.3753
琳	-11.3753
▁bangladesh	-11.3753
▁mortality	-11.3753
▁privacy	-11.3753
裸	-11.3753
▁james	-11.3753
誘惑	-11.3753
儀式	-11.3755
保守派	-11.3757
夥伴關係	-11.3757
一整	-11.3774
▁pakistani	-11.3776
傾	-11.3783
償	-11.3785
穿越	-11.3788
破壞性	-11.3788
究	-11.3789
chemistry	-11.3789
▁dignity	-11.3789
▁dioxide	-11.3789
洛杉磯	-11.3789
▁bread	-11.379
補償	-11.379
只不過是	-11.379
侵略	-11.379
懷孕	-11.379
▁dictatorship	-11.379
保存	-11.3798
反映出	-11.3798
一堆	-11.3803
▁recogniz	-11.3805
放進	-11.3806
tax	-11.3809
去找	-11.3818
過去十年	-11.3819
銀行家	-11.3819
購	-11.3822
更糟	-11.3825
▁mathematical	-11.3826
▁atlantic	-11.3826
▁disturb	-11.3826
淺	-11.3826
臨床	-11.3827
訴訟	-11.3827
急劇	-11.3827
遺產	-11.3828
估算	-11.3828
神聖	-11.3829
▁acid	-11.3829
沉重	-11.3833
▁flower	-11.3835
▁mega	-11.3837
海軍	-11.3847
▁concentration	-11.3848
祖	-11.3852
▁facilitate	-11.3853
▁robotic	-11.3853
抬	-11.3862
▁abstract	-11.3862
▁tragedy	-11.3862
亨	-11.3862
1993	-11.3862
▁microbes	-11.3862
▁compris	-11.3862
零售	-11.3863
▁continuous	-11.3864
▁exchangerate	-11.3865
樹木	-11.3865
黑色	-11.3867
主權債務	-11.3868
頭髮	-11.3868
不久前	-11.3869
協會	-11.3879
起源	-11.3884
定位	-11.3885
心臟病	-11.3891
當成	-11.3892
綁	-11.3899
▁manifest	-11.3899
▁nutrition	-11.3899
▁ownership	-11.3899
▁click	-11.3899
黑猩猩	-11.3899
旅遊	-11.3899
恐龍	-11.3899
▁strain	-11.39
翼	-11.3901
幹細胞	-11.3902
刑事	-11.3905
產能	-11.3908
清楚地	-11.3908
戰勝	-11.3912
▁tower	-11.3917
▁expert	-11.393
▁brussels	-11.3936
▁obtain	-11.3936
摺	-11.3936
詳細	-11.3936
▁reference	-11.3937
設置	-11.3938
唯	-11.3944
恰當	-11.3947
lib	-11.3948
之間的關係	-11.3953
特點	-11.3962
不止	-11.3963
▁shia	-11.3963
擋	-11.3972
決議	-11.3973
▁dilemma	-11.3973
扶	-11.3973
爐	-11.3973
鷹	-11.3973
▁inherent	-11.3973
▁empty	-11.3973
▁recall	-11.3974
▁strip	-11.3975
壓倒	-11.3977
▁poem	-11.3977
帝	-11.3981
▁characteriz	-11.3984
▁concluded	-11.3996
加快	-11.4
▁tip	-11.4006
▁measur	-11.4006
鍵	-11.4007
▁exhibit	-11.401
▁inspiration	-11.401
▁vessel	-11.401
▁wound	-11.401
棉	-11.401
韋	-11.401
繼承	-11.401
企圖	-11.4015
wan	-11.4022
▁render	-11.4023
這一觀點	-11.4031
對付	-11.4032
▁electrical	-11.4038
地方政府	-11.404
水資源	-11.4042
▁celebrate	-11.4043
姐	-11.4047
▁decrease	-11.4047
▁exposure	-11.4047
▁michael	-11.4047
奔	-11.4047
▁lunch	-11.4047
瞬間	-11.4047
贊助	-11.4047
肯尼亞	-11.4047
經典	-11.4048
▁drone	-11.405
盈利	-11.4053
▁polit	-11.4054
石頭	-11.4063
通往	-11.4066
▁joke	-11.4075
畏	-11.4084
▁declaration	-11.4084
竊	-11.4084
腹	-11.4084
▁oecd	-11.4084
灘	-11.4084
▁spectrum	-11.4084
▁sweet	-11.4084
▁senate	-11.4084
榜樣	-11.4084
藉口	-11.4086
這筆	-11.4091
弱點	-11.4097
▁ease	-11.4098
角度看	-11.4102
啟動	-11.4106
句話	-11.4115
▁interpret	-11.4117
keep	-11.4119
攝	-11.4121
屈	-11.4121
▁philosophy	-11.4122
▁smooth	-11.4122
▁exclusive	-11.4122
肝	-11.4122
appointed	-11.4122
▁pump	-11.4122
▁spill	-11.4122
▁whale	-11.4122
留給	-11.4125
起訴	-11.413
▁panic	-11.4132
名單	-11.4138
大衆	-11.4144
▁tall	-11.4154
fund	-11.4154
統治者	-11.4157
押	-11.4159
▁extinct	-11.4159
▁persuade	-11.4159
兇	-11.4159
獸	-11.4159
自閉症	-11.4159
純粹	-11.4159
遵循	-11.4159
壁壘	-11.4159
▁dedicat	-11.4159
公眾	-11.4162
製造出	-11.4163
▁leap	-11.4165
彈性	-11.418
▁carrie	-11.4185
樣子	-11.4191
▁justify	-11.4196
▁chicago	-11.4197
▁comparison	-11.4197
幽	-11.4197
蒸	-11.4197
▁cartoon	-11.4197
▁chancellor	-11.4197
葬	-11.4197
蜜蜂	-11.4197
頻繁	-11.4197
恐怖襲擊	-11.4198
▁transmit	-11.4198
▁retirement	-11.4199
強勢	-11.4206
被稱為	-11.4207
▁realistic	-11.4211
country	-11.4232
體育	-11.4234
平方	-11.4234
仇	-11.4235
盯	-11.4235
▁deliberate	-11.4235
▁football	-11.4235
▁reconstruct	-11.4235
三分之二	-11.4235
布魯塞爾	-11.4235
在某種程度上	-11.4235
▁distant	-11.4235
▁smoke	-11.4235
aids	-11.4235
▁adverse	-11.4235
製藥	-11.4237
氧氣	-11.4237
航空	-11.4238
▁fur	-11.424
高速	-11.4244
丹麥	-11.4246
機場	-11.4251
▁organize	-11.4252
竟	-11.4256
大麻	-11.4259
▁trauma	-11.4264
氣體	-11.4266
▁happi	-11.4271
磨	-11.4273
▁empathy	-11.4273
▁簡言之	-11.4273
庸	-11.4273
囚犯	-11.4273
折磨	-11.4273
厭惡	-11.4273
社交媒體	-11.4274
財政部長	-11.4276
▁rent	-11.4277
▁merit	-11.4277
提案	-11.4278
42	-11.4285
▁halt	-11.4285
▁conclude	-11.4287
金融穩定	-11.4289
主持	-11.4292
診所	-11.4292
兌現	-11.4294
經歷過	-11.43
skilled	-11.4308
dominate	-11.431
顯示出	-11.431
漠	-11.431
珊瑚	-11.4311
▁jews	-11.4311
▁sacrifice	-11.4311
紛紛	-11.4311
疼痛	-11.4311
哲學家	-11.4315
▁native	-11.4315
發生的事	-11.4318
▁manner	-11.4318
還有很多	-11.4319
瞭	-11.4319
意志	-11.4319
中國領導人	-11.432
命名	-11.4323
▁raw	-11.4344
▁circuit	-11.4349
▁optimistic	-11.4349
經合組織	-11.4349
▁concert	-11.4349
▁exclud	-11.4349
勤	-11.4349
▁congressional	-11.4349
四分之一	-11.4351
辨識	-11.4354
攝影機	-11.4357
口號	-11.4357
讀者	-11.4359
熱愛	-11.4361
▁loan	-11.4366
lessness	-11.4369
▁ethic	-11.4374
蕭條	-11.4377
儀	-11.4385
膀	-11.4388
▁library	-11.4388
痕	-11.4388
磅	-11.4388
▁airplane	-11.4388
臣	-11.4388
哥本哈根	-11.4388
▁sudan	-11.4388
▁incident	-11.4388
村莊	-11.4388
羣衆	-11.4388
▁bow	-11.4389
▁persistent	-11.439
基地組織	-11.439
收縮	-11.4391
▁replica	-11.4391
禮物	-11.4392
▁hotel	-11.4394
▁selection	-11.4396
▁jack	-11.4396
▁effectiveness	-11.4398
那位	-11.4399
層次	-11.4403
昂	-11.4416
治癒	-11.4418
view	-11.4422
這也是	-11.4425
▁accommodat	-11.4426
▁elephant	-11.4426
▁olympic	-11.4426
▁twentyfirst	-11.4426
亞馬遜	-11.4426
珠	-11.4426
▁silent	-11.4426
輻射	-11.4426
瓜	-11.4426
危害	-11.4427
是錯誤的	-11.4429
回顧	-11.4431
植	-11.4432
▁inspire	-11.4441
數目	-11.4441
做些什麼	-11.4442
密度	-11.4447
解體	-11.4449
領導力	-11.445
掌權	-11.4452
頭腦	-11.4453
▁withdraw	-11.4458
複	-11.4462
徹	-11.4464
慶	-11.4465
賜	-11.4465
▁inherit	-11.4465
英尺	-11.4466
▁informal	-11.4466
儀器	-11.4466
忍受	-11.4467
▁margin	-11.4468
表情	-11.4472
之際	-11.4472
下一代	-11.4479
研究人員	-11.448
高興	-11.4481
揮	-11.4487
position	-11.4489
▁steve	-11.4491
第五	-11.4492
方便	-11.4496
屠殺	-11.4497
世界各國	-11.4497
informed	-11.4499
▁copenhagen	-11.4504
▁flexibility	-11.4504
▁impressive	-11.4504
▁fraction	-11.4504
撫	-11.4504
▁excuse	-11.4504
▁royal	-11.4504
的機率	-11.4505
糾正	-11.4508
最棒的	-11.4508
debt	-11.4512
bound	-11.4515
flies	-11.4517
壓迫	-11.4524
▁nano	-11.4525
▁hill	-11.4527
心靈	-11.453
friendly	-11.4533
mail	-11.454
蛛	-11.4543
▁earthquake	-11.4543
▁immense	-11.4543
剖	-11.4543
▁displaced	-11.4543
彎	-11.4543
拘	-11.4543
禮拜	-11.4544
節奏	-11.4544
景象	-11.4545
死刑	-11.4546
公共衛生	-11.4547
▁gates	-11.4553
三倍	-11.4557
64	-11.4562
生育	-11.4566
一句	-11.4569
wealthy	-11.4579
廣播	-11.458
擾	-11.4582
添	-11.4582
▁correspond	-11.4582
▁district	-11.4582
▁protocol	-11.4582
▁radiation	-11.4582
真主黨	-11.4582
▁imperial	-11.4582
英鎊	-11.4582
▁geographic	-11.4582
▁stagnation	-11.4584
目光	-11.4613
第二次	-11.4618
捷	-11.4619
掩	-11.4621
生氣	-11.4621
▁medication	-11.4622
難以置信	-11.4622
捐贈	-11.4622
肥胖	-11.4622
挽救	-11.4622
▁非常感謝	-11.4622
turn	-11.4622
祕密	-11.4623
罕見	-11.4623
完善	-11.4624
農夫	-11.4625
▁emotion	-11.4626
淪爲	-11.4628
▁winter	-11.463
▁shake	-11.463
兌	-11.4639
%	-11.464
oriented	-11.4642
▁burst	-11.4643
▁representation	-11.4646
根本沒有	-11.4654
colonial	-11.4658
貸	-11.4659
▁therapy	-11.4661
櫃	-11.4661
▁monkey	-11.4661
▁unilateral	-11.4661
垮	-11.4661
詐	-11.4661
各式各樣	-11.4661
棘手	-11.4662
▁devote	-11.4662
舞臺	-11.4663
▁cameron	-11.4668
市長	-11.4668
trapped	-11.468
遊說	-11.4689
房屋	-11.4691
平常	-11.4694
潔	-11.47
募	-11.4701
昨	-11.4701
佐	-11.4701
內塔尼亞胡	-11.4701
▁destabiliz	-11.4701
▁silicon	-11.4701
▁generous	-11.4701
駁	-11.4701
址	-11.4701
▁tragic	-11.4701
評級	-11.4702
可持續性	-11.4707
今後	-11.4708
並非如此	-11.4714
sky	-11.4718
種種	-11.4725
指的是	-11.4725
壓制	-11.4734
科索沃	-11.4741
▁engaging	-11.4741
▁striking	-11.4741
網際網路	-11.4741
餅	-11.4741
▁charles	-11.4741
海嘯	-11.4741
▁contest	-11.4741
▁elevat	-11.4741
劇烈	-11.4742
短短	-11.4744
▁urge	-11.4744
詢問	-11.4744
透明度	-11.4745
▁successor	-11.475
health	-11.4755
▁file	-11.4755
運動員	-11.4755
分解	-11.4767
▁自從	-11.4768
▁tendenc	-11.4769
較少	-11.4769
生活水平	-11.4772
儘	-11.4775
陽	-11.4777
爸	-11.4781
突尼斯	-11.4781
糖尿病	-11.4781
▁anniversar	-11.4781
▁chicken	-11.4781
▁province	-11.4781
截然不同	-11.4781
▁depth	-11.4781
▁compelling	-11.4781
悲傷	-11.4782
剩下的	-11.4782
▁ngo	-11.4783
美妙	-11.4784
▁enforcement	-11.4784
六個月	-11.4785
▁plate	-11.4787
在政治上	-11.4788
白色	-11.4788
自然資源	-11.4791
愛情	-11.4798
有多少人	-11.4798
成效	-11.4798
發生的事情	-11.4799
龐	-11.4813
▁ingredient	-11.4821
▁neglect	-11.4821
剪	-11.4821
華爾街	-11.4821
▁spark	-11.4821
伴侶	-11.4821
纖維	-11.4821
依舊	-11.4823
▁contemporary	-11.4824
▁fool	-11.4824
反射	-11.4828
無聊	-11.4829
邁向	-11.4829
制約	-11.4829
狂熱	-11.483
▁shap	-11.4832
step	-11.4832
interest	-11.4838
minded	-11.4844
月球	-11.4846
case	-11.4853
很清楚	-11.4854
拿著	-11.4857
▁philosopher	-11.4861
豆	-11.4861
▁dutch	-11.4861
▁舉例來說	-11.4861
▁gross	-11.4861
▁admir	-11.4862
魅力	-11.4862
▁correlat	-11.4862
購物	-11.4863
▁pray	-11.4868
▁chosen	-11.4874
子女	-11.4874
phone	-11.4877
▁argu	-11.4887
怎麼樣	-11.4897
▁prince	-11.4901
雕	-11.4902
泄	-11.4902
▁bargain	-11.4902
▁galaxy	-11.4902
▁inclusion	-11.4902
悟	-11.4902
髒	-11.4902
帽	-11.4902
有史以來	-11.4902
繁殖	-11.4902
▁undertake	-11.4902
註定	-11.4903
高昂	-11.4912
領導層	-11.4913
quality	-11.4916
暫停	-11.4917
民主制度	-11.4921
rself	-11.4927
▁degrad	-11.4937
▁consist	-11.4942
敲	-11.4942
▁netanyahu	-11.4942
▁physician	-11.4942
▁thrive	-11.4942
▁pleasure	-11.4942
非政府組織	-11.4942
▁shareholders	-11.4942
游泳	-11.4942
▁section	-11.4942
▁criticize	-11.4942
奈米	-11.4944
▁atoms	-11.4945
構造	-11.4945
護士	-11.4946
天主教	-11.4948
知名	-11.4956
變得越來越	-11.4958
最嚴重的	-11.4959
火車	-11.4959
等級	-11.4961
▁mode	-11.4963
無知	-11.4965
▁remov	-11.4981
葡	-11.4983
雌	-11.4983
▁communism	-11.4983
▁einstein	-11.4983
▁residents	-11.4983
勾	-11.4983
鋒	-11.4983
▁drove	-11.4983
履行	-11.4985
廢除	-11.4986
配置	-11.4986
▁adam	-11.4987
▁mount	-11.4989
46	-11.4989
cost	-11.4989
▁rice	-11.4989
▁variation	-11.4991
▁buck	-11.4991
▁modi	-11.4992
經濟衰退	-11.4997
鳥類	-11.5
▁gang	-11.5002
border	-11.5002
我父親	-11.5007
劫	-11.5024
囊	-11.5024
▁enemies	-11.5024
▁exacerbate	-11.5024
▁facility	-11.5024
▁rwanda	-11.5024
▁substance	-11.5024
一連串	-11.5024
個百分點	-11.5024
騰	-11.5024
▁resort	-11.5024
sponsor	-11.5024
▁torture	-11.5025
猴子	-11.5025
竟然	-11.5025
▁chairman	-11.5026
▁emergingmarket	-11.5026
對我而言	-11.5028
席位	-11.5029
▁confrontation	-11.5036
擴	-11.5039
消極	-11.5039
▁tele	-11.504
開發銀行	-11.5041
european	-11.5043
自動化	-11.5043
玩家	-11.5049
human	-11.505
寫道	-11.5054
▁disruption	-11.5061
柱	-11.5065
耕	-11.5065
▁approval	-11.5065
▁episode	-11.5065
▁ethiopia	-11.5065
▁harvest	-11.5065
▁turmoil	-11.5065
外匯儲備	-11.5065
欄	-11.5065
urgency	-11.5065
▁closing	-11.5065
漏洞	-11.5066
舒適	-11.5066
僱主	-11.5067
▁qe	-11.5067
碳排放	-11.5067
突變	-11.5069
謀殺	-11.5074
▁slip	-11.5078
主管	-11.508
講述	-11.5083
南極	-11.5086
front	-11.5091
續	-11.51
朵	-11.5106
懸	-11.5107
▁netherlands	-11.5107
▁stupid	-11.5107
參議院	-11.5107
狼	-11.5107
澳洲	-11.5107
喜悅	-11.5107
▁spell	-11.5107
抽象	-11.5108
救助	-11.511
財政赤字	-11.5112
極限	-11.5113
市民	-11.5117
機遇	-11.5125
75%	-11.514
新鮮	-11.5145
寡	-11.5148
▁venture	-11.5148
▁alcohol	-11.5148
▁tobacco	-11.5148
婆	-11.5148
▁teenager	-11.5148
1967	-11.5148
▁fertil	-11.5148
民眾	-11.515
▁earnings	-11.5151
▁$5	-11.5153
難度	-11.5155
利息	-11.5157
version	-11.516
▁dispos	-11.516
四處	-11.5164
攜帶	-11.5168
突出	-11.5169
幾千	-11.5176
neverthe	-11.5188
擇	-11.5189
performing	-11.5189
藻	-11.519
獅	-11.519
同理心	-11.519
▁dinosaur	-11.519
▁thailand	-11.519
躺	-11.519
▁evident	-11.519
▁civic	-11.519
厲害	-11.519
鯊魚	-11.519
祖母	-11.519
合同	-11.5192
預料	-11.5192
▁vary	-11.5202
享有	-11.521
▁nasa	-11.521
小時候	-11.5215
家園	-11.522
移植	-11.5227
場景	-11.5229
▁afghan	-11.5232
▁genocide	-11.5232
嘛	-11.5232
鬧	-11.5232
▁escalat	-11.5232
篩	-11.5232
紐約市	-11.5232
▁bankruptcy	-11.5232
▁privatesector	-11.5233
宣言	-11.5234
驅	-11.5234
阿拉伯國家	-11.5238
▁leak	-11.5239
▁lifestyle	-11.524
▁violat	-11.5241
精神病	-11.5245
涵	-11.5273
忌	-11.5274
▁physicist	-11.5274
▁predecessor	-11.5274
闊	-11.5274
▁pilot	-11.5274
▁inflow	-11.5274
衰落	-11.5275
▁latter	-11.5277
space	-11.5278
▁vulnerability	-11.5278
響應	-11.5282
100%	-11.5282
▁你知道嗎	-11.5284
▁lake	-11.5286
伊拉克戰爭	-11.5286
心態	-11.5286
軍事行動	-11.5287
▁rip	-11.5292
tick	-11.5298
干	-11.5307
濫	-11.5309
當代	-11.531
是一樣的	-11.5314
唐納德	-11.5316
遮	-11.5316
籃	-11.5316
遣	-11.5316
叔	-11.5316
悔	-11.5316
秋	-11.5316
罩	-11.5316
▁southeast	-11.5316
▁delhi	-11.5316
無人機	-11.5316
揭露	-11.5316
發生了什麼事	-11.5317
1973	-11.5317
覺得自己	-11.5318
彼得	-11.5318
▁fluid	-11.5319
▁interpretation	-11.5321
物理學家	-11.5322
▁airport	-11.5323
興起	-11.5323
反思	-11.5324
▁suppose	-11.5334
▁lone	-11.5337
▁limb	-11.5344
crisis	-11.5344
漂	-11.5358
▁adviser	-11.5358
▁globe	-11.5358
▁miracle	-11.5358
寒	-11.5358
電子郵件	-11.5358
俱樂部	-11.5358
莫斯科	-11.5358
巢	-11.5358
▁filter	-11.5358
▁thick	-11.5358
▁darwin	-11.5359
倒閉	-11.5359
謊言	-11.5359
▁grain	-11.536
▁lowincome	-11.5361
▁trace	-11.5361
肯亞	-11.5362
▁pursuit	-11.5363
就業機會	-11.5365
▁systematic	-11.5365
偶爾	-11.5366
反彈	-11.5366
指令	-11.5367
總共	-11.537
海底	-11.5371
▁prisoners	-11.5371
▁yo	-11.5378
誤導	-11.5388
親密	-11.539
機關	-11.5392
束	-11.5399
▁curiosity	-11.5401
▁kitchen	-11.5401
▁twenty	-11.5401
磚	-11.5401
霧	-11.5401
▁asylum	-11.5401
▁hedge	-11.5401
救援	-11.5401
▁interface	-11.5401
單獨	-11.5402
檢視	-11.5402
魚類	-11.5407
潛水	-11.541
▁calculation	-11.5412
初期	-11.5414
多元化	-11.5415
▁slum	-11.5417
警方	-11.5419
五百	-11.5419
joined	-11.5434
奧巴馬政府	-11.5442
檔	-11.5443
▁francisco	-11.5444
▁hormone	-11.5444
▁kosovo	-11.5444
暢	-11.5444
潘	-11.5444
蠅	-11.5444
理所當然	-11.5444
▁undoubted	-11.5444
▁tribe	-11.5444
▁plain	-11.5444
▁flip	-11.5445
標記	-11.5446
自豪	-11.5448
解決辦法	-11.5458
準則	-11.5459
▁downward	-11.5459
六十	-11.5471
宏觀	-11.5473
慮	-11.5476
些什麼	-11.5482
解答	-11.5485
美軍	-11.5486
遺憾	-11.5486
▁coverage	-11.5493
顯現	-11.5496
▁teen	-11.5498
恆	-11.5502
在網路上	-11.5507
▁backward	-11.5507
屋頂	-11.5511
可謂	-11.5516
間接	-11.5516
▁microscop	-11.5517
序列	-11.5519
異常	-11.5524
喻	-11.5525
occupied	-11.553
▁illustrate	-11.553
呎	-11.553
符號	-11.5531
已知	-11.5533
絕大部分	-11.5536
家鄉	-11.5551
▁violation	-11.5563
▁choos	-11.5566
▁dress	-11.5569
唐	-11.5573
▁entail	-11.5573
笨	-11.5573
▁eager	-11.5573
▁clever	-11.5573
政策制定者	-11.5573
催生	-11.5575
▁utter	-11.5575
▁這就是為什麼	-11.5581
公共部門	-11.5582
uous	-11.5584
總需求	-11.5585
▁rape	-11.5585
祖父	-11.5605
秘	-11.5615
弦	-11.5616
諧	-11.5616
▁hezbollah	-11.5616
▁ministry	-11.5616
墓	-11.5616
禍	-11.5616
舊金山	-11.5616
闡	-11.5616
1970	-11.5617
頂尖	-11.5618
face	-11.5618
副作用	-11.5619
低利率	-11.562
被認爲是	-11.5641
▁lion	-11.5658
鳴	-11.566
繳	-11.566
▁moscow	-11.566
▁subsahara	-11.566
屏	-11.566
▁polio	-11.566
哀	-11.566
▁infinite	-11.566
▁ultra	-11.566
散播	-11.5661
為例	-11.5662
微笑	-11.5665
年代末	-11.5665
西歐	-11.5665
觸發	-11.5668
pollut	-11.5669
▁rome	-11.5674
簡化	-11.5683
爭奪	-11.5692
設法	-11.5694
法規	-11.5699
標題	-11.5702
挖	-11.5704
responsibilities	-11.5704
▁fabric	-11.5704
▁safeguard	-11.5704
▁stateowned	-11.5704
▁innocent	-11.5704
▁racial	-11.5704
▁outrage	-11.5704
欣賞	-11.5704
醜聞	-11.5704
▁pride	-11.5704
▁parliamentar	-11.5704
現任	-11.5711
▁dependence	-11.5711
清理	-11.5717
▁$4	-11.5721
隊伍	-11.5724
▁laid	-11.5725
▁emit	-11.5727
那時候	-11.5734
尺	-11.5746
契	-11.5747
國務卿	-11.5748
▁distress	-11.5748
▁lobby	-11.5748
▁ceiling	-11.5748
耶路撒冷	-11.5748
▁editor	-11.5748
穆巴拉克	-11.5748
▁valid	-11.5748
▁reef	-11.5748
▁properties	-11.5749
予以	-11.5751
▁mouse	-11.5752
五千	-11.5753
▁wow	-11.5757
民間	-11.5758
感情	-11.5761
八十	-11.5767
恆星	-11.5776
▁poet	-11.5777
▁cope	-11.5783
怎	-11.5792
剝	-11.5792
receiving	-11.5792
▁assault	-11.5792
▁instinct	-11.5792
▁nominal	-11.5792
▁psycho	-11.5792
▁spectacular	-11.5792
▁unfair	-11.5792
僞	-11.5792
鈔	-11.5792
郊	-11.5792
▁lady	-11.5793
監禁	-11.5793
▁harsh	-11.5793
▁passionate	-11.5795
▁proof	-11.5797
even	-11.5799
換取	-11.58
▁hip	-11.5804
僱用	-11.5805
苦難	-11.581
worthy	-11.5819
盟國	-11.5824
是很重要的	-11.5827
傳送	-11.5832
▁dictator	-11.5836
膚	-11.5836
廊	-11.5837
趟	-11.5837
▁exhaust	-11.5837
▁prominent	-11.5837
螞蟻	-11.5837
化合物	-11.5837
簽訂	-11.5837
▁boundaries	-11.5837
▁predator	-11.5838
▁nerve	-11.5838
▁warned	-11.5838
味道	-11.5844
▁controll	-11.5851
▁golden	-11.5852
▁deriv	-11.5855
price	-11.5861
贊	-11.5864
▁quest	-11.5876
盪	-11.5876
確切	-11.5878
field	-11.5878
僵	-11.588
▁catholic	-11.5881
▁periphery	-11.5881
滲	-11.5881
腰	-11.5881
鮑	-11.5881
鉤	-11.5881
授予	-11.5881
▁prompt	-11.5881
地中海	-11.5882
▁theories	-11.5883
未必	-11.5884
缺口	-11.5885
▁printing	-11.5887
▁shall	-11.5896
消化	-11.5902
▁oppose	-11.5906
▁mobilize	-11.5916
生物學家	-11.5918
試試	-11.5922
卡梅倫	-11.5926
▁manipulation	-11.5926
▁mexican	-11.5926
▁threshold	-11.5926
▁tsunami	-11.5926
奈及利亞	-11.5926
汀	-11.5926
▁paradigm	-11.5926
虧	-11.5926
▁queen	-11.5927
推遲	-11.5929
商店	-11.593
▁tube	-11.5943
▁hike	-11.5949
動搖	-11.5959
▁participat	-11.5969
安理會	-11.597
覈	-11.5971
▁unleash	-11.5971
坡	-11.5971
胃	-11.5971
▁catastrophe	-11.5971
髓	-11.5971
▁depressed	-11.5971
▁erod	-11.5973
一小部分	-11.5974
儘可能	-11.5976
接種	-11.5986
男女	-11.5991
▁invite	-11.5992
ocracy	-11.6001
軌	-11.6014
溫室氣體	-11.6016
煉	-11.6016
狹隘	-11.6016
那一刻	-11.6016
▁acute	-11.6017
振奮	-11.6017
辯護	-11.6017
的一部份	-11.6018
同步	-11.6018
▁bail	-11.6018
ograph	-11.6036
▁pour	-11.6042
▁invad	-11.6048
支援	-11.6052
限度	-11.6055
奮	-11.6061
contributed	-11.6061
▁mubarak	-11.6062
▁portugal	-11.6062
▁psychology	-11.6062
▁triumph	-11.6062
塌	-11.6062
廁	-11.6062
褲	-11.6062
吵	-11.6062
猜測	-11.6063
注射	-11.6064
問責	-11.6065
金融部門	-11.6075
making	-11.6075
▁habitat	-11.6089
這句話	-11.6105
肌	-11.6107
▁virgin	-11.6107
義大利	-11.6107
巡	-11.6107
艇	-11.6107
▁galaxies	-11.6107
▁shanghai	-11.6107
悖	-11.6107
▁oppress	-11.6108
披露	-11.6108
▁jean	-11.6108
抱歉	-11.6108
均衡	-11.6108
▁knee	-11.6109
同情心	-11.6111
預言	-11.6112
誤解	-11.6112
wood	-11.6114
▁apartment	-11.6116
▁kit	-11.6119
全民	-11.612
指引	-11.6122
深處	-11.6128
▁owe	-11.6137
相對較	-11.6138
蜜	-11.6153
▁yesterday	-11.6153
▁diabetes	-11.6153
▁influential	-11.6153
▁nineteenth	-11.6153
淚	-11.6153
▁alleged	-11.6154
掩蓋	-11.6154
陰影	-11.6154
回饋	-11.6154
幻覺	-11.6155
補助	-11.6155
▁shore	-11.6155
分辨	-11.6156
▁flash	-11.6158
證據表明	-11.6159
開採	-11.616
總額	-11.6163
是錯的	-11.6171
▁relate	-11.6186
星星	-11.619
歉	-11.6199
▁compensation	-11.6199
▁explosion	-11.6199
丘	-11.6199
▁teeth	-11.6199
▁bolster	-11.6199
涵蓋	-11.62
▁brotherhood	-11.62
周遭	-11.62
awl	-11.6201
色彩	-11.6201
軟件	-11.6202
鐵路	-11.6202
▁surgeon	-11.6203
▁rulers	-11.621
幾次	-11.6221
七十	-11.6231
毫	-11.6238
蚊	-11.6242
▁presum	-11.6244
定價	-11.6245
°	-11.6246
嘆	-11.6246
顯微鏡	-11.6246
▁license	-11.6246
耍	-11.6246
布萊爾	-11.6246
▁relax	-11.6246
叢	-11.6246
▁aftermath	-11.6246
艱鉅	-11.6246
彌補	-11.6246
忠誠	-11.6246
▁desk	-11.6247
列印	-11.625
安靜	-11.6251
▁restrain	-11.6251
letting	-11.6252
近年來	-11.6253
▁hydro	-11.6257
成年人	-11.6258
贊成	-11.6263
▁frustration	-11.6266
衍生	-11.6266
探究	-11.6274
整整	-11.6275
飽	-11.629
勁	-11.6291
歇	-11.6292
海平面	-11.6292
▁autonomy	-11.6292
▁explod	-11.6292
▁philippines	-11.6292
▁spiral	-11.6292
籠	-11.6292
午餐	-11.6293
▁接着	-11.6293
書籍	-11.6294
▁downturn	-11.6296
之旅	-11.6296
樂團	-11.6297
薪水	-11.6299
請求	-11.6303
評價	-11.6327
▁sink	-11.6334
厭	-11.6338
崇	-11.6339
orthodox	-11.6339
▁manipulate	-11.6339
▁tokyo	-11.6339
馬來西亞	-11.6339
▁fault	-11.6339
檔案	-11.634
惡劣	-11.634
二氧化碳排放	-11.634
破裂	-11.634
內閣	-11.634
▁haiti	-11.6341
▁infant	-11.6341
海灣	-11.6342
左派	-11.6344
包裝	-11.6344
神話	-11.6344
美國和歐洲	-11.6347
站出來	-11.6349
平靜	-11.6351
否定	-11.6357
▁reactor	-11.6361
房價	-11.638
呈	-11.6381
ortex	-11.6381
績	-11.6383
賬	-11.6386
溯	-11.6386
尿	-11.6386
í	-11.6386
▁awesome	-11.6386
▁christmas	-11.6386
▁column	-11.6386
▁literature	-11.6386
轉化爲	-11.6386
▁outlook	-11.6386
蒐集	-11.6386
▁fraud	-11.6386
乾旱	-11.6386
▁boston	-11.6386
搜索	-11.6386
▁underground	-11.6388
化學物質	-11.6388
break	-11.6389
切實	-11.6405
▁jim	-11.6409
▁seize	-11.6413
受損	-11.6414
是不可能的	-11.6423
慈	-11.6433
太陽系	-11.6433
斑	-11.6433
朱	-11.6433
罐	-11.6433
説	-11.6433
▁extensive	-11.6433
▁pipeline	-11.6433
▁principal	-11.6433
▁propaganda	-11.6433
達爾文	-11.6433
▁senator	-11.6433
▁nurtur	-11.6433
▁steal	-11.6433
溫室氣體排放	-11.6433
償付	-11.6434
▁plac	-11.6434
神秘	-11.6434
最高法院	-11.6434
舞台	-11.6435
應用程式	-11.6435
央行行長	-11.6435
▁frontier	-11.6436
工業革命	-11.6437
賺錢	-11.6437
非凡	-11.6438
▁diplomat	-11.6443
順序	-11.6448
落實	-11.6457
▁precise	-11.6457
物理學	-11.646
─	-11.648
醇	-11.648
regulated	-11.648
▁basket	-11.648
▁floating	-11.648
▁impression	-11.648
▁qaeda	-11.648
▁thomas	-11.648
▁mystery	-11.6481
參議員	-11.6481
無辜	-11.6481
供應鏈	-11.6481
聯合國安理會	-11.6481
▁orange	-11.6482
▁accessible	-11.6485
後續	-11.6486
▁uncomfortable	-11.6487
圖案	-11.6487
瓦解	-11.6489
首腦	-11.6492
▁corn	-11.6494
automatically	-11.6501
一回事	-11.6523
繫	-11.6528
憤	-11.6528
姊	-11.6528
▁consolidation	-11.6528
▁laptop	-11.6528
▁virtue	-11.6528
棵	-11.6528
炮	-11.6528
稿	-11.6528
驅逐	-11.6528
▁grass	-11.6528
姿態	-11.6528
東京	-11.6529
▁consent	-11.6529
董事會	-11.6531
藉此	-11.6531
莫迪	-11.6531
▁norway	-11.6533
▁mindset	-11.6536
詞彙	-11.6537
guided	-11.6541
嗯	-11.6546
▁dust	-11.6547
北歐	-11.655
陣線	-11.6552
壇	-11.6575
抹	-11.6576
諮詢	-11.6576
▁mammal	-11.6576
▁populism	-11.6576
▁vacuum	-11.6576
大宗商品	-11.6576
尬	-11.6576
▁damaging	-11.6576
▁recipe	-11.6576
鼓吹	-11.6576
參考	-11.6576
捐助	-11.6577
包圍	-11.6578
挑選	-11.6578
▁twin	-11.6578
▁blair	-11.6578
客觀	-11.6582
經費	-11.6591
司機	-11.6593
high	-11.6597
憂鬱	-11.6607
▁secur	-11.6615
晚餐	-11.6616
始終	-11.6622
片段	-11.6622
黎	-11.6623
頸	-11.6624
▁cooperate	-11.6624
▁exploration	-11.6624
▁knock	-11.6624
▁historian	-11.6624
叉	-11.6624
塞爾維亞	-11.6624
阻撓	-11.6624
濃縮	-11.6624
▁pretend	-11.6625
▁pitch	-11.6625
乃至	-11.6625
見證	-11.6626
ville	-11.6626
監視	-11.6626
▁unemployed	-11.6626
代替	-11.6627
確信	-11.6632
從來不	-11.6635
▁embrac	-11.6641
結核病	-11.667
炸	-11.6672
▁extremism	-11.6672
倉	-11.6672
舌	-11.6672
蛇	-11.6672
飼	-11.6672
廚房	-11.6673
▁multinational	-11.6673
探測	-11.6673
排斥	-11.6674
罪犯	-11.6675
耐心	-11.6677
椅子	-11.6678
驅使	-11.6692
停下來	-11.6714
懼	-11.6721
桿	-11.6721
纏	-11.6721
▁molecular	-11.6721
▁optimism	-11.6721
▁pessimis	-11.6721
▁ukrainian	-11.6721
▁pillar	-11.6721
枯	-11.6721
荒謬	-11.6721
印刷	-11.6721
▁punishment	-11.6723
▁harmful	-11.6725
祖國	-11.6744
邁進	-11.6745
植入	-11.6764
競	-11.6768
虐	-11.6769
▁berkeley	-11.677
▁likelihood	-11.677
▁sensible	-11.677
匿	-11.677
卑	-11.677
腎	-11.677
▁implicit	-11.677
悶	-11.677
▁grasp	-11.677
濕	-11.677
住宅	-11.677
▁depriv	-11.6771
蛋白	-11.6771
結構性改革	-11.6773
打敗	-11.6774
▁feat	-11.6774
▁grip	-11.6778
▁swim	-11.6779
沿著	-11.6782
▁sanit	-11.6793
促	-11.6793
減排	-11.6803
▁fiber	-11.6809
常態	-11.6813
務實	-11.6817
揭	-11.6818
准	-11.6818
餓	-11.6819
締	-11.6819
愈來愈	-11.6819
汙	-11.6819
流離失所	-11.6819
▁doctrine	-11.6819
▁emphasis	-11.6819
▁indigenous	-11.6819
▁mediterranean	-11.6819
波士頓	-11.6819
銅	-11.6819
奢	-11.6819
▁storage	-11.6819
檢驗	-11.6819
▁session	-11.6819
侵蝕	-11.6819
奮鬥	-11.6819
▁drill	-11.6819
羞辱	-11.6819
▁adventure	-11.6819
災害	-11.682
示範	-11.682
報復	-11.6823
▁colleague	-11.6825
調節	-11.6828
5000	-11.6834
暴行	-11.6834
過濾	-11.6836
growth	-11.6846
操	-11.6862
己	-11.6864
妥	-11.6868
悄	-11.6868
蝦	-11.6868
▁criteria	-11.6868
▁rethink	-11.6868
▁pioneer	-11.6868
▁draft	-11.6868
ç	-11.6868
▁shelter	-11.6868
▁keynesian	-11.6869
湧入	-11.6871
▁submit	-11.6871
itu	-11.6871
南歐	-11.6872
型態	-11.6874
聚焦	-11.6875
生物多樣性	-11.6878
▁plea	-11.6883
天堂	-11.6883
種族主義	-11.6886
foot	-11.6897
communica	-11.6915
扯	-11.6917
曝	-11.6917
汗	-11.6917
▁pandemic	-11.6917
▁straightforward	-11.6917
呀	-11.6917
頒	-11.6917
愛因斯坦	-11.6917
▁barrel	-11.6918
裁決	-11.6919
協商	-11.6919
▁keynes	-11.6922
巨型	-11.6922
▁molecule	-11.6926
▁overlook	-11.6933
察覺	-11.6935
運送	-11.6949
enhanc	-11.6956
紀	-11.6956
齡	-11.6957
尊	-11.6957
generation	-11.6959
視頻	-11.696
努	-11.6964
凸	-11.6967
▁depreciation	-11.6967
吻	-11.6967
彷彿	-11.6967
艦	-11.6967
萎靡	-11.6967
▁underpinn	-11.6967
妨礙	-11.6967
▁myanmar	-11.6967
奧地利	-11.6967
▁scandal	-11.6967
▁silk	-11.6967
審慎	-11.6967
仰賴	-11.6967
▁非常謝謝	-11.6967
揭示	-11.6968
▁entry	-11.6968
▁ruin	-11.6968
逃避	-11.6969
霸權	-11.697
▁devis	-11.6971
奇妙	-11.6973
▁politician	-11.6977
▁profession	-11.699
▁differ	-11.7014
勇	-11.7015
采	-11.7017
▁altogether	-11.7017
▁farreaching	-11.7017
▁malaysia	-11.7017
▁minorities	-11.7017
▁scotland	-11.7017
▁unconventional	-11.7017
猶豫	-11.7017
▁incorporat	-11.7017
韌	-11.7017
舉個例子	-11.7017
糾紛	-11.7017
▁stalin	-11.7017
♪♪	-11.7017
公寓	-11.7018
醫療保健	-11.7018
菸草	-11.7018
▁superpower	-11.7018
▁poetry	-11.7019
聽眾	-11.7021
花園	-11.7021
老年人	-11.7028
▁impede	-11.7042
張照片	-11.7049
何處	-11.7051
▁elect	-11.7058
授	-11.7064
疾	-11.7066
岩	-11.7067
胞	-11.7067
糊	-11.7067
冊	-11.7067
煮	-11.7067
塞浦路斯	-11.7067
根深蒂固	-11.7067
▁beneficial	-11.7067
▁diagnosis	-11.7067
▁foreignpolicy	-11.7067
▁jerusalem	-11.7067
▁monopoly	-11.7067
▁poison	-11.7067
孟	-11.7067
墮	-11.7067
臭	-11.7067
孤獨	-11.7068
心理學家	-11.707
▁considerably	-11.7073
▁pause	-11.7073
▁bullet	-11.7074
結局	-11.7074
配合	-11.7076
capital	-11.7102
changing	-11.7104
美國總統奧巴馬	-11.7105
猶	-11.7116
箭	-11.7117
夾	-11.7118
聘	-11.7118
養老金	-11.7118
▁frighten	-11.7118
▁hungary	-11.7118
▁injustice	-11.7118
嘲	-11.7118
遷徙	-11.7118
▁chapter	-11.7118
打電話給	-11.7118
挫折	-11.7118
▁rightwing	-11.7118
▁spiritual	-11.7119
▁laboratory	-11.712
黃色	-11.712
組成部分	-11.7122
液體	-11.7124
假裝	-11.7126
▁endorse	-11.7155
▁retire	-11.7167
紮	-11.7169
diagnosed	-11.7169
▁vaccinat	-11.7169
阿巴斯	-11.7169
敦促	-11.7169
▁identities	-11.7169
▁problematic	-11.7169
封閉	-11.7169
▁capability	-11.7171
▁breed	-11.7171
生殖	-11.7171
部落格	-11.7172
命令	-11.7173
captured	-11.7176
▁foresee	-11.7176
先例	-11.7178
▁lever	-11.7179
▁dense	-11.7182
▁corporation	-11.7182
悅	-11.7219
坎	-11.722
▁cooperative	-11.722
▁embedded	-11.722
▁regret	-11.722
橋樑	-11.722
浴	-11.722
舍	-11.722
▁schedule	-11.722
▁regain	-11.722
探險	-11.722
▁martin	-11.7221
▁很顯然	-11.7221
軟實力	-11.7221
是什麼樣子	-11.7221
擊敗	-11.7222
總統大選	-11.7222
清醒	-11.7223
好奇心	-11.7224
鄉村	-11.7225
重覆	-11.7226
集合	-11.7236
流行病	-11.7247
十九世紀	-11.7271
▁cultivat	-11.7271
▁league	-11.7271
▁psychologist	-11.7271
仗	-11.7271
▁complement	-11.7271
嫌	-11.7271
希特勒	-11.7271
罹患	-11.7271
▁ecological	-11.7271
▁imposing	-11.7271
▁broadcast	-11.7271
國有企業	-11.7271
薪酬	-11.7271
▁casual	-11.7271
英哩	-11.7271
職責	-11.7272
essence	-11.7273
免疫系統	-11.7275
支配	-11.7279
referred	-11.7287
開啓	-11.7313
dollar	-11.7314
罕	-11.732
峽	-11.7323
▁texas	-11.7323
攤	-11.7323
紐約時報	-11.7323
▁approximate	-11.7323
薩達姆	-11.7323
阻擋	-11.7323
招募	-11.7323
暴跌	-11.7324
▁再加上	-11.7325
爭端	-11.7326
worm	-11.7327
氣味	-11.733
運算	-11.7331
找尋	-11.7352
rack	-11.7352
weight	-11.7369
懶	-11.7374
賄	-11.7374
▁privatiz	-11.7374
偽	-11.7374
湊	-11.7374
雇	-11.7374
吐	-11.7374
轍	-11.7374
高速公路	-11.7374
萎縮	-11.7374
▁ladies	-11.7374
玉米	-11.7375
操控	-11.7375
▁provok	-11.7375
▁brics	-11.7375
▁transmission	-11.7376
捷克	-11.7378
sharing	-11.7387
▁database	-11.7404
▁cheat	-11.7415
仰	-11.7425
▁cabinet	-11.7426
▁foreignexchange	-11.7426
▁hurricane	-11.7426
▁magnitude	-11.7426
▁obesity	-11.7426
希拉里	-11.7426
▁mechanical	-11.7427
洞穴	-11.7427
▁awful	-11.7427
▁identical	-11.7427
敘事	-11.7427
廢棄	-11.7427
▁tibet	-11.7427
採訪	-11.7427
壞消息	-11.7428
含義	-11.7429
▁policymaking	-11.7429
故意	-11.7431
降落	-11.7432
▁deng	-11.7467
焦	-11.7475
措	-11.7477
壽	-11.7478
撕	-11.7479
▁autonomous	-11.7479
▁battery	-11.7479
▁convincing	-11.7479
埃博拉	-11.7479
▁computing	-11.7479
飆升	-11.7479
噪音	-11.7479
拖累	-11.7479
▁balloon	-11.7479
僅限於	-11.748
睡覺	-11.748
▁clip	-11.7481
▁hitler	-11.7482
首席	-11.7482
▁crush	-11.7483
▁好消息是	-11.7485
偉	-11.7505
▁cambodia	-11.7531
▁genius	-11.7531
▁nonprofit	-11.7531
▁descend	-11.7531
胺	-11.7531
▁angela	-11.7531
▁autism	-11.7532
我最喜歡的	-11.7532
▁hydrogen	-11.7532
▁blank	-11.7532
浪潮	-11.7532
跳舞	-11.7533
減弱	-11.7535
眼鏡	-11.7536
▁coloni	-11.7562
▁remarkabl	-11.7573
幾何	-11.7583
▁slave	-11.7583
哩	-11.7584
崩	-11.7584
怨	-11.7584
鬱	-11.7584
▁lecture	-11.7584
▁millennium	-11.7584
▁serbia	-11.7584
陶	-11.7584
▁dysfunction	-11.7584
▁reagan	-11.7584
▁sacred	-11.7584
▁clue	-11.7585
叛亂	-11.7586
縮減	-11.7587
▁admitted	-11.7587
缺失	-11.7589
迫害	-11.759
有價值的	-11.7611
withstand	-11.7633
催	-11.7635
夕	-11.7638
矽	-11.7638
▁destructive	-11.7638
▁smoking	-11.7638
蝠	-11.7638
謙	-11.7638
▁smith	-11.7638
珊瑚礁	-11.7638
1986	-11.7638
柬埔寨	-11.7638
撰寫	-11.7638
▁slavery	-11.7639
防務	-11.764
發育	-11.7645
在接下來的	-11.7655
憂鬱症	-11.7656
starters	-11.768
▁punish	-11.7682
醜	-11.7691
爵	-11.7691
▁infectious	-11.7691
▁register	-11.7691
合作伙伴	-11.7691
攀升	-11.7691
綁架	-11.7692
駭客	-11.7692
原住民	-11.7692
喜劇	-11.7693
替代方案	-11.7694
裝備	-11.7695
閱	-11.7743
駭	-11.7744
眠	-11.7745
自行車	-11.7745
▁advertising	-11.7745
▁steady	-11.7745
築	-11.7798
撲	-11.7799
蓄	-11.7853
腔	-11.7853
懾	-11.7853
頌	-11.7853
咒	-11.7853
浸	-11.7853
姿	-11.7907
醬	-11.7908
蕾	-11.7908
烤	-11.7908
瀕	-11.7908
臂	-11.796
咬	-11.7963
鈾	-11.7963
騷	-11.8018
巾	-11.8018
狹	-11.8018
淹	-11.8018
ä	-11.8018
釘	-11.8074
淋	-11.8074
畜	-11.8074
塑	-11.8097
兄	-11.8129
傲	-11.8129
涅	-11.8129
挫	-11.8185
齒	-11.8185
卷	-11.8186
拾	-11.8186
喘	-11.8186
綿	-11.8186
庭	-11.8199
溝	-11.8241
堵	-11.8242
糞	-11.8242
鹼	-11.8242
擬	-11.8298
贖	-11.8299
厄	-11.8299
枚	-11.8299
謂	-11.8363
à	-11.8414
拙	-11.8414
å	-11.8414
殖	-11.8445
盒	-11.8467
⋯	-11.8471
窄	-11.8471
犬	-11.8471
蔽	-11.8471
翅	-11.853
鴉	-11.8587
倆	-11.8588
傭	-11.8588
卜	-11.8588
諒	-11.8588
麼	-11.861
彙	-11.8635
曆	-11.8647
烹	-11.8647
矩	-11.8647
喀	-11.8647
嘉	-11.8706
漆	-11.8766
距	-11.8821
慰	-11.8824
括	-11.8825
ó	-11.8825
俱	-11.8825
盆	-11.8825
碗	-11.8825
享	-11.8854
糾	-11.888
乃	-11.8885
躁	-11.8886
巫	-11.8886
飄	-11.8886
奠	-11.8886
肚	-11.8886
夥	-11.8946
轄	-11.8946
羽	-11.8946
昏	-11.8946
詹	-11.8946
披	-11.9007
蠢	-11.9007
傘	-11.9007
錶	-11.9007
扇	-11.9007
捨	-11.9007
緻	-11.9007
欽	-11.9007
妻	-11.9065
爺	-11.9069
寂	-11.9069
穀	-11.9069
穎	-11.9069
渺	-11.9069
伍	-11.9101
培	-11.9129
瞄	-11.913
憎	-11.913
榜	-11.9192
彌	-11.9192
噬	-11.9192
輝	-11.9192
攜	-11.9226
糕	-11.9232
祝	-11.9255
乙	-11.9255
膝	-11.9255
癒	-11.9269
履	-11.9315
刷	-11.9317
伙	-11.9318
詭	-11.9318
寸	-11.9381
蘿	-11.9381
姦	-11.9381
坑	-11.9381
炫	-11.9381
削	-11.9444
搜	-11.9444
鉛	-11.9445
盃	-11.9445
紫	-11.9445
踢	-11.9445
扔	-11.9445
ö	-11.9509
茫	-11.9509
銘	-11.9509
框	-11.9573
紛	-11.9573
倦	-11.9573
娃	-11.9573
腕	-11.9573
薦	-11.9573
攀	-11.9638
淘	-11.9638
訣	-11.9638
僑	-11.9638
嶄	-11.9704
墊	-11.9704
雀	-11.9704
妄	-11.9769
柴	-11.9769
刪	-11.9769
唸	-11.9769
è	-11.9769
狄	-11.9769
董	-11.9832
撐	-11.9833
詳	-11.9835
譯	-11.9835
江	-11.9836
筒	-11.9836
墜	-11.9836
拓	-11.9895
賀	-11.9902
卸	-11.9902
囉	-11.9902
摔	-11.9902
饋	-11.9968
綱	-11.9969
寵	-11.9969
穫	-11.9969
芽	-11.9969
棕	-12.0037
烷	-12.0037
幟	-12.0037
壩	-12.0037
浩	-12.0037
胖	-12.0105
掠	-12.0105
汲	-12.0105
伽	-12.0105
惕	-12.0105
掀	-12.0105
昔	-12.0105
濃	-12.0172
循	-12.0173
莊	-12.0173
磷	-12.0174
茄	-12.0174
賠	-12.0174
逢	-12.0174
丸	-12.0243
龜	-12.0243
芭	-12.0243
嗨	-12.0243
碑	-12.0243
弈	-12.0243
愧	-12.0243
砸	-12.0243
懈	-12.0243
嗅	-12.0312
汁	-12.0312
氮	-12.0312
稻	-12.0312
于	-12.0312
蠟	-12.0312
坊	-12.0312
敞	-12.0312
毯	-12.0312
釐	-12.0312
蕩	-12.0312
踩	-12.0312
錫	-12.0312
擦	-12.0382
輿	-12.0382
碟	-12.0382
薯	-12.0382
乍	-12.0382
禿	-12.0382
郎	-12.0382
媒	-12.0449
划	-12.0452
癡	-12.0452
釀	-12.0452
棲	-12.0452
鈴	-12.0452
溶	-12.0452
誼	-12.0452
映	-12.0522
囚	-12.0523
捉	-12.0523
鍊	-12.0523
禧	-12.0523
殿	-12.0523
廷	-12.0523
彼	-12.0589
吊	-12.0595
瞻	-12.0595
梭	-12.0667
筋	-12.0667
兔	-12.0667
鵝	-12.0739
銜	-12.0739
陌	-12.0739
攏	-12.0739
渦	-12.0739
瞧	-12.0739
艙	-12.0739
橡	-12.0739
螢	-12.0812
豹	-12.0812
悠	-12.0812
稚	-12.0812
豁	-12.0812
廉	-12.0868
麵	-12.0885
貿	-12.0885
蹈	-12.0885
攬	-12.0886
沈	-12.0886
陋	-12.0886
æ	-12.0886
圭	-12.0886
衍	-12.0928
緒	-12.0958
苛	-12.096
岡	-12.096
姑	-12.096
廚	-12.1034
顛	-12.1034
駛	-12.1034
勉	-12.1034
勸	-12.1034
甩	-12.1034
嫁	-12.1034
燥	-12.1034
忽	-12.1108
扮	-12.1108
熔	-12.111
棍	-12.111
窺	-12.111
椎	-12.111
予	-12.1176
滯	-12.1185
彰	-12.1185
内	-12.1185
摘	-12.1185
京	-12.126
僚	-12.1261
臥	-12.1262
儕	-12.1262
邀	-12.1338
溜	-12.1338
窩	-12.1339
矮	-12.1339
仙	-12.1339
腥	-12.1339
雖	-12.1415
嫉	-12.1416
沼	-12.1416
赴	-12.1416
慕	-12.1416
洩	-12.1494
株	-12.1494
汰	-12.1494
聳	-12.1494
釣	-12.1573
屁	-12.1573
橘	-12.1573
珊	-12.1573
嵌	-12.1573
鹿	-12.1573
督	-12.1652
灑	-12.1652
芒	-12.1652
隧	-12.1652
鬍	-12.1652
漿	-12.1652
廈	-12.1652
儒	-12.1732
嚐	-12.1732
晃	-12.1732
汽	-12.181
貶	-12.1812
遵	-12.1813
穌	-12.1813
拒	-12.1891
旱	-12.1894
噩	-12.1894
廟	-12.1894
硫	-12.1894
们	-12.1894
淆	-12.1894
肘	-12.1894
鴨	-12.1894
旨	-12.1941
偵	-12.1952
顏	-12.1975
謹	-12.1976
仲	-12.1976
軀	-12.1976
宴	-12.1976
覓	-12.1976
駝	-12.1976
註	-12.2057
裕	-12.2058
蝕	-12.2059
戚	-12.2059
蒼	-12.2059
鴿	-12.2142
抖	-12.2142
閥	-12.2142
罵	-12.2142
鯊	-12.2225
樞	-12.2226
瞞	-12.2226
倘	-12.2226
吋	-12.2226
肖	-12.2226
鴻	-12.2226
疫	-12.2309
脆	-12.231
俘	-12.2311
盼	-12.2311
ü	-12.2311
傻	-12.2311
剔	-12.2311
泣	-12.2311
匠	-12.2396
喉	-12.2396
惹	-12.2396
祭	-12.2396
篷	-12.2396
旦	-12.2464
砍	-12.2482
擱	-12.2483
昇	-12.2483
粘	-12.2483
裹	-12.2483
侮	-12.2483
勘	-12.2483
淵	-12.2483
蘊	-12.2483
扁	-12.257
郡	-12.257
峙	-12.257
溪	-12.257
瘦	-12.257
莽	-12.257
楚	-12.2656
描	-12.2657
津	-12.2657
裙	-12.2657
冥	-12.2657
皂	-12.2657
¥	-12.2657
纜	-12.2657
斜	-12.2746
睜	-12.2746
紡	-12.2746
蕉	-12.2746
碩	-12.2746
徘	-12.2746
禽	-12.2746
扭	-12.283
腫	-12.2835
黛	-12.2835
骯	-12.2835
妒	-12.2835
擲	-12.2835
僧	-12.2835
咪	-12.2835
沾	-12.2925
鮪	-12.2925
瓊	-12.2925
禱	-12.2925
詢	-12.3008
♫	-12.3015
輯	-12.3016
瑣	-12.3016
帆	-12.3016
攔	-12.3016
硅	-12.3016
饒	-12.3016
翔	-12.3016
并	-12.3016
浦	-12.3016
砂	-12.3016
券	-12.3102
牀	-12.3107
嚮	-12.3108
熬	-12.3108
迦	-12.3108
鄙	-12.3108
­	-12.3108
桃	-12.3108
壺	-12.3108
匆	-12.3108
謬	-12.32
崙	-12.32
挨	-12.32
隙	-12.32
馴	-12.32
杆	-12.32
廂	-12.32
殆	-12.32
瀉	-12.32
虔	-12.32
慾	-12.3293
渴	-12.3293
炭	-12.3294
氦	-12.3294
拳	-12.3294
骸	-12.3294
閣	-12.3385
昆	-12.3388
氛	-12.3388
蛙	-12.3388
搏	-12.3388
淪	-12.3469
仔	-12.3483
穴	-12.3483
【	-12.3483
轟	-12.3483
瘤	-12.3483
蔑	-12.3483
澄	-12.3483
爪	-12.3483
慎	-12.3579
】	-12.358
稽	-12.358
崔	-12.358
脖	-12.358
这	-12.358
旺	-12.358
纖	-12.3675
哨	-12.3677
愚	-12.3677
噓	-12.3677
燭	-12.3677
翁	-12.3677
闢	-12.3775
兜	-12.3775
諜	-12.3775
涼	-12.3775
歧	-12.3869
壘	-12.3874
祂	-12.3874
=	-12.3874
癢	-12.3874
畝	-12.3874
螂	-12.3874
酶	-12.3874
征	-12.3973
頑	-12.3973
撮	-12.3974
疹	-12.3974
蓬	-12.4075
橙	-12.4075
鑄	-12.4075
墳	-12.4075
盔	-12.4075
鉅	-12.4172
嬰	-12.4176
劍	-12.4177
慌	-12.4177
猿	-12.4177
府	-12.4278
訓	-12.4278
棚	-12.428
堤	-12.428
撇	-12.428
札	-12.428
紗	-12.428
析	-12.4382
傢	-12.4384
攪	-12.4384
囤	-12.4384
旬	-12.4384
泌	-12.4384
撿	-12.4384
朔	-12.4384
疆	-12.4384
菁	-12.4384
赦	-12.4384
ï	-12.4384
抄	-12.4384
捏	-12.4384
曠	-12.4489
剋	-12.4489
鱷	-12.4489
皺	-12.4489
顫	-12.4489
迭	-12.4489
驗	-12.459
摧	-12.4595
舟	-12.4596
噁	-12.4596
墟	-12.4596
槽	-12.4596
欖	-12.4596
逗	-12.4596
鍾	-12.4596
姨	-12.4596
弓	-12.4596
斬	-12.4596
螺	-12.4693
澱	-12.4703
鸚	-12.4703
妓	-12.4703
盎	-12.4703
薇	-12.4703
栽	-12.4812
竹	-12.4812
茱	-12.4812
梵	-12.4812
奎	-12.4812
歎	-12.4812
泊	-12.4812
芙	-12.4812
淫	-12.4812
屢	-12.4812
礁	-12.4922
澡	-12.4922
黯	-12.4922
刮	-12.4922
恭	-12.4922
癲	-12.4922
糙	-12.4922
彗	-12.4922
逸	-12.4922
犀	-12.5033
焰	-12.5033
茅	-12.5033
萌	-12.5033
刃	-12.5033
燬	-12.5033
膏	-12.5033
姬	-12.5033
絡	-12.5144
宰	-12.5144
宅	-12.5144
糧	-12.5145
挽	-12.5145
魁	-12.5145
牲	-12.5145
麪	-12.5145
鼎	-12.5145
謗	-12.5145
冗	-12.5145
氾	-12.5145
謠	-12.5145
斐	-12.5145
毆	-12.5259
茂	-12.5259
逛	-12.5259
娘	-12.5259
辣	-12.5259
恕	-12.5259
沸	-12.5259
黴	-12.5259
繆	-12.5259
?	-12.5336
係	-12.536
揹	-12.5374
狠	-12.5374
輟	-12.5374
呃	-12.5374
疚	-12.5374
馭	-12.5374
窘	-12.5374
菇	-12.5374
函	-12.5374
熙	-12.549
溺	-12.549
伎	-12.549
瑰	-12.549
襯	-12.5608
衫	-12.5608
陀	-12.5608
ã	-12.5608
唾	-12.5608
杉	-12.5608
蜻	-12.5608
矯	-12.5608
陵	-12.5727
澆	-12.5727
昭	-12.5847
藤	-12.5847
鍛	-12.5847
頃	-12.5847
憫	-12.5847
眉	-12.5847
莖	-12.5847
爽	-12.5847
侖	-12.5847
朴	-12.5847
掙	-12.5969
矛	-12.5969
叮	-12.5969
皿	-12.5969
鋁	-12.5969
掏	-12.5969
諱	-12.5969
鞭	-12.5969
痹	-12.5969
諷	-12.6092
賊	-12.6093
巔	-12.6093
檯	-12.6093
紓	-12.6093
碌	-12.6093
詛	-12.6093
籬	-12.6093
蝸	-12.6093
妝	-12.6093
œ	-12.6093
帥	-12.6218
芝	-12.6218
屠	-12.6331
酬	-12.6343
蹟	-12.6344
侶	-12.6344
苗	-12.6344
誡	-12.6344
嗜	-12.6344
囂	-12.6344
暈	-12.6344
脹	-12.6471
挪	-12.6472
劉	-12.6472
酮	-12.6472
趾	-12.6473
喇	-12.6473
氯	-12.6473
袍	-12.6473
攫	-12.6473
斗	-12.6473
毅	-12.6473
盈	-12.6581
贈	-12.6602
飢	-12.6602
俯	-12.6602
昧	-12.6602
矇	-12.6602
逾	-12.6602
癇	-12.6602
玫	-12.6602
孩	-12.672
「	-12.673
懲	-12.6734
潰	-12.6734
拱	-12.6734
靶	-12.6734
š	-12.6734
魂	-12.6867
倚	-12.6867
屑	-12.6867
悼	-12.6867
焚	-12.6867
曬	-12.6867
悉	-12.7002
妖	-12.7002
晉	-12.7002
窒	-12.7002
竅	-12.7002
酪	-12.7002
⁄	-12.7002
笛	-12.7002
齣	-12.7002
濾	-12.7092
邪	-12.7139
迥	-12.7139
瀾	-12.7139
虹	-12.7139
\	-12.7139
啥	-12.7139
渾	-12.7139
蝶	-12.7139
鳳	-12.7139
个	-12.7139
侯	-12.7278
匪	-12.7278
猖	-12.7278
摒	-12.7278
褐	-12.7278
嶺	-12.7278
迄	-12.7278
闖	-12.7278
宇	-12.7278
乞	-12.7278
♪	-12.7288
魅	-12.7415
戳	-12.7419
歪	-12.7419
疤	-12.7419
摯	-12.7419
没	-12.7419
哲	-12.7559
誌	-12.7561
泳	-12.7562
恒	-12.7562
朽	-12.7562
溼	-12.7562
靴	-12.7562
寺	-12.7562
錨	-12.7562
鍋	-12.7562
£	-12.7562
潑	-12.7562
痺	-12.7562
襪	-12.7562
煞	-12.7562
盾	-12.7707
丙	-12.7707
鋸	-12.7707
恤	-12.7707
縣	-12.7707
暑	-12.7707
懇	-12.7707
敦	-12.7853
籤	-12.7854
萃	-12.7854
洶	-12.7854
○	-12.7854
亟	-12.7854
吼	-12.7854
狐	-12.7854
祥	-12.7854
蘑	-12.7854
蟹	-12.7854
沛	-12.7854
珀	-12.7854
綽	-12.7854
寓	-12.8002
塘	-12.8003
夭	-12.8003
塢	-12.8003
絆	-12.8003
杰	-12.8003
殊	-12.8152
崗	-12.8153
械	-12.8153
鈕	-12.8154
廓	-12.8155
賤	-12.8155
繃	-12.8155
掣	-12.8155
€	-12.8192
驟	-12.8278
炒	-12.8309
剎	-12.8309
栓	-12.8309
擷	-12.8309
暫	-12.8416
袖	-12.8464
迅	-12.8464
惰	-12.8465
柄	-12.8465
柳	-12.8465
瓣	-12.8465
巷	-12.8465
秉	-12.8465
彥	-12.8465
怯	-12.8465
舅	-12.8465
嘔	-12.8465
睪	-12.8465
」	-12.8513
豎	-12.8624
竄	-12.8624
姍	-12.8624
槳	-12.8624
瑕	-12.8624
斧	-12.8624
椰	-12.8624
篤	-12.8624
趁	-12.8624
錦	-12.8624
猴	-12.8781
雛	-12.8785
聾	-12.8785
弧	-12.8785
澀	-12.8785
豔	-12.8785
嘗	-12.891
朋	-12.8948
佬	-12.8949
熄	-12.8949
樁	-12.8949
氨	-12.8949
ú	-12.8949
竿	-12.8949
勳	-12.8949
哮	-12.8949
羨	-12.8949
缸	-12.8949
晴	-12.9115
煎	-12.9115
絞	-12.9115
瀑	-12.9115
瘟	-12.9116
宛	-12.9285
烘	-12.9285
癥	-12.9285
丑	-12.9285
棱	-12.9285
杏	-12.9285
俠	-12.9285
孵	-12.9285
叭	-12.9285
狡	-12.9285
簿	-12.9285
碧	-12.9285
撈	-12.9457
嚼	-12.9457
莓	-12.9457
渣	-12.9457
妨	-12.9457
艷	-12.9457
蠶	-12.9457
梨	-12.9457
馮	-12.9457
鮭	-12.9457
潤	-12.963
娶	-12.9633
槓	-12.9633
唇	-12.9633
肇	-12.9633
坪	-12.9633
洽	-12.9633
胰	-12.9633
_	-12.9633
鑿	-12.9633
睹	-12.9811
跋	-12.9811
絨	-12.9811
婭	-12.9811
咳	-12.9811
嗶	-12.9811
虜	-12.9811
蓮	-12.9811
貞	-12.9811
瘡	-12.9811
梁	-12.9811
聰	-12.9992
撼	-12.9992
傅	-12.9993
産	-12.9993
杖	-12.9993
熵	-12.9993
夷	-12.9993
漩	-12.9993
蹣	-12.9993
楊	-12.9993
畸	-12.9993
粹	-13.0177
瞬	-13.0177
祈	-13.0178
乖	-13.0178
顱	-13.0178
斂	-13.0178
濱	-13.0178
誦	-13.0178
瀆	-13.0178
緬	-13.0178
彭	-13.0178
牟	-13.0178
庇	-13.0367
苯	-13.0367
凹	-13.0367
藩	-13.0367
斃	-13.0367
砰	-13.0367
簾	-13.0367
鈍	-13.0367
勿	-13.0367
稠	-13.0367
痴	-13.0367
頹	-13.0367
鹹	-13.0367
吟	-13.0367
貢	-13.0559
燙	-13.0559
氓	-13.0559
寞	-13.0559
聼	-13.0559
鑒	-13.0559
拐	-13.0559
ㄧ	-13.0559
帖	-13.0559
椒	-13.0559
瀝	-13.0559
眨	-13.0559
踵	-13.0559
繹	-13.0559
袒	-13.0559
枕	-13.0559
紊	-13.0559
撰	-13.0754
遏	-13.0755
礙	-13.0755
榨	-13.0755
樸	-13.0755
鰭	-13.0755
夸	-13.0755
瞎	-13.0755
吶	-13.0755
氟	-13.0755
貯	-13.0755
僕	-13.0756
琪	-13.0756
嘻	-13.0955
狸	-13.0955
錘	-13.0955
隕	-13.0955
愁	-13.0955
厲	-13.1159
为	-13.1159
烯	-13.116
瑜	-13.116
蹺	-13.116
瞥	-13.116
膩	-13.116
{	-13.116
拷	-13.116
諺	-13.116
馳	-13.116
捆	-13.116
泵	-13.116
灼	-13.116
噠	-13.116
擅	-13.1365
癖	-13.1368
侍	-13.1368
慟	-13.1368
煥	-13.1368
衞	-13.1368
唉	-13.1368
憧	-13.1368
禪	-13.1368
菈	-13.1368
陡	-13.1368
瀚	-13.1368
凰	-13.1368
哺	-13.1368
磋	-13.1368
剷	-13.1368
緝	-13.1368
芯	-13.1581
儉	-13.1581
詆	-13.1581
鑰	-13.1581
僻	-13.1581
搗	-13.1581
酗	-13.1581
惟	-13.1581
鈣	-13.1581
羚	-13.1581
箏	-13.1581
憶	-13.1796
錐	-13.1798
扛	-13.1798
捧	-13.1798
渥	-13.1798
咖	-13.1798
晦	-13.1798
几	-13.1798
脾	-13.1798
悍	-13.1798
蛻	-13.1798
„	-13.1798
»	-13.1798
牴	-13.202
孚	-13.202
蔥	-13.202
挾	-13.202
盞	-13.202
婉	-13.202
嬤	-13.202
褪	-13.202
来	-13.202
梳	-13.202
綢	-13.202
賢	-13.202
魏	-13.202
@	-13.202
脅	-13.2247
鱈	-13.2248
梗	-13.2248
棺	-13.2248
〈	-13.2248
〉	-13.2248
羈	-13.2248
嬉	-13.2248
嫩	-13.248
弭	-13.248
蔡	-13.248
寨	-13.248
喋	-13.248
髖	-13.248
瓷	-13.248
滔	-13.2718
餌	-13.2718
醣	-13.2718
漬	-13.2718
睦	-13.2718
柵	-13.2718
烙	-13.2718
蹲	-13.2718
呵	-13.2718
鄭	-13.2718
玉	-13.2961
逮	-13.2962
勻	-13.2962
瞪	-13.2962
荼	-13.2962
嗚	-13.2962
蹦	-13.2962
佑	-13.2962
孢	-13.2962
岔	-13.2962
魄	-13.2962
ž	-13.2962
臀	-13.2962
舵	-13.2962
鏽	-13.2962
・	-13.2962
訃	-13.2962
揣	-13.2962
噪	-13.3211
嗤	-13.3212
么	-13.3212
睿	-13.3212
遂	-13.3212
冕	-13.3212
寢	-13.3212
櫥	-13.3212
砲	-13.3212
頰	-13.3212
喧	-13.3212
辜	-13.3465
棘	-13.3466
澳	-13.3468
牡	-13.3468
緯	-13.3468
峭	-13.3468
芥	-13.3468
焉	-13.3468
肋	-13.3468
蕊	-13.3468
蘆	-13.3468
咋	-13.3468
冤	-13.3468
猝	-13.3468
潭	-13.3469
餡	-13.3469
訶	-13.3469
綜	-13.373
綻	-13.3732
胱	-13.3732
苟	-13.3732
崎	-13.3732
翠	-13.3732
蕃	-13.3732
紳	-13.3732
繭	-13.3732
鬚	-13.3732
厘	-13.3732
蚌	-13.3732
翹	-13.3732
燕	-13.3732
跪	-13.3732
瘧	-13.389
敘	-13.3999
丈	-13.4001
飆	-13.4001
吳	-13.4002
蕪	-13.4002
攣	-13.4002
遽	-13.4002
縈	-13.4002
哎	-13.4002
喂	-13.4002
綫	-13.4002
兀	-13.4002
絶	-13.4002
脣	-13.4002
顎	-13.4002
轎	-13.4002
貘	-13.4002
茸	-13.4002
諮	-13.4002
樑	-13.428
霹	-13.428
蠣	-13.428
囑	-13.428
敷	-13.428
輒	-13.428
ô	-13.428
縷	-13.428
躇	-13.428
霜	-13.428
剃	-13.428
玷	-13.428
沌	-13.428
矢	-13.428
韻	-13.428
勵	-13.4564
撓	-13.4565
咀	-13.4565
跛	-13.4565
榴	-13.4565
鄧	-13.4565
杭	-13.4565
銬	-13.4565
卦	-13.4565
趙	-13.4565
凶	-13.4565
炙	-13.4565
倭	-13.4565
惶	-13.4565
甸	-13.4565
昌	-13.4565
嘎	-13.4565
暱	-13.4565
慧	-13.4859
緘	-13.4859
嗝	-13.4859
姪	-13.486
羹	-13.486
薛	-13.486
鉗	-13.486
婁	-13.486
簧	-13.486
舔	-13.486
踪	-13.486
匙	-13.486
哄	-13.486
筍	-13.486
ê	-13.486
乒	-13.486
乓	-13.486
菅	-13.486
臘	-13.5162
啪	-13.5162
鋰	-13.5162
綏	-13.5163
鍼	-13.5163
眩	-13.5163
碾	-13.5163
穹	-13.5163
絀	-13.5163
傍	-13.5163
屎	-13.5163
殃	-13.5163
琢	-13.5163
藐	-13.5163
趴	-13.5163
辰	-13.5163
蜥	-13.5163
贅	-13.5163
摻	-13.5163
閘	-13.5163
肅	-13.5475
輾	-13.5475
灸	-13.5475
窪	-13.5475
会	-13.5475
壑	-13.5475
帷	-13.5475
范	-13.5475
詰	-13.5475
軒	-13.5475
鍍	-13.5475
鐮	-13.5475
戛	-13.5475
襟	-13.5475
楷	-13.5475
釷	-13.5475
吱	-13.5475
逞	-13.5475
体	-13.5475
粟	-13.5475
蛾	-13.5475
鳩	-13.5475
蕭	-13.5797
躬	-13.5798
舖	-13.5798
蔗	-13.5798
毗	-13.5798
御	-13.5798
覷	-13.5798
ł	-13.5798
咎	-13.5798
霾	-13.5798
葵	-13.5798
酚	-13.5798
膳	-13.5798
噗	-13.5798
寐	-13.5798
恣	-13.5798
掘	-13.6129
疼	-13.613
歹	-13.6131
孜	-13.6131
靡	-13.6131
咕	-13.6131
嚷	-13.6131
奬	-13.6131
岳	-13.6131
拌	-13.6131
蠕	-13.6131
錮	-13.6131
驢	-13.6131
唔	-13.6131
瘠	-13.6131
俏	-13.6131
沐	-13.6131
踝	-13.6131
霖	-13.6131
湛	-13.6131
濤	-13.6131
蜷	-13.6131
强	-13.6131
‰	-13.6131
煽	-13.6473
啡	-13.6476
譭	-13.6476
譁	-13.6476
遼	-13.6476
凳	-13.6476
穢	-13.6476
蔭	-13.6476
扳	-13.6476
漣	-13.6476
蒿	-13.6476
云	-13.6476
亭	-13.6476
澈	-13.6476
臆	-13.6476
蟎	-13.6476
拭	-13.6476
炬	-13.6476
鏢	-13.6476
够	-13.6476
鐸	-13.6476
侏	-13.6476
淑	-13.6476
〇	-13.6476
諭	-13.6476
齋	-13.6476
郭	-13.6476
玄	-13.6476
螳	-13.6476
‚	-13.6476
渠	-13.6831
嘶	-13.6833
呂	-13.6833
墾	-13.6833
撬	-13.6833
吝	-13.6833
濺	-13.6833
臼	-13.6833
諳	-13.6833
搔	-13.6833
曳	-13.6833
諦	-13.6833
睾	-13.6833
鶴	-13.6833
侃	-13.6833
砌	-13.6833
粥	-13.6833
鑣	-13.6833
仕	-13.6833
咆	-13.6833
允	-13.7194
斤	-13.7202
甦	-13.7203
茵	-13.7203
喙	-13.7203
恙	-13.7203
譚	-13.7203
哼	-13.7203
咚	-13.7203
燼	-13.7203
嗓	-13.7203
繡	-13.7203
芳	-13.7203
壕	-13.7203
沁	-13.7203
翰	-13.7587
秤	-13.7588
蔣	-13.7588
拂	-13.7588
痲	-13.7588
胳	-13.7588
ō	-13.7588
〞	-13.7588
恍	-13.7588
躉	-13.7588
鑲	-13.7588
鱗	-13.7588
	-13.7588
匣	-13.7588
檳	-13.7588
葫	-13.7588
鏟	-13.7588
俊	-13.7588
媚	-13.7588
槌	-13.7588
汪	-13.7588
褶	-13.7588
誨	-13.7988
®	-13.7988
苷	-13.7988
蜒	-13.7988
咯	-13.7988
蜿	-13.7988
鼬	-13.7988
^	-13.7988
蔚	-13.7988
顳	-13.7988
蹊	-13.7988
闔	-13.7988
鞘	-13.7988
僥	-13.7988
卒	-13.7988
嚥	-13.7988
檀	-13.7988
螈	-13.7988
尉	-13.7988
鄂	-13.7988
坍	-13.7988
証	-13.7988
跤	-13.7988
蛀	-13.7988
蚜	-13.7988
吾	-13.7988
蹩	-13.7988
‡	-13.7988
劈	-13.8405
敍	-13.8405
凋	-13.8405
憚	-13.8405
芋	-13.8405
腋	-13.8405
鎚	-13.8405
徐	-13.8405
慄	-13.8405
筏	-13.8405
篡	-13.8405
芮	-13.8405
虞	-13.8405
垢	-13.8405
嬌	-13.8405
捱	-13.8405
燦	-13.8405
醃	-13.8405
â	-13.8405
嚕	-13.8405
屹	-13.8405
苔	-13.8405
鈉	-13.8405
魟	-13.8405
焊	-13.8405
«	-13.8405
耿	-13.8405
鰻	-13.8405
萎	-13.8839
紹	-13.8839
簸	-13.8839
菊	-13.8839
蛤	-13.8839
亢	-13.8839
孰	-13.8839
暨	-13.8839
詫	-13.8839
样	-13.8839
猥	-13.8839
鐳	-13.8839
寇	-13.8839
恪	-13.8839
甥	-13.8839
膊	-13.8839
时	-13.8839
墻	-13.8839
抒	-13.8839
暮	-13.8839
邸	-13.8839
怡	-13.8839
楔	-13.8839
淌	-13.8839
鎂	-13.8839
啞	-13.8839
黜	-13.8839
扉	-13.8839
狙	-13.8839
汶	-13.884
饑	-13.9294
茉	-13.9294
邱	-13.9294
熨	-13.9294
睬	-13.9294
嗇	-13.9294
膛	-13.9294
怠	-13.9294
慚	-13.9294
揉	-13.9294
啃	-13.9294
廿	-13.9294
晝	-13.9294
窟	-13.9294
腱	-13.9294
褓	-13.9294
詠	-13.9294
蹄	-13.9294
徽	-13.9294
琉	-13.9294
耽	-13.9294
鉢	-13.9294
鋅	-13.9294
弛	-13.9294
裘	-13.9294
噶	-13.9294
实	-13.9294
翩	-13.9294
繽	-13.9294
梢	-13.9294
扼	-13.977
綴	-13.977
氈	-13.977
揍	-13.977
硏	-13.977
窯	-13.977
鈈	-13.977
擡	-13.977
种	-13.977
说	-13.977
鈦	-13.977
冉	-13.977
潦	-13.977
拴	-13.977
枉	-13.977
¿	-13.977
嫖	-13.977
纂	-13.977
爹	-13.977
¤	-13.977
哉	-13.977
痘	-13.977
咻	-13.977
殷	-13.977
质	-13.977
罹	-14.027
稜	-14.027
旭	-14.027
¢	-14.027
桅	-14.027
餬	-14.027
甄	-14.027
酌	-14.027
伺	-14.027
竈	-14.027
誅	-14.027
娼	-14.027
掰	-14.027
肽	-14.027
胥	-14.027
亙	-14.027
絃	-14.027
聶	-14.027
醛	-14.027
鉀	-14.027
晾	-14.027
燴	-14.027
逕	-14.027
硝	-14.027
簇	-14.027
宋	-14.027
曰	-14.027
¶	-14.027
憾	-14.0796
醋	-14.0796
侄	-14.0796
軼	-14.0796
嘖	-14.0796
灶	-14.0796
髏	-14.0796
±	-14.0796
佣	-14.0796
愕	-14.0796
舶	-14.0796
蝟	-14.0796
譏	-14.0796
●	-14.0796
咽	-14.0796
欸	-14.0796
祟	-14.0796
肛	-14.0796
霉	-14.0796
骷	-14.0796
鲁	-14.0796
𥚃	-14.0796
唷	-14.0796
孝	-14.0796
厥	-14.0796
懊	-14.0796
疽	-14.0796
詬	-14.0796
貽	-14.0796
礫	-14.0796
朊	-14.0796
ˆ	-14.0797
忒	-14.0797
婿	-14.1352
迂	-14.1352
冀	-14.1352
庶	-14.1352
擰	-14.1352
叨	-14.1352
啼	-14.1352
菩	-14.1352
蒲	-14.1352
藹	-14.1352
櫻	-14.1352
蕈	-14.1352
蹋	-14.1352
ø	-14.1352
唬	-14.1352
喲	-14.1352
嗒	-14.1352
嘍	-14.1352
囿	-14.1352
奸	-14.1352
弔	-14.1352
樺	-14.1352
辟	-14.1352
*	-14.1352
燎	-14.1352
穗	-14.1352
覬	-14.1352
攢	-14.1352
桂	-14.1352
还	-14.1352
閹	-14.1352
柬	-14.1352
滄	-14.1352
訐	-14.1352
遐	-14.1352
冶	-14.1352
›	-14.194
鷗	-14.194
咧	-14.194
揪	-14.194
慫	-14.194
憋	-14.194
捅	-14.194
涓	-14.194
别	-14.194
巖	-14.194
嚎	-14.194
眺	-14.194
矣	-14.194
贓	-14.194
媛	-14.194
涕	-14.194
犁	-14.194
现	-14.194
腓	-14.194
臍	-14.194
掐	-14.194
眷	-14.194
繚	-14.194
迸	-14.194
顔	-14.194
奥	-14.194
滌	-14.194
衹	-14.194
间	-14.194
决	-14.194
瑙	-14.194
吠	-14.194
蟾	-14.194
嘯	-14.2563
睛	-14.2564
湍	-14.2565
姻	-14.2565
蔓	-14.2565
隘	-14.2565
宙	-14.2565
驕	-14.2565
啄	-14.2565
釦	-14.2565
据	-14.2565
螫	-14.2565
▪	-14.2565
统	-14.2565
儼	-14.2565
賑	-14.2565
絛	-14.2565
薑	-14.2565
嗑	-14.2565
殉	-14.2565
妃	-14.2565
甫	-14.2565
嵗	-14.2565
胜	-14.2565
蚱	-14.2565
鯉	-14.2565
弩	-14.2565
忿	-14.2565
朦	-14.2565
絢	-14.2565
繕	-14.2565
>	-14.2565
×	-14.2565
维	-14.2565
臻	-14.2565
孽	-14.2565
夯	-14.2565
弘	-14.2565
<	-14.2565
鞍	-14.2565
	-14.2565
鉭	-14.2565
豚	-14.323
峻	-14.3232
膨	-14.3232
汞	-14.3232
蠍	-14.3232
噱	-14.3232
耆	-14.3232
鰓	-14.3232
阪	-14.3232
瘀	-14.3232
祿	-14.3232
簷	-14.3232
	-14.3232
剽	-14.3232
滙	-14.3232
唆	-14.3232
幢	-14.3232
揀	-14.3232
柚	-14.3232
遁	-14.3232
遨	-14.3232
匈	-14.3232
蟒	-14.3232
㚈	-14.3232
緹	-14.3232
幷	-14.3232
擘	-14.3232
黒	-14.3232
横	-14.3232
鐺	-14.3232
过	-14.3232
ÿ	-14.3232
籲	-14.3946
蔬	-14.3946
縛	-14.3946
誣	-14.3946
崑	-14.3946
殲	-14.3946
睽	-14.3946
ƒ	-14.3946
β	-14.3946
餾	-14.3946
潟	-14.3946
瘁	-14.3946
眶	-14.3946
殯	-14.3946
撩	-14.3946
淒	-14.3946
熾	-14.3946
癱	-14.3946
砷	-14.3946
綺	-14.3946
蜢	-14.3946
学	-14.3946
泯	-14.3946
滕	-14.3946
辮	-14.3946
俚	-14.3946
轆	-14.3946
鰲	-14.3946
熠	-14.3946
硼	-14.3946
荊	-14.3946
豈	-14.3946
醯	-14.3946
毁	-14.3946
磕	-14.3946
酯	-14.3946
蘚	-14.3946
©	-14.3946
蚤	-14.3946
濛	-14.3946
	-14.3946
輻	-14.4715
叩	-14.4715
啜	-14.4715
寮	-14.4715
吮	-14.4715
恃	-14.4715
远	-14.4715
徠	-14.4715
籽	-14.4715
銹	-14.4715
氚	-14.4715
羔	-14.4715
蝗	-14.4715
发	-14.4715
拮	-14.4715
蝨	-14.4715
妲	-14.4715
拗	-14.4715
畔	-14.4715
謨	-14.4715
嘩	-14.4715
鴕	-14.4715
馨	-14.4715
垣	-14.4715
斟	-14.4715
涇	-14.4715
釜	-14.4715
琥	-14.4715
见	-14.4715
遛	-14.4715
动	-14.4715
蒜	-14.4715
儂	-14.4715
榖	-14.4715
喃	-14.4716
麋	-14.4716
怖	-14.5549
磺	-14.5549
絮	-14.5549
伶	-14.5549
镜	-14.5549
耙	-14.5549
兢	-14.5549
纳	-14.5549
踞	-14.5549
醚	-14.5549
鐐	-14.5549
变	-14.5549
媾	-14.5549
腮	-14.5549
膺	-14.5549
掂	-14.5549
麟	-14.5549
噤	-14.5549
酥	-14.5549
麩	-14.5549
ā	-14.5549
ş	-14.5549
澇	-14.5549
蛹	-14.5549
陲	-14.5549
ë	-14.5549
宵	-14.5549
悽	-14.5549
擧	-14.5549
涎	-14.5549
膿	-14.5549
鬣	-14.5549
却	-14.5549
柢	-14.5549
燉	-14.5549
秦	-14.5549
丶	-14.5549
宫	-14.5549
扈	-14.5549
闌	-14.5549
¡	-14.5549
鉑	-14.5549
剿	-14.5549
瑩	-14.5549
霓	-14.5549
蔻	-14.5549
颳	-14.5549
验	-14.5549
淤	-14.6458
菱	-14.6458
嚙	-14.6458
‹	-14.6458
崖	-14.6458
窿	-14.6458
扒	-14.6458
嘟	-14.6458
摟	-14.6458
沓	-14.6458
慼	-14.6458
昰	-14.6458
鈞	-14.6458
鯛	-14.6458
噹	-14.6458
蛆	-14.6458
衊	-14.6458
訛	-14.6458
‐	-14.6458
给	-14.6458
廖	-14.6458
窖	-14.6458
薰	-14.6458
鈳	-14.6458
楣	-14.6458
箔	-14.6458
譎	-14.6458
撻	-14.6458
宕	-14.6458
琦	-14.6458
呱	-14.6458
廬	-14.6458
璨	-14.6458
†	-14.6458
从	-14.6458
屯	-14.6458
¦	-14.6458
万	-14.6458
处	-14.7458
愜	-14.7458
脚	-14.7458
鎘	-14.7458
媳	-14.7458
緞	-14.7458
î	-14.7458
熒	-14.7458
−	-14.7458
刁	-14.7458
菠	-14.7458
凈	-14.7458
啾	-14.7458
憔	-14.7458
戎	-14.7458
礅	-14.7458
祇	-14.7458
閲	-14.7458
靚	-14.7458
ğ	-14.7458
‒	-14.7458
俐	-14.7458
嫺	-14.7458
悴	-14.7458
憩	-14.7458
攘	-14.7458
訕	-14.7458
黝	-14.7458
幡	-14.7458
α	-14.7458
卅	-14.7458
咨	-14.7458
潢	-14.7458
炊	-14.7458
蟬	-14.7458
隼	-14.7458
鶩	-14.7458
幀	-14.7458
氰	-14.7458
关	-14.7458
摹	-14.7458
縝	-14.7458
醺	-14.7458
叟	-14.7458
榻	-14.7458
蝓	-14.7458
軋	-14.7458
磯	-14.7458
约	-14.7458
竣	-14.7458
胼	-14.7458
蛞	-14.7458
禦	-14.8568
戮	-14.8568
鎊	-14.8568
沫	-14.8569
箋	-14.8569
岑	-14.8569
錳	-14.8569
惺	-14.8569
拽	-14.8569
气	-14.8569
罄	-14.8569
鯡	-14.8569
饉	-14.8569
頜	-14.8569
嬸	-14.8569
鈎	-14.8569
懵	-14.8569
謔	-14.8569
搓	-14.8569
觴	-14.8569
兰	-14.8569
咐	-14.8569
綑	-14.8569
缩	-14.8569
蜇	-14.8569
鎢	-14.8569
孳	-14.8569
篝	-14.8569
聒	-14.8569
蛄	-14.8569
鞦	-14.8569
韆	-14.8569
ù	-14.8569
ē	-14.8569
̊	-14.8569
呲	-14.8569
咔	-14.8569
啵	-14.8569
嗣	-14.8569
壹	-14.8569
惦	-14.8569
戾	-14.8569
捶	-14.8569
磐	-14.8569
筷	-14.8569
翌	-14.8569
螨	-14.8569
踱	-14.8569
徉	-14.8569
戟	-14.8569
殻	-14.8569
濁	-14.8569
烴	-14.8569
痾	-14.8569
驁	-14.8569
俳	-14.8569
徜	-14.8569
燻	-14.8569
竇	-14.8569
擂	-14.8569
术	-14.8569
桀	-14.8569
璀	-14.8569
踴	-14.8569
隅	-14.8569
亥	-14.8569
对	-14.8569
刹	-14.8569
嗆	-14.8569
淩	-14.8569
睫	-14.8569
糜	-14.8569
结	-14.8569
尔	-14.8569
迹	-14.8569
沂	-14.8569
胝	-14.8569
抛	-14.8569
恢	-14.9818
壟	-14.9818
离	-14.9819
棣	-14.9819
温	-14.9819
μ	-14.9819
嫂	-14.9819
碘	-14.9819
π	-14.9819
芻	-14.9819
霎	-14.9819
騖	-14.9819
怦	-14.9819
擒	-14.9819
襁	-14.9819
嘮	-14.9819
孿	-14.9819
慵	-14.9819
頤	-14.9819
压	-14.9819
岱	-14.9819
拈	-14.9819
瘙	-14.9819
盹	-14.9819
氘	-14.9819
脉	-14.9819
褒	-14.9819
鋃	-14.9819
鎳	-14.9819
阳	-14.9819
题	-14.9819
黷	-14.9819
§	-14.9819
彷	-14.9819
惚	-14.9819
蜀	-14.9819
襄	-14.9819
韜	-14.9819
饗	-14.9819
鷄	-14.9819
δ	-14.9819
垠	-14.9819
孑	-14.9819
殞	-14.9819
渙	-14.9819
湮	-14.9819
瓢	-14.9819
糗	-14.9819
蜚	-14.9819
諂	-14.9819
蹭	-14.9819
轨	-14.9819
餿	-14.9819
佇	-14.9819
癬	-14.9819
黍	-14.9819
勺	-14.9819
坤	-14.9819
恬	-14.9819
斕	-14.9819
翡	-14.9819
聵	-14.9819
余	-14.9819
祀	-14.9819
粱	-14.9819
忖	-14.9819
曹	-14.9819
樽	-14.9819
国	-14.9819
綵	-14.9819
减	-14.9819
曦	-14.9819
茴	-14.9819
央	-15.1226
睏	-15.1247
蒐	-15.1247
甾	-15.1247
獺	-15.1247
笞	-15.1247
嘀	-15.1247
娓	-15.1247
訥	-15.1247
餃	-15.1247
叼	-15.1247
廝	-15.1247
藜	-15.1247
蛭	-15.1247
蓉	-15.1247
軔	-15.1247
彬	-15.1247
极	-15.1247
瞇	-15.1247
霆	-15.1247
静	-15.1247
〕	-15.1247
搆	-15.1247
柿	-15.1247
涂	-15.1247
耘	-15.1247
膈	-15.1247
鈷	-15.1247
鉻	-15.1247
雹	-15.1247
嘰	-15.1247
廄	-15.1247
敝	-15.1247
瑯	-15.1247
稔	-15.1247
繮	-15.1247
芹	-15.1247
帑	-15.1248
ì	-15.1248
č	-15.1248
ı	-15.1248
ε	-15.1248
〝	-15.1248
咸	-15.1248
婊	-15.1248
数	-15.1248
橈	-15.1248
砝	-15.1248
耄	-15.1248
蕨	-15.1248
揶	-15.1248
菍	-15.1248
奐	-15.1248
暸	-15.1248
椋	-15.1248
琵	-15.1248
腑	-15.1248
躑	-15.1248
鑷	-15.1248
剥	-15.1248
孀	-15.1248
愿	-15.1248
痰	-15.1248
稈	-15.1248
奚	-15.1248
揄	-15.1248
蜍	-15.1248
¬	-15.1248
吏	-15.1248
涌	-15.1248
装	-15.1248
哽	-15.1248
棧	-15.1248
踊	-15.1248
踰	-15.1248
卉	-15.1248
糅	-15.1248
敎	-15.1248
汚	-15.1248
糰	-15.1248
皰	-15.1248
徳	-15.1248
茜	-15.1248
“	-15.2642
訟	-15.2871
拚	-15.2914
胚	-15.2914
进	-15.2914
羥	-15.2914
屌	-15.2914
〔	-15.2914
昴	-15.2914
莢	-15.2914
单	-15.2914
细	-15.2914
羸	-15.2914
訇	-15.2914
銫	-15.2914
瘸	-15.2914
蚣	-15.2914
啕	-15.2914
踉	-15.2914
凜	-15.2914
璇	-15.2914
帚	-15.2914
樵	-15.2914
瞌	-15.2914
矜	-15.2914
苣	-15.2914
萵	-15.2914
蜈	-15.2914
躅	-15.2914
	-15.2914
俎	-15.2914
匕	-15.2914
巋	-15.2914
幔	-15.2914
点	-15.2914
蝎	-15.2914
袓	-15.2914
认	-15.2914
邋	-15.2914
銻	-15.2914
騾	-15.2914
鮫	-15.2914
遢	-15.2914
`	-15.2914
ي	-15.2914
两	-15.2914
丫	-15.2914
伕	-15.2914
囘	-15.2914
图	-15.2914
嫻	-15.2914
旼	-15.2914
玲	-15.2914
珉	-15.2914
祐	-15.2914
籟	-15.2914
粕	-15.2914
裴	-15.2914
蹌	-15.2914
酣	-15.2914
駡	-15.2914
ī	-15.2914
م	-15.2914
东	-15.2914
劊	-15.2914
咦	-15.2914
唑	-15.2914
噎	-15.2914
坨	-15.2914
塹	-15.2914
宝	-15.2914
崽	-15.2914
摀	-15.2914
旳	-15.2914
湎	-15.2914
痣	-15.2914
瞼	-15.2914
箍	-15.2914
藕	-15.2914
蜃	-15.2914
訢	-15.2914
謅	-15.2914
费	-15.2914
逹	-15.2914
餑	-15.2914
齦	-15.2914
喹	-15.2914
孓	-15.2914
惋	-15.2914
攙	-15.2914
椿	-15.2914
疣	-15.2914
鐧	-15.2914
踹	-15.2914
况	-15.2914
寰	-15.2914
摞	-15.2914
擄	-15.2914
茹	-15.2914
誒	-15.2914
踮	-15.2914
郁	-15.2914
鵰	-15.2914
倔	-15.2914
儸	-15.2914
懨	-15.2914
肼	-15.2914
鱸	-15.2914
咿	-15.2914
开	-15.2914
惴	-15.2914
舐	-15.2914
逡	-15.2914
释	-15.2914
僭	-15.2914
榭	-15.2914
犛	-15.2914
脱	-15.2914
讲	-15.2914
貂	-15.2914
经	-15.2914
鹵	-15.2914
红	-15.2914
ل	-15.2914
劵	-15.2914
紕	-15.2914
运	-15.2914
鐲	-15.2914
襬	-15.2914
澎	-15.2914
琅	-15.2914
赭	-15.2914
愣	-15.2914
駸	-15.2914
査	-15.2914
岐	-15.2915
聆	-15.4911
薈	-15.4913
捍	-15.4914
鈽	-15.4914
ω	-15.4914
蕙	-15.4914
寻	-15.4914
妞	-15.4914
榕	-15.4914
螯	-15.4914
壅	-15.4914
层	-15.4914
蜊	-15.4914
际	-15.4914
叠	-15.4914
终	-15.4914
錠	-15.4914
键	-15.4914
陛	-15.4914
鱒	-15.4914
嵴	-15.4914
毎	-15.4914
氡	-15.4914
亚	-15.4914
佝	-15.4914
吩	-15.4914
呸	-15.4914
无	-15.4914
椘	-15.4914
砧	-15.4914
禾	-15.4914
翫	-15.4914
胯	-15.4914
髂	-15.4914
鵑	-15.4914
嗖	-15.4914
囓	-15.4914
暉	-15.4914
樟	-15.4914
獷	-15.4914
羯	-15.4914
鬃	-15.4914
满	-15.4914
甕	-15.4914
轻	-15.4914
ę	-15.4914
僂	-15.4914
区	-15.4914
卹	-15.4914
呐	-15.4914
唵	-15.4914
嚓	-15.4914
嵐	-15.4914
幗	-15.4914
弋	-15.4914
悸	-15.4914
浙	-15.4914
濬	-15.4914
獰	-15.4914
胭	-15.4914
腴	-15.4914
蒞	-15.4914
鏘	-15.4914
靨	-15.4914
吭	-15.4914
呦	-15.4914
戊	-15.4914
歴	-15.4914
猙	-15.4914
耋	-15.4914
腆	-15.4914
褥	-15.4914
蹬	-15.4914
黄	-15.4914
倏	-15.4914
埸	-15.4914
将	-15.4914
栗	-15.4914
沽	-15.4914
獾	-15.4914
琺	-15.4914
碴	-15.4914
让	-15.4914
证	-15.4914
倣	-15.4914
剁	-15.4914
徇	-15.4914
攥	-15.4914
简	-15.4914
諛	-15.4914
达	-15.4914
酩	-15.4914
鋤	-15.4914
难	-15.4914
厨	-15.4914
懣	-15.4914
杳	-15.4914
璐	-15.4914
纽	-15.4914
葦	-15.4914
諉	-15.4914
衪	-15.4914
仟	-15.4914
暹	-15.4914
殫	-15.4914
釉	-15.4914
渝	-15.4914
叙	-15.4914
测	-15.4914
滬	-15.4914
圃	-15.4914
祼	-15.4914
论	-15.4914
鏞	-15.4914
靛	-15.4914
卯	-15.4914
娛	-15.7413
擎	-15.7413
璜	-15.7414
蛉	-15.7414
ľ	-15.7414
汝	-15.7414
舆	-15.7414
鼴	-15.7414
寳	-15.7414
贗	-15.7414
啖	-15.7414
莠	-15.7414
螞	-15.7414
偕	-15.7414
啉	-15.7414
盥	-15.7414
竺	-15.7414
諄	-15.7414
譟	-15.7414
輓	-15.7414
铃	-15.7414
萨	-15.7414
銲	-15.7414
龔	-15.7414
儆	-15.7414
刨	-15.7414
孃	-15.7414
岁	-15.7414
怀	-15.7414
愫	-15.7414
拄	-15.7414
柺	-15.7414
玆	-15.7414
竽	-15.7414
苜	-15.7414
莞	-15.7414
蟄	-15.7414
鐡	-15.7414
烊	-15.7414
謄	-15.7414
佻	-15.7414
嗷	-15.7414
嫡	-15.7414
捎	-15.7414
浬	-15.7414
潜	-15.7414
硒	-15.7414
葷	-15.7414
蓿	-15.7414
鉸	-15.7414
銖	-15.7414
髪	-15.7414
鷸	-15.7414
鷿	-15.7414
噘	-15.7414
嬴	-15.7414
磗	-15.7414
萍	-15.7414
顴	-15.7414
	-15.7414
ð	-15.7414
偎	-15.7414
儿	-15.7414
刋	-15.7414
匍	-15.7414
匝	-15.7414
咩	-15.7414
唳	-15.7414
喳	-15.7414
娣	-15.7414
峨	-15.7414
徴	-15.7414
撙	-15.7414
敖	-15.7414
桁	-15.7414
棗	-15.7414
櫛	-15.7414
猩	-15.7414
獠	-15.7414
痞	-15.7414
痠	-15.7414
盘	-15.7414
祢	-15.7414
粑	-15.7414
脛	-15.7414
臠	-15.7414
葩	-15.7414
蛔	-15.7414
袞	-15.7414
褸	-15.7414
襤	-15.7414
謐	-15.7414
诉	-15.7414
貉	-15.7414
跃	-15.7414
跺	-15.7414
蹙	-15.7414
迢	-15.7414
銑	-15.7414
鎬	-15.7414
鎵	-15.7414
闕	-15.7414
问	-15.7414
顿	-15.7414
駿	-15.7414
鰩	-15.7414
鱖	-15.7414
鷈	-15.7414
麴	-15.7414
鼾	-15.7414
巒	-15.7414
忑	-15.7414
犠	-15.7414
痂	-15.7414
聿	-15.7414
谢	-15.7414
‬	-15.7414
勛	-15.7414
嶽	-15.7414
搧	-15.7414
攆	-15.7414
状	-15.7414
猫	-15.7414
耦	-15.7414
脯	-15.7414
諤	-15.7414
话	-15.7414
賒	-15.7414
赢	-15.7414
跎	-15.7414
鋨	-15.7414
閂	-15.7414
麓	-15.7414
黠	-15.7414
佷	-15.7414
匐	-15.7414
尹	-15.7414
彆	-15.7414
户	-15.7414
礬	-15.7414
观	-15.7414
诺	-15.7414
蹉	-15.7414
躡	-15.7414
鑼	-15.7414
韃	-15.7414
飈	-15.7414
圣	-15.7414
墩	-15.7414
瓏	-15.7414
粼	-15.7414
该	-15.7414
当	-15.7414
浣	-15.7414
犢	-15.7414
疥	-15.7414
罗	-15.7414
蕞	-15.7414
邵	-15.7414
酊	-15.7414
鉚	-15.7414
须	-15.7414
偃	-15.7414
换	-15.7414
淬	-15.7414
緃	-15.7414
澹	-15.7414
绍	-15.7414
羡	-15.7414
鯖	-15.7414
س	-15.7414
ع	-15.7414
燜	-15.7414
试	-15.7414
梆	-15.7414
与	-15.7414
湃	-15.7415
;	-16.0477
苑	-16.0747
拯	-16.0747
银	-16.0747
淳	-16.0747
携	-16.0747
徙	-16.0747
酰	-16.0747
捭	-16.0747
増	-16.0747
剧	-16.0747
哢	-16.0747
艮	-16.0747
躥	-16.0747
酐	-16.0747
釙	-16.0747
餞	-16.0747
鴯	-16.0747
鶓	-16.0747
嘌	-16.0747
祗	-16.0747
舷	-16.0747
豫	-16.0747
鏖	-16.0747
产	-16.0747
俟	-16.0747
参	-16.0747
叱	-16.0747
吒	-16.0747
彪	-16.0747
斋	-16.0747
楓	-16.0747
滇	-16.0747
瀨	-16.0747
癆	-16.0747
祛	-16.0747
葆	-16.0747
较	-16.0747
鎗	-16.0747
騁	-16.0747
鯽	-16.0747
抺	-16.0747
匾	-16.0747
呤	-16.0747
响	-16.0747
嗦	-16.0747
嚒	-16.0747
壆	-16.0747
壬	-16.0747
嫚	-16.0747
寅	-16.0747
徧	-16.0747
捂	-16.0747
搪	-16.0747
撣	-16.0747
梧	-16.0747
殄	-16.0747
犒	-16.0747
猬	-16.0747
癟	-16.0747
确	-16.0747
箂	-16.0747
缽	-16.0747
罈	-16.0747
藴	-16.0747
虻	-16.0747
袁	-16.0747
豺	-16.0747
鍁	-16.0747
鑚	-16.0747
随	-16.0747
隣	-16.0747
韁	-16.0747
鱔	-16.0747
麝	-16.0747
ż	-16.0748
ʾ	-16.0748
τ	-16.0748
χ	-16.0748
′	-16.0748
∙	-16.0748
の	-16.0748
㖿	-16.0748
僮	-16.0748
兹	-16.0748
叵	-16.0748
啷	-16.0748
嘭	-16.0748
囧	-16.0748
块	-16.0748
堿	-16.0748
奕	-16.0748
婴	-16.0748
帮	-16.0748
张	-16.0748
彤	-16.0748
徨	-16.0748
忐	-16.0748
忝	-16.0748
杓	-16.0748
杠	-16.0748
枰	-16.0748
枱	-16.0748
柑	-16.0748
槁	-16.0748
檄	-16.0748
檜	-16.0748
歿	-16.0748
涷	-16.0748
瀟	-16.0748
灯	-16.0748
燧	-16.0748
燿	-16.0748
町	-16.0748
癸	-16.0748
皙	-16.0748
礪	-16.0748
秃	-16.0748
积	-16.0748
笙	-16.0748
箝	-16.0748
籮	-16.0748
罝	-16.0748
舀	-16.0748
苞	-16.0748
苺	-16.0748
蜱	-16.0748
螽	-16.0748
裱	-16.0748
譙	-16.0748
踫	-16.0748
蹼	-16.0748
輊	-16.0748
载	-16.0748
鈹	-16.0748
銨	-16.0748
録	-16.0748
鏗	-16.0748
雯	-16.0748
靼	-16.0748
鞅	-16.0748
颼	-16.0748
饞	-16.0748
驍	-16.0748
鬨	-16.0748
鳶	-16.0748
鶯	-16.0748
鷺	-16.0748
鹅	-16.0748
	-16.0748
唏	-16.0748
尽	-16.0748
搥	-16.0748
瘻	-16.0748
瞅	-16.0748
鎝	-16.0748
‭	-16.0748
崁	-16.0748
广	-16.0748
彫	-16.0748
怙	-16.0748
桔	-16.0748
氪	-16.0748
称	-16.0748
簣	-16.0748
蕁	-16.0748
薔	-16.0748
蚕	-16.0748
适	-16.0748
鈀	-16.0748
鎩	-16.0748
閑	-16.0748
閨	-16.0748
隠	-16.0748
鵬	-16.0748
	-16.0748
о	-16.0748
侧	-16.0748
冪	-16.0748
唄	-16.0748
巍	-16.0748
庾	-16.0748
战	-16.0748
摳	-16.0748
楠	-16.0748
樊	-16.0748
滓	-16.0748
烽	-16.0748
环	-16.0748
皎	-16.0748
规	-16.0748
鋯	-16.0748
岬	-16.0748
应	-16.0748
残	-16.0748
长	-16.0748
剌	-16.0748
圴	-16.0748
拎	-16.0748
暄	-16.0748
滚	-16.0748
轤	-16.0748
筑	-16.0748
搡	-16.0748
痿	-16.0748
豢	-16.0748
隷	-16.0748
领	-16.0748
亳	-16.0748
鍰	-16.0748
廸	-16.0748
飞	-16.0748
喵	-16.0748
!	-16.548
崛	-16.5743
萸	-16.5746
飴	-16.5747
侷	-16.5747
冲	-16.5747
鉆	-16.5747
黽	-16.5747
捫	-16.5747
槨	-16.5747
頇	-16.5747
顢	-16.5747
导	-16.5747
蘋	-16.5747
葺	-16.5747
鱘	-16.5747
仅	-16.5747
阱	-16.5747
刈	-16.5747
崴	-16.5747
懟	-16.5747
沬	-16.5747
淅	-16.5747
濡	-16.5747
节	-16.5747
裳	-16.5747
许	-16.5747
鐫	-16.5747
閻	-16.5747
馱	-16.5747
复	-16.5747
擢	-16.5747
洐	-16.5747
譴	-16.5747
鵟	-16.5747
	-16.5747
仆	-16.5747
僈	-16.5747
吖	-16.5747
弒	-16.5747
惆	-16.5747
漱	-16.5747
猁	-16.5747
珂	-16.5747
穏	-16.5747
粵	-16.5747
糠	-16.5747
缓	-16.5747
编	-16.5747
罅	-16.5747
羲	-16.5747
袐	-16.5747
諢	-16.5747
赳	-16.5747
躂	-16.5747
醍	-16.5747
醐	-16.5747
雁	-16.5747
髯	-16.5747
鰺	-16.5747
鲔	-16.5747
ص	-16.5747
亲	-16.5747
倂	-16.5747
卍	-16.5747
啁	-16.5747
带	-16.5747
幺	-16.5747
庖	-16.5747
挐	-16.5747
撳	-16.5747
断	-16.5747
歩	-16.5747
燄	-16.5747
獃	-16.5747
疝	-16.5747
盂	-16.5747
矞	-16.5747
秧	-16.5747
筛	-16.5747
类	-16.5747
负	-16.5747
赖	-16.5747
踨	-16.5747
输	-16.5747
预	-16.5747
鰹	-16.5747
鼩	-16.5747
ș	-16.5747
怔	-16.5747
溴	-16.5747
蚵	-16.5747
赚	-16.5747
项	-16.5747
ă	-16.5748
ū	-16.5748
ˊ	-16.5748
γ	-16.5748
φ	-16.5748
в	-16.5748
ة	-16.5748
د	-16.5748
ط	-16.5748
ك	-16.5748
ن	-16.5748
ه	-16.5748
و	-16.5748
प	-16.5748
म	-16.5748
े	-16.5748
∇	-16.5748
♯	-16.5748
き	-16.5748
れ	-16.5748
ㄟ	-16.5748
丢	-16.5748
价	-16.5748
众	-16.5748
偌	-16.5748
傌	-16.5748
傚	-16.5748
儍	-16.5748
党	-16.5748
兴	-16.5748
卧	-16.5748
厠	-16.5748
吓	-16.5748
咂	-16.5748
唁	-16.5748
喑	-16.5748
喷	-16.5748
坩	-16.5748
垃	-16.5748
堝	-16.5748
堰	-16.5748
塲	-16.5748
头	-16.5748
妍	-16.5748
娑	-16.5748
婷	-16.5748
嫵	-16.5748
屣	-16.5748
岀	-16.5748
崢	-16.5748
嶸	-16.5748
幄	-16.5748
态	-16.5748
怵	-16.5748
悵	-16.5748
悻	-16.5748
愴	-16.5748
憨	-16.5748
担	-16.5748
挈	-16.5748
揩	-16.5748
摰	-16.5748
晩	-16.5748
曜	-16.5748
机	-16.5748
栿	-16.5748
桐	-16.5748
榚	-16.5748
槐	-16.5748
樍	-16.5748
欢	-16.5748
氂	-16.5748
氙	-16.5748
泱	-16.5748
焗	-16.5748
熏	-16.5748
猞	-16.5748
玳	-16.5748
琶	-16.5748
瑁	-16.5748
璧	-16.5748
甯	-16.5748
电	-16.5748
痤	-16.5748
瘴	-16.5748
皚	-16.5748
眀	-16.5748
碁	-16.5748
祸	-16.5748
秏	-16.5748
秣	-16.5748
秸	-16.5748
稷	-16.5748
笫	-16.5748
筱	-16.5748
綹	-16.5748
纍	-16.5748
纹	-16.5748
续	-16.5748
缝	-16.5748
耹	-16.5748
聴	-16.5748
脢	-16.5748
臊	-16.5748
艄	-16.5748
苒	-16.5748
荏	-16.5748
萋	-16.5748
葱	-16.5748
蓝	-16.5748
藪	-16.5748
螻	-16.5748
蠹	-16.5748
裇	-16.5748
褺	-16.5748
襞	-16.5748
覲	-16.5748
賁	-16.5748
趄	-16.5748
趔	-16.5748
跩	-16.5748
軛	-16.5748
边	-16.5748
銥	-16.5748
鎧	-16.5748
针	-16.5748
阮	-16.5748
雋	-16.5748
雾	-16.5748
韙	-16.5748
頦	-16.5748
顰	-16.5748
页	-16.5748
饌	-16.5748
饕	-16.5748
饜	-16.5748
馥	-16.5748
驛	-16.5748
髻	-16.5748
鯰	-16.5748
鯷	-16.5748
鲜	-16.5748
鴇	-16.5748
鵜	-16.5748
鸛	-16.5748
齙	-16.5748
寛	-16.5748
擕	-16.5748
杵	-16.5748
歛	-16.5748
ą	-16.5748
ㄠ	-16.5748
冽	-16.5748
奖	-16.5748
峡	-16.5748
帛	-16.5748
挂	-16.5748
显	-16.5748
漾	-16.5748
潸	-16.5748
璞	-16.5748
瘓	-16.5748
盗	-16.5748
磊	-16.5748
緲	-16.5748
縹	-16.5748
级	-16.5748
组	-16.5748
绝	-16.5748
罂	-16.5748
茬	-16.5748
莱	-16.5748
莾	-16.5748
虽	-16.5748
蚩	-16.5748
蝿	-16.5748
褔	-16.5748
詣	-16.5748
计	-16.5748
鶇	-16.5748
鶘	-16.5748
鶥	-16.5748
摑	-16.5748
м	-16.5748
ы	-16.5748
र	-16.5748
्	-16.5748
亿	-16.5748
妁	-16.5748
娌	-16.5748
孺	-16.5748
屐	-16.5748
师	-16.5748
异	-16.5748
戏	-16.5748
捺	-16.5748
擤	-16.5748
昵	-16.5748
柩	-16.5748
楞	-16.5748
沱	-16.5748
潺	-16.5748
爱	-16.5748
瘾	-16.5748
眸	-16.5748
瞟	-16.5748
祆	-16.5748
稳	-16.5748
芘	-16.5748
荻	-16.5748
詔	-16.5748
鍺	-16.5748
鴆	-16.5748
哂	-16.5748
帙	-16.5748
晒	-16.5748
猪	-16.5748
褫	-16.5748
鍥	-16.5748
→	-16.5748
养	-16.5748
厮	-16.5748
峋	-16.5748
嶙	-16.5748
戯	-16.5748
扺	-16.5748
烱	-16.5748
禰	-16.5748
窥	-16.5748
筐	-16.5748
篪	-16.5748
线	-16.5748
翎	-16.5748
讖	-16.5748
请	-16.5748
资	-16.5748
转	-16.5748
邇	-16.5748
颗	-16.5748
籓	-16.5748
码	-16.5748
蕯	-16.5748
洄	-16.5748
吗	-16.5748
彿	-16.5748
赧	-16.5748
餽	-16.5748
画	-16.5748
紈	-16.5748
总	-17.5457
่	-17.5458
[...]
