▁, 1521046
▁ 777434
▁the 662853
▁. 642096
s 605926
▁。 494124
的 486592
▁and 381002
▁to 373115
▁of 340642
▁a 298161
▁in 262245
▁that 222263
' 180525
▁is 167698
ing 148661
▁it 148176
ed 135459
▁i 132164
t 118419
▁" 116147
▁we 115589
和 112594
▁for 104575
▁you 103542
在 98021
▁this 94471
了 91535
是 87915
▁? 83111
d 80522
▁be 80297
▁are 77553
、 75070
’ 74793
▁but 74685
▁on 74429
▁as 73916
▁with 73254
ly 73220
: 69759
▁have 69131
▁they 68123
▁so 67449
▁was 64549
▁not 61397
▁can 51345
▁by 50423
有 49608
▁at 49140
re 48334
▁from 47560
▁what 47222
▁an 46703
▁我 45714
不 43476
中 43138
▁– 42686
▁or 42319
▁more 42216
▁all 41936
▁has 41901
上 41008
▁there 40289
人 40036
▁about 39969
y 39955
我們 39873
m 39766
▁their 39543
我 38659
▁one 38584
▁us 38043
▁但 37937
e 37848
對 37693
▁will 37271
會 36699
▁do 36680
▁我們 36494
er 36370
n 36105
▁if 36017
▁people 34774
▁he 33694
▁would 33124
▁like 32617
到 32199
▁在 32098
▁my 31468
年 31230
▁when 30952
來 30560
▁our 30238
將 29791
▁now 29458
▁these 29410
▁which 29278
一 29250
▁; 28999
被 28799
▁world 28554
一個 28202
al 27606
地 27425
你 27135
大 27049
▁its 27032
▁out 26922
時 26894
▁just 26396
說 25705
▁who 25556
▁up 25324
也 25083
與 25051
▁because 25033
▁「 24956
es 24868
▁」 24863
他們 24833
▁than 24621
▁me 24608
都 24313
▁them 24154
▁were 23939
▁這 23857
ve 23776
▁had 23576
▁how 23513
所 23179
▁been 22466
▁some 22304
▁而 22292
用 22207
性 22205
▁no 22140
▁new 21598
可以 21588
能 21498
就 21481
▁“ 21088
▁other 21079
這些 21059
c 20972
▁他們 20962
▁could 20630
▁time 20583
要 20414
爲 20134
從 20112
這 19974
▁know 19868
而 19707
▁re 19586
▁over 19563
in 19475
▁into 19271
他 19111
▁years 19069
▁even 18973
▁most 18883
▁very 18841
▁also 18785
出 18758
▁only 18667
▁his 18615
去 18143
ation 18053
▁your 17982
▁你 17528
這個 17508
ll 17287
▁countries 17136
▁many 17075
▁get 17040
▁see 17029
ion 16676
下 16662
▁think 16629
者 16628
▁then 16363
以 16345
▁un 16331
它 16277
於 16276
▁going 16251
已經 16227
比 16227
▁他 16219
國家 16207
ic 16141
▁way 16025
▁where 15772
those 15732
後 15700
g 15595
▁first 15490
美國 15455
p 15408
或 15405
更 15370
▁well 15307
斯 15277
▁much 15252
很 15234
▁two 15230
or 15215
需要 15104
過 15096
▁make 14908
的人 14868
▁should 14791
多 14734
▁really 14692
▁china 14548
開始 14541
a 14441
沒有 14422
▁但是 14350
▁economic 14330
▁here 14271
爾 14254
把 14203
問題 14155
最 14094
▁don 14039
可能 14019
想 13951
經濟 13823
▁de 13804
▁所以 13655
高 13635
著 13575
h 13555
le 13420
▁she 13371
政府 13348
▁go 13289
得 13268
▁need 13248
為 13223
· 13215
r 13159
▁right 13062
讓 13025
無 13017
th 12624
子 12565
▁它 12544
其 12519
able 12498
就是 12488
▁global 12441
ment 12368
力 12278
▁want 12178
▁work 12177
看 12106
做 12070
▁such 12044
之 12007
可 12004
▁如果 11999
▁back 11967
世界 11951
▁government 11910
▁actually 11895
前 11829
ers 11774
向 11728
好 11679
小 11658
▁things 11646
▁after 11642
化 11596
li 11499
▁c 11437
個 11401
非常 11360
拉 11304
▁through 11244
給 11170
新 11149
▁may 11133
能夠 11041
” 11028
ent 10976
▁look 10939
ity 10796
▁take 10765
▁country 10752
▁her 10746
o 10743
以及 10722
一些 10658
il 10578
還 10534
▁great 10491
▁growth 10480
▁life 10474
▁political 10299
el 10280
▁b 10260
裡 10251
▁any 10250
▁being 10201
及 10167
ar 10121
水 10118
▁something 10078
ate 10076
無法 10072
ur 10064
b 10047
. 10044
自己 10033
▁這些 10002
▁today 9975
那些 9960
歐洲 9935
▁little 9925
▁help 9909
克 9889
▁good 9882
it 9856
國 9838
▁did 9769
▁” 9768
必須 9734
▁said 9719
▁same 9678
▁! 9637
▁year 9633
▁every 9628
▁why 9622
i 9603
天 9600
▁own 9533
▁war 9525
▁while 9523
內 9519
▁use 9494
▁europe 9487
工作 9469
知道 9445
▁這是 9443
an 9430
▁con 9427
ive 9417
en 9413
成 9402
手 9397
家 9358
▁say 9340
est 9324
並 9305
其他 9286
▁change 9284
ce 9263
▁around 9259
政治 9253
生 9248
嗎 9232
▁down 9180
▁last 9141
頭 9128
▁power 9123
研究 9104
ch 9098
中國 9098
點 9069
社會 9062
▁因此 9059
f 9057
▁between 9014
▁co 9013
應該 8984
這一 8940
一樣 8903
月 8880
市場 8879
▁system 8855
▁因為 8855
長 8831
事 8829
心 8817
▁different 8815
▁must 8802
她 8791
正在 8787
改變 8756
的是 8726
▁financial 8718
ci 8708
▁end 8674
等 8668
那 8620
如何 8596
▁g 8553
不是 8520
使用 8477
▁dis 8472
▁public 8469
▁european 8464
特 8455
重 8452
▁states 8450
▁thing 8449
現在 8441
is 8432
名 8427
▁並 8412
▁important 8411
公司 8409
▁d 8405
當 8395
德 8380
▁three 8379
ri 8367
▁part 8365
▁lot 8349
ra 8340
進行 8320
▁human 8274
這種 8271
起 8269
什麼 8248
▁come 8241
▁fact 8231
▁long 8199
▁too 8192
▁still 8168
▁under 8161
政策 8121
ro 8075
任何 8046
▁made 8042
又 7988
行 7962
▁economy 7960
開 7932
發現 7873
▁p 7866
投資 7831
w 7819
外 7818
▁might 7795
▁real 7792
l 7773
▁got 7768
se 7753
▁international 7747
增長 7742
ia 7736
tic 7713
▁let 7677
一種 7600
分 7575
自 7566
x 7554
▁another 7532
全球 7500
▁start 7488
▁united 7473
▁high 7470
像 7462
正 7451
1 7438
▁before 7432
提供 7427
▁better 7424
▁美國 7403
▁does 7360
們 7356
日 7355
不會 7345
體 7345
發展 7337
k 7334
着 7324
銀行 7320
動 7315
▁both 7302
▁put 7301
它們 7284
ul 7277
再 7276
▁talk 7275
ma 7267
▁kind 7261
▁st 7259
利 7248
我的 7248
系統 7243
▁day 7239
▁example 7227
▁social 7222
呢 7200
希望 7182
▁policy 7178
▁而且 7170
加 7160
影響 7159
▁000 7158
ta 7151
卻 7137
on 7124
▁現在 7108
組織 7099
▁是 7092
- 7033
▁pro 6999
ism 6992
支持 6972
只是 6965
法 6916
安全 6914
po 6891
▁problem 6886
▁try 6883
並不 6879
兩 6878
三 6875
▁當 6858
使 6858
海 6857
▁less 6817
▁become 6811
決定 6810
as 6778
跟 6774
的時候 6773
▁事實上 6770
時間 6763
ies 6742
▁far 6740
得到 6722
計劃 6720
ance 6717
光 6716
bi 6714
▁state 6712
不同 6695
你們 6671
▁她 6663
▁america 6657
選擇 6654
權 6639
這樣的 6634
ter 6618
數 6609
us 6607
解決 6588
學 6585
所有 6565
▁從 6554
完全 6543
▁called 6538
都是 6519
▁crisis 6516
▁each 6510
發 6510
▁future 6508
▁find 6492
危機 6467
2 6445
低 6443
來說 6433
受 6421
實現 6388
已 6375
只 6372
▁large 6366
量 6353
▁next 6352
▁doing 6341
馬 6328
▁off 6325
ist 6324
▁ma 6306
▁這個 6305
亞 6302
道 6294
▁有 6279
存在 6279
▁course 6271
ne 6267
認爲 6253
ted 6248
▁然後 6248
人們 6240
▁w 6239
▁second 6236
▁against 6224
真的 6221
我們的 6216
如此 6198
由 6194
通過 6194
▁women 6186
中的 6179
ok 6156
不能 6151
▁eu 6145
▁never 6145
▁few 6136
▁without 6132
▁market 6128
▁per 6094
國際 6090
▁since 6086
本 6083
8 6081
▁president 6075
增加 6075
面 6064
人類 6056
to 6048
▁pre 6047
▁19 6039
ag 6029
im 6025
20 6019
▁tell 6010
車 6010
歐盟 5995
la 5993
un 5991
作 5978
技術 5975
▁對 5970
▁home 5967
▁place 5967
▁support 5947
許多 5947
▁yet 5915
意 5859
na 5843
愛 5836
同 5835
之後 5832
▁那 5828
走 5817
▁increase 5815
就會 5808
▁believe 5807
▁point 5793
7 5789
▁energy 5772
ge 5771
▁national 5765
▁together 5761
教育 5753
▁e 5743
線 5742
總統 5738
▁health 5735
度 5733
看到 5730
con 5717
-- 5705
▁因爲 5703
tion 5698
目標 5686
問 5669
▁它們 5668
▁question 5660
▁big 5656
▁him 5654
ous 5643
▁development 5639
成爲 5637
設計 5634
5 5626
入 5616
改革 5614
▁show 5609
▁trade 5602
▁也 5597
at 5589
▁water 5588
沒 5586
自由 5586
▁able 5572
▁ago 5567
西 5561
方面 5553
▁中國 5549
非 5532
該 5517
▁man 5515
里 5515
▁mean 5504
收入 5503
位 5502
合作 5496
▁used 5495
ated 5493
尼 5492
▁debt 5482
電 5467
3 5460
擁有 5454
6 5453
發生 5448
▁hard 5447
定 5445
他們的 5438
卡 5437
民主 5436
世紀 5427
要求 5427
▁again 5421
機構 5389
企業 5379
你的 5379
的問題 5376
回 5366
▁ex 5364
格 5364
則 5363
▁current 5359
▁billion 5354
寫 5344
▁idea 5336
自己的 5332
來自 5326
令人 5302
極 5298
老 5292
想要 5288
ary 5287
▁f 5286
羅 5270
裏 5266
巴 5254
還是 5252
ian 5248
▁give 5246
一直 5244
▁million 5243
▁found 5236
相 5225
▁thought 5216
但 5216
▁儘管 5202
反 5179
lo 5178
▁children 5174
▁就 5163
流 5156
▁already 5155
indeed 5154
▁money 5151
主義 5150
▁am 5146
方 5144
▁often 5135
▁com 5134
▁那麼 5125
vi 5120
▁call 5114
age 5111
打 5109
萬 5107
行動 5100
新的 5085
v 5072
▁data 5057
帶 5055
控制 5051
▁leaders 5041
獲得 5041
▁create 5039
保護 5038
▁bank 5036
ect 5034
▁means 5030
他的 5025
fi 5023
ad 5012
ck 5012
才 5012
貿易 5011
關係 5008
▁didn 4995
4 4991
id 4986
ness 4982
上的 4980
▁thank 4979
▁allow 4972
很多 4968
▁brain 4967
▁percent 4960
mi 4947
產生 4942
▁technology 4940
tro 4938
接受 4937
ant 4933
種 4931
部 4921
▁ca 4917
金融 4915
債務 4910
近 4910
▁love 4909
書 4909
的國家 4903
身 4895
全 4892
▁order 4891
太 4889
▁process 4886
成功 4884
▁experience 4878
》 4871
《 4869
▁small 4853
此 4840
▁ever 4837
pa 4825
地區 4815
核 4815
no 4811
▁started 4809
▁central 4807
進 4802
ry 4795
氣 4793
▁number 4791
錢 4791
▁governments 4786
阿 4779
場 4777
te 4771
ence 4766
遠 4765
de 4764
▁live 4764
因 4761
ig 4759
op 4759
科學 4745
是否 4743
公 4740
▁best 4738
只有 4732
強 4728
總 4728
機 4721
變 4719
認為 4718
安 4713
om 4709
▁investment 4707
維 4706
▁enough 4698
是一個 4694
英國 4694
繼續 4691
建立 4688
路 4680
um 4670
派 4669
健康 4667
美 4662
科 4653
▁understand 4651
▁feel 4649
先 4647
▁always 4643
感 4636
▁security 4634
9 4632
因為 4629
ty 4628
放 4626
▁american 4617
布 4612
▁whether 4610
導致 4607
物 4607
幫助 4603
19 4602
率 4594
▁provide 4593
▁1 4592
一次 4592
女性 4592
▁en 4581
▁story 4579
整個 4572
ph 4566
關於 4560
非洲 4554
戰爭 4553
▁20 4549
起來 4541
相信 4540
伊朗 4537
信 4536
▁came 4530
金 4524
甚至 4517
man 4516
pe 4515
▁car 4515
▁left 4511
▁india 4509
間 4506
u 4501
對於 4489
處 4487
ized 4485
▁以及 4479
教 4477
次 4472
仍然 4470
方式 4466
十 4463
▁k 4458
▁set 4458
戰 4447
ver 4445
▁demand 4443
▁capital 4442
ial 4436
花 4420
▁times 4416
over 4410
▁risk 4406
歲 4399
z 4398
▁given 4396
▁如果你 4393
還有 4392
出現 4388
納 4387
▁bit 4384
up 4382
區 4373
印度 4373
▁markets 4370
▁當然 4370
sh 4368
▁free 4367
達 4363
▁middle 4361
co 4357
▁recent 4356
性的 4356
科技 4350
rather 4347
主要 4347
▁pay 4341
受到 4341
的方式 4330
me 4317
▁climate 4314
這樣 4314
▁working 4306
的話 4301
風險 4301
貨幣 4300
之前 4298
▁banks 4296
▁russia 4296
▁interest 4295
合 4295
less 4293
during 4288
▁past 4284
cu 4277
▁five 4273
重新 4268
領導人 4266
▁case 4259
重要 4258
▁這一 4257
ling 4254
包括 4253
▁likely 4250
ating 4243
理 4238
▁four 4235
成為 4232
▁school 4231
ors 4230
▁play 4217
創造 4217
活動 4217
ize 4215
▁military 4214
▁information 4210
▁problems 4210
利用 4209
▁once 4207
▁went 4204
▁以 4203
▁done 4201
見 4201
che 4200
深 4200
似乎 4196
▁head 4195
▁view 4191
個人 4191
城市 4186
▁sense 4179
▁almost 4178
▁control 4177
的東西 4175
tri 4172
方法 4171
▁making 4169
▁tax 4167
ish 4166
東西 4164
▁food 4159
仍 4156
四 4151
▁result 4150
能源 4149
▁away 4145
了解 4144
bo 4141
cy 4129
價格 4128
轉 4127
▁rate 4126
▁old 4124
是個 4122
▁business 4120
挑戰 4120
軍 4120
家庭 4119
▁act 4108
日本 4106
▁open 4101
做出 4101
di 4098
▁including 4091
一下 4087
運動 4085
將會 4082
提 4080
基 4076
環境 4068
那個 4067
the 4066
年代 4059
▁low 4058
更加 4057
mo 4055
幾 4052
明 4049
不同的 4048
▁major 4045
▁within 4042
每 4033
▁form 4023
通 4018
▁africa 4015
▁nuclear 4015
▁我想 4011
門 4008
▁chinese 4005
go 4001
▁japan 4000
▁space 4000
▁hope 3999
▁vi 3988
▁rates 3981
▁person 3980
▁though 3978
更多 3968
rs 3966
cannot 3964
的地方 3964
持續 3961
德國 3957
文化 3957
▁reason 3953
▁ra 3949
▁bo 3948
▁union 3948
▁move 3945
死 3938
tra 3935
▁design 3934
過去 3934
期 3928
找到 3927
▁others 3925
▁還有 3924
代表 3919
▁light 3911
▁policies 3910
器 3908
pi 3893
▁research 3891
取 3891
▁across 3887
俄羅斯 3887
哈 3887
管理 3887
如果 3874
▁10 3873
▁li 3872
夫 3872
曾 3872
▁♫ 3869
▁foreign 3866
一位 3865
未來 3863
減少 3856
▁education 3855
▁一個 3854
感到 3845
模式 3844
▁share 3842
▁instead 3840
▁community 3833
ine 3832
超過 3829
▁al 3826
才能 3825
服務 3824
▁half 3812
長期 3810
▁history 3808
lu 3807
圖 3807
▁companies 3805
比較 3804
層 3801
片 3800
文 3797
波 3795
▁care 3793
▁difficult 3788
難 3787
人口 3785
共同 3779
幾乎 3779
▁among 3772
▁比如 3772
▁focus 3769
am 3768
之間 3768
▁di 3762
▁lives 3761
真 3761
解 3761
各 3758
國內 3757
▁building 3752
視 3751
▁此外 3749
▁要 3742
可能會 3741
▁least 3736
▁population 3736
實 3736
結果 3726
稱 3713
ical 3709
▁oil 3709
▁possible 3709
然 3705
ut 3702
之一 3701
黨 3701
▁並且 3698
▁young 3697
▁increasing 3693
領域 3687
一點 3681
▁certain 3680
參與 3680
也是 3670
生產 3668
約 3667
▁needs 3665
美元 3664
▁south 3662
眼 3661
財政 3653
ti 3652
▁ta 3649
▁hand 3645
想像 3644
生活 3639
▁run 3637
▁不 3633
資本 3632
吧 3631
州 3624
聽 3617
▁whole 3615
▁la 3614
▁這種 3610
▁strong 3609
下降 3608
▁economies 3603
熱 3601
口 3595
主 3593
ang 3592
▁maybe 3590
ster 3589
應 3587
▁poor 3581
穩定 3581
▁answer 3580
風 3580
▁doesn 3579
▁build 3578
▁face 3577
having 3573
電腦 3573
是在 3572
兩個 3571
▁就是 3568
目前 3567
不斷 3562
▁needed 3561
員 3557
ization 3554
進入 3554
▁wanted 3553
資源 3553
聲 3549
ful 3547
he 3547
細胞 3545
be 3541
▁sure 3538
大家 3538
ir 3536
ions 3535
▁clear 3534
▁cost 3533
▁mo 3533
人民 3532
提高 3529
▁men 3528
數據 3523
生命 3517
▁而是 3516
別 3513
公共 3512
▁role 3509
▁similar 3507
孩子 3498
其中 3497
ca 3496
gu 3496
▁approach 3496
▁potential 3491
生物 3491
▁bad 3488
▁everything 3482
va 3473
▁keep 3472
地方 3470
病 3467
▁moment 3465
動物 3463
ious 3460
一起 3459
▁comes 3457
▁income 3457
bu 3453
這是 3450
▁iran 3448
▁ho 3441
ba 3440
如 3434
▁short 3432
任 3432
快 3432
▁r 3427
衝突 3427
西方 3427
▁m 3424
▁single 3423
▁germany 3420
▁until 3419
▁bring 3418
▁reach 3414
▁thinking 3414
年的 3412
▁true 3404
▁ways 3404
▁city 3401
▁science 3398
步 3398
▁common 3396
▁makes 3392
原 3390
▁north 3388
權力 3388
界 3388
▁side 3387
▁sort 3385
談 3385
和平 3382
帶來 3379
▁looking 3377
port 3373
▁inter 3365
有關 3362
疾病 3361
真正 3361
降低 3360
程度 3359
收 3358
▁2 3355
商 3355
制度 3351
處理 3346
▁family 3345
並不是 3343
措施 3340
選 3338
希臘 3337
out 3335
掉 3334
思考 3329
ally 3328
歷史 3328
▁歐洲 3326
理解 3320
威脅 3318
▁east 3316
二 3316
協議 3316
南 3316
學習 3316
▁test 3311
大學 3310
probably 3307
ring 3307
▁longer 3307
qui 3306
▁sp 3306
▁imp 3305
解釋 3305
林 3304
▁其 3301
les 3297
tor 3293
▁mis 3292
保持 3292
▁na 3290
字 3290
▁o 3289
▁society 3289
米 3289
▁itself 3285
年前 3285
▁fear 3278
▁key 3266
▁prices 3265
▁gdp 3264
實施 3264
▁self 3263
半 3263
全世界 3262
能力 3262
▁你們 3261
故事 3261
現實 3261
ke 3258
ton 3258
某些 3252
型 3250
ha 3249
▁later 3249
便 3248
▁monetary 3247
傳統 3241
os 3240
的經濟 3239
造成 3236
▁local 3228
▁turn 3228
▁雖然 3228
▁higher 3224
▁fiscal 3217
以色列 3214
平 3211
▁讓 3205
人的 3204
▁body 3194
五 3193
ure 3192
▁ti 3188
少 3186
而言 3186
▁themselves 3184
ach 3182
採取 3182
▁我的 3180
資金 3180
gdp 3179
水平 3179
確保 3178
▁rise 3174
50 3172
▁living 3170
▁ask 3169
單 3168
成本 3168
▁seen 3166
▁further 3164
▁however 3164
▁lead 3163
推 3162
ni 3161
▁party 3160
▁人們 3158
直接 3157
▁law 3154
戰略 3154
▁group 3153
最終 3153
▁especially 3151
▁level 3151
喜歡 3151
覺得 3150
畫 3146
▁institutions 3143
▁trump 3142
反對 3141
▁project 3140
▁job 3139
▁developing 3137
因素 3135
有一個 3135
作爲 3133
亞洲 3131
結束 3129
通常 3127
▁region 3124
利益 3124
創新 3122
失 3116
具有 3115
治療 3115
盡 3113
算 3113
買 3112
事件 3109
選舉 3101
▁nothing 3099
另一 3099
▁minister 3095
▁age 3092
藥 3091
除 3091
相當 3090
getting 3086
red 3086
10 3083
論 3083
▁impact 3080
▁land 3080
情 3080
▁3 3073
奧 3073
的時間 3073
產品 3072
led 3071
ho 3070
學校 3068
▁deal 3067
火 3065
面對 3065
▁post 3064
▁imagine 3060
大約 3058
有可能 3058
稅 3055
蘭 3055
變成 3054
空 3051
▁coming 3046
完成 3043
ities 3042
不再 3040
▁access 3039
代 3037
最後 3035
避免 3032
地球 3026
── 3024
▁top 3023
較 3020
製造 3019
住 3017
nu 3016
▁early 3016
結構 3016
ac 3015
努力 3015
微 3014
一項 3013
億 3013
▁simple 3012
的政治 3009
▁mu 3004
▁non 3003
機會 3003
項目 3003
▁democracy 2998
表明 2997
或者 2992
▁months 2991
山 2990
act 2989
醫療 2989
古 2988
指 2985
改善 2981
▁growing 2979
▁return 2979
▁謝謝 2979
民 2979
ru 2976
且 2975
球 2975
法國 2972
法律 2972
▁然而 2969
出來 2968
不可 2967
▁或 2963
▁perhaps 2962
所有的 2962
語 2960
▁sub 2955
的事 2955
之間的 2954
身體 2954
▁matter 2953
並沒有 2952
中心 2951
清 2950
討論 2949
條 2948
▁private 2947
色 2947
cra 2946
▁labor 2944
講 2942
ol 2938
▁planet 2938
談判 2936
歐元區 2933
▁protect 2932
大部分 2930
變得 2929
連 2929
▁air 2927
力量 2926
石油 2926
活 2923
首 2923
▁earth 2921
▁asia 2920
▁seems 2918
移民 2917
傳 2915
▁j 2914
實際 2914
▁sw 2911
讓我們 2910
薩 2907
那樣 2906
do 2905
▁agreement 2905
業 2905
und 2904
數字 2903
舉 2902
▁conflict 2900
工 2899
情況 2898
▁six 2897
▁wrong 2897
▁stop 2896
▁rights 2890
事情 2890
聯合國 2890
令 2887
▁offer 2886
的世界 2885
▁complete 2881
最近 2881
關注 2881
節 2880
▁study 2879
暴力 2874
越 2872
讓我 2869
嚴重 2868
六 2867
▁challenge 2862
白 2862
▁days 2861
玩 2860
▁prevent 2858
▁house 2854
的工作 2853
▁model 2852
▁follow 2848
▁slow 2848
▁5 2847
▁peace 2847
▁israel 2846
了一個 2844
/ 2839
利率 2838
ex 2837
自然 2837
限制 2836
兒 2835
試圖 2833
證明 2833
wi 2832
佔 2830
都會 2830
以來 2828
▁le 2826
▁simply 2823
▁這就是 2822
hi 2819
都有 2819
至 2818
▁reform 2814
▁third 2813
提出 2810
▁em 2809
千 2809
▁但我 2806
公民 2806
▁room 2805
▁value 2804
▁remain 2802
▁terms 2801
▁told 2801
▁west 2797
進一步 2797
ga 2796
▁anything 2796
取得 2796
品 2795
關 2794
作用 2792
ot 2785
▁full 2783
是什麼 2782
▁systems 2781
變化 2780
各位 2779
列 2778
社區 2777
▁continue 2776
怎麼 2776
▁words 2775
領導 2775
交 2774
軍事 2772
cl 2770
常 2770
▁obama 2768
到了 2768
各種 2766
▁ba 2764
▁decades 2762
▁沒有 2762
塔 2762
吃 2760
▁environment 2759
的新 2757
▁pass 2755
▁ro 2754
落 2754
mb 2751
伊 2748
▁recently 2745
▁happened 2743
離 2742
▁became 2740
uc 2739
▁remember 2739
觀 2739
ki 2738
▁force 2738
▁thousand 2737
部分 2737
▁seem 2736
▁century 2735
▁rest 2735
▁issue 2732
▁kids 2732
預測 2731
世 2730
▁將 2729
一場 2724
▁u 2722
共 2722
其實 2721
條件 2719
▁或者 2717
▁death 2714
▁dr 2713
▁name 2713
東 2710
體系 2710
▁art 2707
▁ha 2705
言 2703
▁即使 2702
形 2701
就能 2700
狀況 2697
oc 2696
競爭 2696
ship 2695
擔心 2695
早 2694
▁learn 2693
▁close 2692
▁center 2691
▁everyone 2691
更多的 2690
類 2690
▁leave 2689
▁media 2688
cent 2687
叫 2687
▁main 2685
▁pa 2685
今天 2682
知識 2682
敘利亞 2680
件 2678
資訊 2678
▁asked 2677
▁所以我 2677
這麼 2677
emp 2676
式 2675
服 2674
接 2672
▁heart 2668
百 2665
▁pi 2664
▁news 2663
拿 2662
▁sometimes 2661
維持 2661
表現 2661
▁line 2659
▁resources 2659
espite 2656
▁一 2655
也會 2653
援助 2649
0 2648
▁dollars 2645
或是 2645
▁finally 2644
樂 2641
獨立 2641
面臨 2641
回到 2640
quite 2637
si 2636
son 2635
調 2635
▁figure 2631
▁最後 2630
十分 2630
規則 2630
▁happen 2629
▁sea 2629
學生 2627
com 2625
原因 2623
▁lower 2620
達到 2620
的故事 2619
▁else 2617
和其他 2617
ists 2616
▁po 2613
▁program 2613
▁甚至 2612
▁success 2611
▁mind 2610
▁amount 2609
產 2609
da 2607
伊拉克 2606
當時 2605
的影響 2602
▁someone 2601
巨大的 2601
透過 2601
因爲 2599
ip 2598
▁child 2593
▁eurozone 2593
士 2592
大量 2592
資產 2592
30 2589
知 2589
▁ten 2588
那麼 2587
▁along 2586
網路 2586
end 2584
▁anti 2582
在於 2580
醫生 2579
▁taking 2578
▁包括 2578
▁created 2575
照 2575
親 2575
出口 2574
土耳其 2574
▁citizens 2573
em 2571
國家的 2571
困難 2570
ite 2569
▁就像 2568
曾經 2566
ible 2565
pr 2564
▁deep 2564
▁ne 2564
食物 2564
▁price 2563
重要的 2562
▁personal 2558
實驗 2558
▁particularly 2557
結 2557
▁spending 2556
▁step 2556
▁progress 2555
需求 2554
▁fundamental 2553
side 2551
價值 2551
初 2551
▁costs 2550
局 2549
邊 2549
事實 2544
死亡 2544
顯示 2544
失敗 2540
▁based 2539
關鍵 2536
計畫 2535
▁read 2533
殺 2532
破壞 2532
革命 2529
聯盟 2528
ris 2525
▁hold 2524
往 2524
根 2524
觀察 2523
▁toward 2522
裝 2522
魯 2522
▁red 2521
營 2521
den 2520
神 2520
▁fall 2518
時代 2516
▁huge 2515
雷 2514
ze 2513
不僅 2513
▁position 2510
有人 2510
未 2510
精 2509
錯誤 2508
land 2507
普 2507
we 2505
女 2503
週 2502
密 2501
▁black 2500
▁且 2499
▁同時 2496
▁issues 2494
▁report 2494
▁response 2493
方案 2491
▁se 2490
▁sa 2488
音樂 2488
▁tr 2486
標準 2486
ten 2485
不可能 2484
▁shift 2481
▁powerful 2479
刺激 2479
為什麼 2479
▁domestic 2477
▁watch 2476
切 2476
ber 2475
▁inflation 2474
理論 2474
魚 2473
▁jobs 2472
媒體 2472
ging 2468
網 2465
制 2464
曼 2464
▁saw 2463
反應 2463
腦 2463
▁regime 2462
最大的 2462
每年 2462
超 2462
▁behavior 2460
▁taken 2460
vo 2459
line 2457
基本 2457
宗教 2456
▁workers 2455
▁super 2454
值 2452
▁如今 2450
地位 2450
▁modern 2449
▁members 2448
根本 2448
▁natural 2447
確實 2447
▁v 2443
空間 2443
貝 2443
ap 2441
▁該 2440
分子 2440
特別 2440
▁reduce 2439
▁可以 2439
▁而不是 2438
▁reflect 2437
信息 2436
▁democratic 2435
lt 2434
形成 2434
立 2432
▁結果 2430
▁appear 2428
▁york 2427
▁thus 2426
▁remains 2425
▁ideas 2423
▁action 2422
▁began 2420
▁lack 2420
承諾 2420
過程 2419
同時 2418
mer 2416
針對 2414
職 2410
▁opportunity 2409
] 2408
▁lo 2408
▁address 2406
達成 2406
izing 2405
不知道 2405
奇 2403
行爲 2403
ud 2402
真實 2401
▁首先 2399
ran 2396
感覺 2394
索 2394
部門 2394
意義 2393
lic 2391
規模 2391
▁language 2388
快速 2388
har 2387
que 2387
科學家 2386
總是 2384
進步 2384
分享 2382
▁services 2381
貸款 2381
另一個 2379
▁company 2377
真正的 2377
哪 2376
▁pretty 2375
每個 2375
▁gu 2374
假 2373
▁與 2368
▁iraq 2367
▁led 2366
然後 2363
基礎 2362
這裡 2361
是因為 2359
▁france 2358
▁fund 2357
▁politics 2357
語言 2356
▁culture 2355
▁relative 2354
▁beyond 2353
底 2353
增 2352
斷 2351
加入 2349
姆 2349
報告 2348
fu 2347
這一點 2347
▁其中 2343
推動 2342
▁如果我們 2341
商業 2341
造 2341
重大 2341
▁goes 2340
▁consider 2338
▁這樣 2338
▁average 2337
▁interesting 2337
也許 2337
管 2337
只能 2336
朋友 2336
hy 2335
▁pressure 2335
壓力 2335
土 2331
▁benefits 2330
▁changes 2330
fl 2328
兒童 2328
fa 2327
if 2327
▁record 2327
▁western 2327
▁break 2326
▁那是 2326
億美元 2326
效 2326
在一起 2325
消費 2325
▁general 2324
意味着 2323
既 2323
▁behind 2322
資料 2322
並非 2321
機制 2321
▁reality 2320
▁30 2319
項 2319
ning 2316
▁finance 2315
▁happens 2315
指出 2315
歸 2315
▁我們的 2314
上升 2314
工具 2313
表 2312
倍 2308
平衡 2306
ak 2305
▁efforts 2304
▁team 2304
iv 2303
ture 2302
報 2301
經 2301
▁longterm 2300
星 2300
相關 2300
▁balance 2299
看起來 2298
▁particular 2297
▁questions 2297
▁rules 2297
油 2297
▁election 2296
▁either 2295
嘗試 2295
迷 2292
擊 2290
集 2290
▁korea 2289
大腦 2289
血 2289
▁好 2288
號 2288
▁對於 2286
▁rich 2285
考慮 2284
▁我們可以 2283
▁inside 2282
▁outside 2282
▁你可以 2281
八 2281
▁disease 2280
幾個 2280
ified 2279
小時 2279
▁buy 2278
用來 2276
表示 2276
區域 2273
au 2272
▁sector 2272
▁mother 2271
保 2271
▁rule 2270
以前 2270
▁cells 2269
▁period 2269
的一個 2269
ff 2268
就業 2268
▁從而 2267
怎樣 2266
ob 2265
way 2265
▁revolution 2265
▁mar 2264
就可以 2264
nt 2263
正是 2263
per 2262
▁arab 2261
情緒 2261
準備 2261
開發 2260
▁來 2259
存 2259
▁cancer 2258
▁entire 2258
rew 2255
複雜 2255
▁stand 2254
▁areas 2253
▁yes 2250
av 2248
群 2248
by 2244
貧困 2244
▁drive 2242
▁developed 2241
計 2240
詞 2240
難民 2240
▁according 2239
▁serious 2239
基因 2239
市 2239
▁ability 2238
▁用 2238
異 2238
飛 2238
▁grow 2236
支出 2236
是我們 2236
pro 2234
▁situation 2234
▁su 2234
調查 2233
顯然 2233
錯 2232
▁lost 2231
▁ju 2230
ped 2229
▁challenges 2226
▁internet 2225
塞 2225
▁du 2224
mor 2223
▁4 2223
▁vote 2223
▁several 2222
▁front 2221
▁nature 2221
數量 2219
的事情 2218
自我 2218
day 2217
雙 2217
ger 2216
▁也許 2216
世界上 2215
▁不過 2213
級 2213
▁alone 2212
時期 2212
並且 2211
會議 2211
瓦 2211
▁push 2210
▁produce 2206
時候 2203
▁students 2201
的情況下 2201
▁infrastructure 2199
▁poverty 2199
大規模 2199
▁soon 2198
越來越 2198
的方法 2197
症 2196
coming 2194
▁says 2194
三個 2194
▁book 2193
▁effective 2191
▁path 2190
藥物 2190
... 2189
ib 2189
▁music 2189
簡單 2189
rate 2188
監管 2188
mp 2187
▁plan 2187
fin 2185
▁cities 2185
笑 2185
▁gr 2184
and 2183
▁所以我們 2183
▁easy 2182
這項 2181
▁hi 2180
▁euro 2179
▁accept 2173
直 2173
▁present 2172
身上 2172
倒 2169
ard 2167
端 2167
ie 2166
▁innovation 2162
危險 2162
很難 2162
本身 2162
諾 2160
▁當我 2159
影片 2158
▁credit 2156
▁fuel 2156
引 2156
成長 2155
音 2154
▁account 2153
▁strategy 2153
費 2152
70 2151
our 2150
▁那些 2150
冰 2150
▁forces 2148
▁won 2146
pl 2145
▁extreme 2143
▁stories 2143
▁individual 2142
▁mil 2142
▁或是 2142
lan 2141
讀 2141
一定 2140
美國人 2140
有個 2139
▁2008 2138
建 2138
沙 2137
▁reforms 2136
也有 2136
▁100 2132
素 2132
開放 2132
▁fi 2131
tan 2130
▁groups 2130
一切 2129
▁affect 2128
▁只有 2128
在這裡 2127
▁piece 2126
平均 2126
質 2126
for 2125
▁gas 2125
▁budget 2123
一般 2123
某種 2123
▁known 2122
ative 2121
委員會 2120
lar 2118
▁ground 2118
料 2115
新聞 2115
的社會 2114
或許 2112
▁levels 2111
▁sound 2111
▁campaign 2110
做了 2109
現象 2108
▁但這 2106
養 2106
交易 2105
樹 2105
道德 2105
▁trans 2103
頓 2101
境 2100
差 2100
石 2100
▁built 2098
分析 2098
有些 2097
rr 2096
轉變 2096
ral 2095
▁avoid 2095
▁emerging 2095
拒絕 2095
▁worse 2094
▁learned 2093
福 2093
遊戲 2093
▁aid 2090
▁attention 2090
島 2090
▁prime 2089
經濟增長 2089
例 2088
她的 2087
機器人 2087
價 2086
各國 2085
▁ab 2084
▁night 2084
願意 2083
▁computer 2082
史 2081
▁explain 2079
板 2079
▁ok 2078
機器 2078
它的 2077
運作 2077
▁violence 2076
下來 2075
角 2075
▁woman 2073
辦法 2072
ably 2071
ron 2071
▁saying 2071
▁更 2071
第一個 2069
難以 2069
停 2068
勢 2067
同樣的 2067
的研究 2065
▁scale 2064
承認 2063
ea 2062
▁former 2062
隨 2062
▁政府 2061
藝術 2061
的想法 2060
chi 2059
▁industry 2058
的原因 2058
而且 2058
有所 2056
執行 2055
5% 2054
ain 2054
內部 2054
協助 2054
換 2054
▁許多 2053
▁目前 2051
nd 2049
壓 2047
第一 2047
腳 2045
擴大 2041
額 2040
找 2039
▁special 2038
▁invest 2037
洛 2037
gen 2036
▁[ 2035
▁interests 2035
的政策 2035
迪 2034
黑 2034
▁bar 2032
幫 2032
氣候 2032
▁由於 2031
▁讓我們 2031
排 2031
有效 2031
▁deliver 2030
▁50 2029
證 2029
j 2028
應對 2028
▁friends 2027
現 2027
fer 2026
▁myself 2025
當中 2024
qu 2023
▁knew 2023
▁leadership 2023
幾年 2022
▁begin 2021
br 2019
民衆 2019
▁risks 2018
▁15 2017
宇宙 2017
▁failure 2016
ify 2015
▁為什麼 2015
的能力 2015
埃及 2014
客 2014
外交 2013
是一種 2013
氣候變化 2013
▁decided 2011
明確 2011
聽到 2010
靠 2010
▁sal 2007
▁但我們 2007
同樣 2007
繁榮 2007
mon 2006
不到 2006
現代 2005
院 2005
▁african 2004
▁cause 2002
▁civil 2001
目的 2000
▁game 1999
▁works 1998
海洋 1998
▁successful 1997
11 1996
▁currency 1995
滿 1995
退 1995
助 1994
▁isn 1993
伯 1991
投資者 1990
wa 1989
容易 1989
精神 1989
istic 1988
就像 1987
▁quickly 1986
tive 1984
上述 1983
的目標 1983
缺乏 1983
▁mon 1982
果 1982
七 1981
做的 1980
▁conditions 1979
私 1979
▁pe 1978
之外 1978
狀態 1978
▁expect 1977
▁exactly 1976
▁movement 1976
演 1976
領袖 1976
▁fish 1974
病人 1973
ric 1972
▁ocean 1972
90 1971
經歷 1971
ward 1970
▁beginning 1969
▁nor 1969
某 1969
ping 1968
隊 1968
len 1967
這個問題 1967
▁depend 1966
絕 1966
eg 1964
伊斯蘭 1963
查 1963
▁fight 1962
因此 1962
▁再 1961
致 1961
▁looks 1960
▁stuff 1960
人生 1960
ler 1959
▁cut 1958
▁white 1958
問題是 1955
是我 1953
的確 1953
經常 1953
▁evidence 1951
▁places 1950
依賴 1950
▁我在 1949
第一次 1949
輪 1949
▁treat 1947
ability 1945
電影 1945
pp 1943
▁regional 1943
的生活 1943
▁millions 1941
▁seek 1941
再次 1941
▁significant 1940
men 1939
當地 1939
▁exist 1938
至少 1937
離開 1935
1% 1934
制定 1934
尋找 1933
▁stability 1932
河 1932
站 1932
中東 1931
答案 1931
▁nations 1930
成員國 1930
零 1930
▁green 1929
▁picture 1929
歐 1929
lin 1928
毒 1928
穆斯林 1927
▁wait 1926
rus 1925
▁solution 1925
期間 1925
▁app 1924
▁video 1923
ps 1922
張 1922
把它 1922
nc 1921
原則 1921
建築 1921
▁couple 1920
減 1920
演講 1920
壞 1919
▁experiment 1918
▁french 1917
▁還 1917
阻止 1917
▁complex 1916
▁但在 1916
▁safe 1915
賣 1915
row 1914
▁我認為 1914
依然 1913
相對 1912
待 1911
方向 1911
吉 1909
決 1908
12 1907
fe 1907
組 1907
▁term 1906
皮 1906
▁pen 1905
▁wasn 1905
女孩 1905
船 1905
責任 1905
▁influence 1904
van 1903
▁takes 1903
最重要的 1903
▁mass 1902
▁把 1902
艾 1902
都在 1902
▁decade 1901
溫 1901
的情況 1900
▁blood 1899
▁massive 1899
▁turkey 1899
▁german 1897
美國的 1897
網絡 1896
▁chance 1895
師 1895
特朗普 1895
經濟學家 1895
▁debate 1893
傷 1893
容 1893
▁meeting 1892
還要 1892
▁接著 1891
so 1890
歐元 1889
基礎設施 1888
送 1888
▁ones 1887
的結果 1887
華 1887
▁meet 1886
也不 1886
巴基斯坦 1884
別人 1883
▁greece 1881
▁member 1881
▁今天 1880
ham 1879
▁每 1879
她們 1879
一致 1878
止 1875
些 1874
運 1874
效果 1873
通脹 1873
▁fa 1872
▁represent 1872
意思 1872
政權 1872
登 1872
▁18 1870
▁sh 1868
▁develop 1867
元 1867
室 1867
看看 1867
▁field 1866
朝鮮 1866
▁area 1864
的大 1863
製 1863
一年 1861
▁require 1860
所謂的 1859
塊 1858
pri 1857
▁benefit 1857
▁week 1857
勒 1857
望 1857
▁heard 1856
▁worked 1856
ble 1854
▁rising 1853
▁russian 1853
美聯儲 1853
▁turned 1851
放在 1851
及其 1850
▁size 1849
森 1849
gg 1848
▁maintain 1848
成員 1848
爆發 1848
▁difference 1847
久 1846
3% 1845
▁6 1845
年輕 1845
試 1845
▁例如 1844
多少 1843
萊 1843
也可以 1841
北 1841
清楚 1840
讓他們 1840
預算 1840
▁ensure 1838
▁late 1838
這場 1838
類似 1837
▁effects 1833
▁trust 1833
允許 1833
叫做 1833
▁feeling 1831
▁investors 1831
官員 1831
▁wall 1830
食 1830
▁當時 1829
人員 1829
gi 1828
ray 1828
源 1828
恩 1827
mit 1825
▁americans 1825
▁sun 1825
18 1822
▁shape 1822
肯定 1821
▁largest 1820
建設 1820
聯繫 1820
讓人 1820
40 1819
ants 1818
king 1818
▁sc 1818
ja 1817
rought 1817
▁learning 1817
發展中國家 1817
置 1817
15 1816
▁hours 1815
▁office 1815
建議 1814
▁traditional 1813
▁effect 1811
▁voice 1811
小孩 1810
看見 1810
▁imf 1809
▁respect 1809
▁whose 1809
▁dream 1808
告訴 1808
樣 1808
修 1807
▁administration 1806
好的 1806
我想 1806
這樣做 1806
公開 1804
同意 1804
臺 1804
▁seven 1803
▁只要 1802
財富 1802
creating 1801
▁word 1799
九 1799
息 1799
瞭解 1799
ab 1797
ev 1797
烏克蘭 1797
▁spend 1796
投 1796
永遠 1796
像是 1795
其他人 1795
投票 1795
積極 1795
▁exchange 1794
種族 1793
▁changed 1792
跑 1792
▁decline 1791
▁species 1791
▁特別是 1791
政 1791
調整 1791
ium 1790
剛 1790
▁month 1789
cor 1788
▁ni 1788
坐 1788
損失 1788
▁receive 1786
▁british 1785
▁include 1785
之中 1784
所以 1783
短 1783
這類 1783
ator 1780
▁listen 1780
cho 1779
說明 1779
預期 1779
bl 1778
▁cha 1778
▁freedom 1778
極端 1777
決策 1777
基金 1776
▁8 1775
▁knowledge 1775
▁near 1775
災難 1775
經濟體 1775
趨勢 1775
cr 1773
▁amazing 1773
專家 1773
▁hands 1772
居 1771
汽車 1771
▁syria 1769
▁cell 1768
▁fire 1766
讓你 1766
stra 1765
▁god 1765
▁moral 1764
time 1763
ual 1763
話 1763
▁hear 1762
ee 1761
▁annual 1761
做到 1761
實際上 1761
思想 1761
牠們 1761
稅收 1761
▁隨着 1760
& 1759
▁fast 1759
▁相反 1759
記 1759
▁scientists 1758
誰 1758
▁road 1756
▁beautiful 1755
▁fe 1755
▁everybody 1754
▁ja 1754
▁legal 1754
▁歐盟 1754
cle 1753
▁target 1753
大概 1753
▁spread 1752
債券 1751
日益 1751
選民 1750
▁met 1749
僅 1749
失去 1749
恢復 1749
阿富汗 1749
▁carbon 1748
全球化 1748
▁stay 1747
▁dollar 1746
▁lu 1746
▁phone 1746
亂 1746
pla 1745
▁color 1744
▁parts 1744
▁solve 1744
聖 1744
lthough 1743
▁bio 1743
病毒 1743
▁leg 1742
▁organization 1742
▁production 1740
婦女 1738
優 1737
歌 1737
私人 1737
連結 1737
▁decision 1736
▁respond 1735
▁understanding 1735
ner 1733
▁environmental 1733
值得 1731
父母 1731
牛 1731
領 1731
▁ourselves 1730
試著 1730
hol 1729
▁relationship 1729
60 1727
免 1727
▁threat 1726
具 1726
十年 1725
▁court 1724
▁manage 1723
神經 1722
▁我們需要 1721
適 1721
▁supply 1720
更好的 1720
▁el 1719
▁wealth 1719
終 1719
▁suggest 1718
▁popular 1717
ny 1716
彼此 1716
求 1716
移動 1715
威 1714
廣泛 1714
救 1714
▁enter 1713
▁counter 1712
ition 1711
效率 1711
激 1711
▁class 1710
▁forward 1710
鼓勵 1710
▁gain 1709
▁nearly 1708
▁physical 1708
▁sustainable 1708
▁fair 1707
團隊 1706
▁equal 1705
庫 1705
手段 1704
lock 1703
▁eight 1703
sha 1702
▁add 1701
pen 1699
工人 1699
想法 1699
正常 1699
▁goal 1698
▁felt 1697
▁total 1697
抗 1696
經驗 1696
tur 1695
▁9 1694
▁mov 1694
碳 1694
保證 1693
公衆 1693
啊 1693
分鐘 1692
大多數 1691
▁paper 1690
富 1690
的主要 1690
▁federal 1689
▁save 1689
則是 1689
恐懼 1689
行為 1689
配 1688
▁oh 1687
dr 1686
▁function 1685
▁technologies 1685
會有 1685
▁communities 1683
▁truth 1683
7% 1681
▁improve 1681
支 1681
測試 1681
▁happening 1680
▁若 1680
▁hit 1679
amp 1678
假設 1678
創 1678
台 1678
絲 1678
▁leading 1676
認識 1676
▁bush 1675
▁predict 1675
▁當你 1674
阿拉伯 1673
▁7 1672
▁humans 1672
▁basic 1670
▁不是 1669
▁consequences 1668
導 1667
的小 1666
一條 1665
過程中 1664
▁fed 1663
默 1663
▁industrial 1662
▁qua 1662
其他國家 1662
負 1662
這件事 1662
▁adopt 1661
▁effort 1661
▁stock 1661
官 1661
惡 1660
摩 1660
▁spen 1659
犯 1658
筆 1658
課 1658
▁gave 1656
▁parents 1656
disc 1655
總理 1655
重點 1655
▁above 1654
來看 1653
▁fr 1650
▁最 1650
io 1649
▁programs 1649
▁stage 1649
af 1648
電視 1648
▁如 1647
刻 1647
冷 1646
晚 1646
牠 1646
▁medical 1645
bal 1644
▁unemployment 1644
▁cases 1643
▁treatment 1643
ade 1642
▁generation 1642
定義 1641
階段 1641
▁choice 1640
▁perfect 1640
▁也就是 1640
巨大 1640
想到 1640
▁results 1639
▁我要 1639
建造 1639
紅 1639
預 1638
▁min 1636
▁12 1635
▁當我們 1635
巴勒斯坦 1635
▁新 1634
基於 1634
▁世界 1633
▁而這 1632
復 1632
模型 1632
han 1631
▁whatever 1630
▁win 1630
其它 1630
資 1630
▁leader 1629
思 1629
班 1629
basically 1628
▁eat 1627
吸引 1627
多數 1627
的機會 1627
巴西 1624
負責 1624
那種 1624
▁那就是 1623
信任 1623
外國 1623
100 1622
年輕人 1622
每天 1622
▁recognize 1621
▁normal 1620
不要 1620
功能 1618
▁lose 1617
用於 1617
der 1615
▁attack 1615
▁direct 1615
▁send 1615
▁tend 1615
引起 1615
ug 1614
▁animals 1614
▁turns 1614
有點 1614
處於 1614
▁measures 1613
▁你會 1613
即 1613
▁advanced 1612
▁z 1612
倫 1612
意識到 1612
聯 1611
q 1610
投入 1610
4% 1608
eventually 1608
▁attempt 1608
策略 1608
的孩子 1607
ov 1606
暴 1606
▁br 1605
▁politicians 1605
▁requires 1605
▁像 1605
拍 1605
過度 1605
義 1604
骨 1604
▁britain 1603
國會 1603
獎 1603
移 1603
追 1602
▁pick 1601
▁shows 1600
獲 1599
的觀點 1599
log 1597
數學 1597
股 1597
za 1596
▁wide 1595
有了 1595
者的 1594
▁sign 1593
▁walk 1592
往往 1592
▁raise 1590
▁father 1589
女人 1589
常常 1589
彈 1589
迅速 1589
kept 1588
若 1588
▁universe 1587
款 1587
草 1587
▁image 1586
蓋 1586
▁failed 1585
留 1585
議 1585
160 1584
罪 1584
▁message 1583
太空 1583
頂 1583
母親 1582
益 1582
▁critical 1581
▁star 1581
意大利 1581
▁vision 1580
墨西哥 1579
第二 1578
自身 1578
dash 1576
▁claim 1576
▁我是 1576
記錄 1576
限 1576
善 1575
在一個 1575
放棄 1575
的未來 1575
▁& 1574
急 1574
▁achieve 1572
▁patients 1571
▁machine 1570
hen 1569
▁英國 1569
聚 1569
▁reasons 1568
緊 1568
停止 1567
▁dead 1566
▁travel 1566
▁tried 1566
如果你 1566
確定 1566
▁following 1565
很多人 1565
▁capacity 1564
尋求 1564
手機 1564
▁launch 1563
包 1563
蒙 1563
2008 1562
▁dangerous 1562
商品 1562
痛苦 1562
訊息 1562
▁anyone 1561
▁university 1560
毛 1560
▁cooperation 1558
▁ted 1558
短期 1558
唯一 1556
生存 1555
降 1555
▁decisions 1554
學家 1554
明白 1554
▁values 1553
理由 1553
▁讓我 1552
▁hundreds 1551
蒂 1551
▁boost 1550
紙 1550
那裡 1549
val 1548
是由 1548
武器 1548
告 1547
gar 1546
▁與此同時 1546
贏得 1546
nder 1545
▁collapse 1545
▁protection 1545
一半 1545
▁clearly 1544
▁yea 1544
化的 1544
普京 1544
請 1544
2% 1542
8% 1542
ung 1541
▁eyes 1540
成立 1540
ome 1539
覺 1539
ah 1538
▁2010 1538
軍隊 1538
廣 1537
解決方案 1537
隻 1537
▁parties 1536
促進 1536
尼亞 1536
融資 1535
ue 1534
▁para 1534
使得 1534
命 1533
少數 1532
許多人 1532
的例子 1530
目 1530
▁structure 1529
僅僅 1529
到底 1529
聯邦 1529
▁consumption 1528
訓練 1528
cc 1527
輸 1527
野 1527
▁weapons 1526
以上 1526
購買 1526
bb 1525
▁employment 1525
▁visit 1525
形式 1525
範圍 1525
評估 1525
▁die 1524
▁hu 1524
友 1524
舊 1524
▁kinds 1523
▁德國 1523
主義者 1522
餘 1522
los 1521
射 1520
省 1520
心理 1519
物質 1519
農業 1519
突然 1518
糟糕 1518
議會 1518
ec 1517
tu 1517
▁不管 1517
央行 1517
觀點 1517
▁da 1516
▁numbers 1516
ow 1514
▁base 1514
▁commitment 1514
▁larger 1514
發明 1514
▁印度 1513
很好 1513
當前 1513
▁necessary 1512
回答 1512
哥 1511
攻擊 1511
整 1511
證據 1511
6% 1510
ification 1509
ile 1509
警 1509
▁boy 1508
獨 1508
▁alternative 1507
▁council 1507
▁speak 1507
事實上 1507
托 1507
為了 1507
▁於是 1506
土地 1506
應當 1506
百萬 1506
80 1505
滿足 1505
追求 1505
▁subject 1504
▁wonder 1504
▁無論 1504
明顯 1504
有很多 1504
酒 1503
▁weeks 1502
▁couldn 1501
▁sell 1501
▁multi 1500
人士 1500
倫敦 1500
展示 1500
懷疑 1500
男性 1500
跳 1500
▁guy 1499
而不是 1499
▁drug 1498
▁emissions 1498
ulat 1497
影響力 1497
▁majority 1495
苦 1495
行業 1495
▁即 1493
按 1493
ory 1492
差異 1492
更爲 1492
宣佈 1491
▁somebody 1490
▁tools 1490
▁positive 1489
座 1489
我在 1489
障礙 1489
produc 1488
下去 1488
rc 1487
赤字 1487
不足 1486
木 1486
需 1485
é 1484
雅 1484
▁micro 1483
ight 1481
▁block 1481
▁其實 1481
在那裡 1481
莫 1481
▁defense 1480
▁ka 1480
own 1479
▁putin 1479
的關鍵 1479
不需要 1478
弱 1478
比例 1478
經過 1478
ai 1477
▁ge 1477
最大 1477
治 1477
du 1475
怪 1475
gent 1474
▁這是一個 1474
▁born 1472
▁通過 1471
充分 1471
能量 1471
裡面 1471
逐漸 1471
作為 1470
團體 1470
必要 1470
結合 1470
的風險 1469
part 1468
ya 1468
▁mark 1468
充滿 1468
可能是 1468
▁official 1467
也沒有 1465
工資 1465
足 1465
arch 1464
削減 1464
進程 1464
ub 1463
▁highly 1463
下的 1463
電話 1463
▁他說 1462
▁giving 1461
▁cover 1460
案 1460
▁available 1459
根據 1459
例子 1458
一張 1457
穿 1457
▁enable 1456
▁london 1456
測 1456
▁brazil 1455
出來的 1455
房 1455
▁officials 1453
ties 1452
當然 1451
批評 1450
共和黨 1449
▁encourage 1448
▁有些 1448
▁promise 1447
在美國 1447
▁transform 1446
▁count 1445
▁expected 1445
賽 1445
▁digital 1444
▁jo 1444
▁weak 1444
對抗 1444
改 1444
問題上 1443
強調 1443
歐洲央行 1443
▁productivity 1442
全球經濟 1441
從未 1441
一份 1440
蟲 1440
剛剛 1439
第 1439
▁products 1438
協定 1438
朝 1437
的政府 1437
看著 1437
▁reli 1436
▁cross 1434
▁va 1434
示 1434
陷入 1434
是因爲 1433
智 1433
問題的 1431
準 1431
light 1430
不只是 1430
藏 1430
▁gone 1429
▁卻 1429
個月 1429
偏 1429
出了 1429
癌症 1428
$ 1427
je 1427
任務 1426
有趣的 1426
腐敗 1426
這麼做 1426
▁dark 1425
▁pakistan 1425
based 1423
一天 1422
圈 1422
對話 1422
最高 1422
ency 1421
▁measure 1420
▁police 1420
▁正如 1420
王 1420
▁clean 1419
團 1419
運用 1418
體制 1418
▁ukraine 1417
right 1416
ically 1415
傷害 1415
儲蓄 1415
有什麼 1415
▁individuals 1414
▁smart 1414
▁worth 1414
▁在我 1413
含 1413
西班牙 1413
防 1413
xi 1412
vol 1410
▁contain 1410
▁friend 1409
計算 1409
潛在 1408
▁write 1407
大幅 1407
發生了 1407
▁commission 1406
概念 1406
全部 1405
▁girls 1404
▁damage 1403
完 1403
政府的 1403
▁40 1402
▁seeing 1402
男人 1402
份 1401
劇 1401
只要 1401
工業 1401
方面的 1401
普遍 1401
▁cat 1400
▁opportunities 1400
▁task 1400
工程 1399
即將 1398
韓國 1398
聲音 1397
衰退 1397
製作 1397
▁strengthen 1396
實驗室 1396
的支持 1396
裡的 1396
貧窮 1396
25 1395
▁直到 1395
護 1395
▁host 1394
▁theory 1394
▁我們在 1394
一開始 1394
的一部分 1394
▁realized 1393
▁street 1393
承擔 1393
某個 1393
產業 1393
統治 1393
▁所有 1392
ft 1391
優勢 1391
ther 1390
▁organ 1390
民族 1390
這次 1390
▁press 1389
描述 1389
▁scientific 1388
▁日本 1388
堅 1388
表達 1388
鐵 1388
驚 1388
▁rec 1387
▁全球 1386
▁根據 1386
▁strategic 1385
最好的 1385
支付 1384
消費者 1384
背 1384
堅持 1383
▁blue 1382
▁uk 1382
接近 1382
集團 1382
▁supposed 1381
如今 1381
正確 1381
▁running 1380
▁inequality 1379
中國的 1379
城 1379
條約 1379
▁asian 1378
▁projects 1378
▁advantage 1377
▁minutes 1377
劑 1377
▁structural 1376
傑 1376
屬於 1375
痛 1375
跨 1375
▁afghanistan 1374
完美 1374
lor 1373
▁broad 1373
人權 1373
簡單的 1373
脫 1373
▁drugs 1372
信心 1372
記憶 1372
▁cur 1371
▁argument 1370
▁hospital 1370
▁source 1370
嚴重的 1370
憲法 1370
記得 1370
▁conversation 1369
▁export 1369
植物 1369
和我 1368
...... 1367
夜 1367
智慧 1367
瑪 1367
▁grand 1366
▁assets 1365
▁fly 1365
▁yourself 1365
意識 1365
▁tu 1363
▁film 1362
▁material 1362
▁solutions 1361
技能 1361
而非 1361
▁firms 1360
▁wave 1359
的聲音 1359
▁agenda 1358
▁performance 1358
引發 1358
慢 1358
牆 1358
的力量 1358
貢獻 1358
10% 1357
▁becomes 1357
▁trillion 1357
▁而我 1357
我們可以 1357
▁changing 1356
▁intervention 1356
幹 1356
絕對 1355
速度 1355
▁happy 1354
去年 1354
盤 1354
▁held 1353
♫♫ 1353
▁&# 1352
▁justice 1352
尤其 1352
有多 1352
權利 1352
put 1350
▁absolute 1350
▁online 1350
▁banking 1349
▁designed 1348
▁我們必須 1348
主權 1348
奧巴馬 1348
▁deficit 1347
更大的 1347
材料 1347
現今 1347
發生在 1347
衛生 1347
▁dna 1346
想想 1345
▁egypt 1344
分裂 1344
▁japanese 1343
赫 1343
▁policymakers 1342
▁propos 1342
▁實際上 1342
▁爲了 1342
但是 1341
務 1341
也在 1340
辦 1340
對此 1339
輕 1339
ier 1338
▁bill 1338
▁goods 1338
▁lab 1337
▁map 1337
▁voters 1337
程 1337
議題 1337
▁choose 1336
▁quality 1336
▁因為我 1336
兩國 1336
屬 1336
▁concept 1335
▁surface 1335
動作 1335
▁sat 1332
烏 1332
英 1332
▁我會 1331
甚麼 1331
app 1330
▁impossible 1330
▁請 1330
破 1330
▁direction 1329
保險 1329
疑 1329
告訴我 1328
air 1327
▁okay 1327
勝 1327
醫院 1327
▁net 1326
來源 1326
印 1326
展 1326
應用 1325
燈 1325
▁crime 1324
▁trend 1324
道路 1324
進展 1323
▁protest 1322
大型 1322
標 1322
▁service 1321
學到 1321
在這 1320
發揮 1320
看來 1320
消失 1319
lit 1318
▁unfortunately 1318
▁organizations 1317
ake 1316
▁regulation 1316
ka 1315
▁自 1315
二十 1315
弗 1315
▁type 1314
一名 1314
▁congress 1313
▁favor 1313
▁genetic 1313
▁responsibility 1313
▁sex 1313
▁suffer 1313
許 1313
▁2015 1312
▁relations 1312
gan 1311
▁ban 1311
▁economists 1311
碼 1311
臉 1311
▁character 1309
▁liberal 1309
▁limit 1309
符合 1309
升 1308
擴張 1307
景 1307
採用 1306
▁rough 1305
zo 1304
▁gap 1304
一隻 1304
銷 1304
ice 1303
懂 1303
off 1302
▁cap 1302
很重要 1302
什麽 1301
夢想 1301
槍 1301
緊縮 1301
紐約 1300
▁religious 1299
套 1299
散 1299
wise 1298
▁biggest 1297
▁realize 1297
▁scar 1297
▁ver 1297
奇怪 1297
強大的 1297
戴 1297
治理 1297
類似的 1297
▁competition 1296
▁struggle 1296
可以看到 1296
規 1296
住在 1295
print 1294
曲 1294
負擔 1294
▁同樣 1293
的關係 1293
▁shock 1292
匯率 1292
固 1292
拜 1292
▁elections 1291
▁argue 1290
let 1289
▁pull 1289
▁towards 1289
一直在 1289
提升 1289
靈 1289
麥 1289
▁audience 1288
▁families 1288
相互 1288
▁degree 1287
▁intelligence 1287
▁limited 1287
▁zero 1287
崩潰 1287
未來的 1287
▁shared 1286
左右 1286
發生的 1286
菲 1286
ily 1285
▁signal 1285
不過 1285
加強 1285
專 1285
遇到 1285
▁john 1284
▁opposition 1284
貨幣政策 1284
避 1284
of 1283
▁israeli 1283
▁radical 1283
▁recession 1283
ey 1282
nes 1281
▁connect 1281
▁mistake 1281
▁這樣的 1280
互動 1279
很快 1279
簡 1279
在這個 1278
後果 1277
發表 1277
▁cold 1276
▁initiative 1275
▁wants 1275
它們的 1275
臨 1275
ular 1273
盧 1273
一系列 1272
主席 1272
打擊 1272
有效的 1272
最新 1271
▁kid 1269
▁faster 1268
經濟學 1268
設 1268
齊 1268
▁funds 1267
▁globalization 1267
▁negative 1267
不夠 1267
感染 1267
▁fail 1266
▁還是 1266
每個人都 1265
適應 1265
在未來 1264
上面 1263
殘 1263
錄 1263
你可以 1262
分配 1262
▁我知道 1261
平等 1261
成了 1261
▁fun 1260
▁none 1260
佛 1260
我們所 1259
是如何 1259
的發展 1259
ultimately 1258
參加 1258
每一個 1258
▁cultural 1257
▁skills 1257
福利 1257
詩 1257
▁1990 1256
▁agree 1256
▁indian 1256
充 1256
提供了 1256
棒 1256
得以 1255
▁contrast 1254
▁pain 1254
▁recovery 1254
即使 1254
扮演 1254
▁finding 1253
物種 1253
特定 1253
▁schools 1252
▁regard 1251
▁也是 1251
rn 1250
▁network 1250
▁san 1250
全面 1250
可以在 1250
性別 1250
▁畢竟 1249
收益 1249
缺 1249
相反 1248
聰明 1248
脆弱 1248
博 1247
快樂 1247
空氣 1247
金融危機 1247
▁text 1246
uff 1245
的基礎 1245
pan 1244
▁serve 1244
▁urban 1244
發達國家 1244
▁0 1242
▁list 1242
網站 1242
順 1242
des 1241
mini 1241
我們在 1241
背景 1241
▁為了 1240
由於 1240
複雜的 1240
form 1239
▁nation 1238
▁sl 1238
周 1238
易 1238
該國 1238
def 1237
▁islamic 1237
框架 1237
雨 1237
找出 1235
緩 1235
防止 1235
森林 1234
茲 1234
述 1234
是有 1233
等等 1233
▁governance 1232
施 1232
都不 1232
▁track 1231
判 1231
角色 1231
談論 1231
電子 1231
▁refugees 1230
呈現 1230
▁farm 1229
供應 1229
票 1229
ever 1228
▁goals 1228
▁大家 1228
相比 1228
low 1227
▁park 1227
▁status 1227
▁除了 1227
太多 1227
年後 1227
觸 1227
▁girl 1225
▁surprise 1225
出生 1225
干預 1225
硬 1225
星期 1224
注 1224
▁contract 1223
持 1223
▁context 1222
▁wa 1222
得多 1222
sen 1221
▁willing 1221
失業 1221
▁fill 1220
▁tru 1220
中間 1220
有助於 1220
程式 1219
訪 1219
▁terrorist 1218
▁wrote 1218
效應 1218
caused 1217
press 1217
▁transition 1217
包含 1217
▁rapid 1216
▁又 1215
拯救 1215
▁playing 1214
接觸 1214
的角色 1214
興奮 1214
▁medicine 1213
▁points 1213
▁第一 1213
內容 1213
所有人 1213
dna 1212
▁below 1212
會被 1212
梅 1212
疫苗 1211
給予 1211
▁charge 1210
何 1210
現有 1210
▁board 1209
象 1209
都能 1209
俄國 1208
得要 1208
距離 1208
mu 1206
探索 1206
政黨 1206
老師 1206
▁mid 1205
▁publish 1205
▁plant 1204
▁俄羅斯 1204
her 1203
的全球 1203
▁muslim 1202
▁specific 1202
一件 1202
害怕 1202
▁concern 1201
▁但如果 1201
一個人 1201
禁 1201
態 1200
蘇聯 1199
強化 1198
▁bottom 1197
▁第二 1197
在那 1197
▁training 1196
▁最終 1196
末 1195
在此 1193
布什 1193
年來 1193
普通 1193
會在 1193
▁stress 1192
▁vast 1192
有著 1192
▁ready 1191
▁像是 1191
強烈 1191
編 1191
▁kill 1190
▁kingdom 1190
▁$1 1189
▁25 1189
▁corruption 1189
正式 1189
潮 1189
爭 1189
car 1188
▁2009 1188
必須要 1188
擔憂 1188
花了 1188
醫學 1188
ou 1187
▁2012 1187
具體 1187
20% 1186
▁era 1186
▁involved 1186
▁rep 1186
不用 1186
捕 1186
▁italy 1185
▁ahead 1184
▁models 1184
影 1184
綠色 1184
聯合 1184
ku 1183
▁2011 1183
來到 1183
出現了 1183
吸 1183
的歷史 1183
▁greek 1181
▁shown 1181
提到 1181
襲擊 1181
▁ill 1180
早期 1180
while 1179
▁directly 1179
對我們 1179
成就 1179
point 1178
付 1178
徹底 1178
▁earlier 1177
▁framework 1176
▁search 1176
惡化 1176
pt 1175
以後 1175
化學 1175
寶 1175
這位 1175
▁usually 1173
沒有任何 1173
▁corporate 1172
▁table 1172
站在 1172
char 1170
▁carry 1170
▁powers 1170
的增長 1170
▁confidence 1169
▁purpose 1169
激勵 1169
認識到 1169
隱 1169
ju 1168
▁door 1168
▁latin 1168
▁succeed 1168
全國 1168
表面 1168
身份 1168
▁collective 1167
▁matters 1167
希 1167
▁check 1165
▁meaning 1165
45 1164
▁guys 1164
▁我說 1164
勞 1164
戶 1164
勝利 1163
肉 1163
▁cr 1162
▁independent 1162
▁loss 1162
取代 1162
衝擊 1162
▁son 1161
牌 1161
▁revenue 1160
外部 1160
▁sad 1159
▁由 1159
亮 1159
坐在 1159
給我 1159
▁fully 1157
▁mexico 1157
意味著 1157
▁laws 1156
會發生 1156
貨 1156
▁establish 1155
恐怖 1155
菌 1155
use 1154
▁external 1154
▁它是 1154
封 1154
華盛頓 1154
國民 1153
陸 1153
cur 1152
▁cool 1152
▁fo 1152
▁societies 1151
不但 1151
味 1151
專業 1151
舉行 1151
▁saudi 1150
崛起 1150
很大的 1150
▁internal 1149
犯罪 1149
魔 1149
mar 1148
▁basis 1148
▁hum 1148
也能 1148
▁businesses 1147
架 1147
ett 1146
▁join 1146
▁perspective 1146
觀眾 1146
▁conference 1145
▁historical 1145
一段 1145
▁occur 1144
生活在 1144
state 1143
▁doubt 1143
▁range 1143
件事 1143
族 1143
終於 1143
▁speech 1142
統計 1142
說服 1142
▁practice 1141
▁prefer 1141
▁product 1141
▁solar 1141
▁worldwide 1141
▁因為我們 1141
巴黎 1141
葉 1141
▁standard 1140
爲什麼 1140
遺 1140
hu 1139
▁outcome 1139
oo 1138
更好 1138
範 1138
我認為 1137
理想 1137
當今 1137
one 1136
▁或許 1136
債 1136
回應 1136
▁pet 1135
可持續 1135
唱 1135
母 1135
第三 1135
世界各地 1134
傳播 1134
公平 1134
店 1134
pon 1133
照片 1133
▁island 1132
▁telling 1132
毫無 1132
ology 1131
▁ice 1131
之處 1131
告訴我們 1131
決策者 1131
秩序 1131
▁ecb 1130
▁forced 1130
▁taxes 1130
做什麼 1130
執政 1130
浮 1130
團結 1129
貴 1129
認 1128
速 1128
雖然 1128
▁obvious 1127
的經驗 1127
衛 1127
穆 1126
顧 1126
▁negotiations 1125
五年 1125
勢力 1125
有一些 1125
質量 1124
▁bomb 1123
▁expand 1123
農 1123
yearold 1122
▁advance 1122
▁asking 1122
▁diseases 1122
▁essential 1122
▁standards 1122
手術 1122
400 1121
▁11 1121
依 1121
爭論 1121
▁forest 1120
告訴你 1120
埃 1120
改變了 1120
▁ran 1119
▁最近 1119
以為 1119
成果 1119
當你 1119
而已 1119
舞 1119
▁washington 1118
▁嗯 1118
洗 1118
的生命 1118
衝 1118
fo 1117
▁2013 1117
▁creation 1117
▁everywhere 1117
的所有 1117
▁artist 1116
▁books 1116
▁destroy 1116
▁wouldn 1116
人物 1116
家人 1116
spect 1115
▁depression 1115
載 1115
9% 1114
lam 1114
▁bonds 1114
▁mental 1113
▁worry 1113
▁extra 1112
付出 1112
害 1112
很大 1112
medi 1111
kin 1110
超級 1110
體驗 1110
▁harm 1109
▁reject 1109
▁大部分 1109
互相 1109
秒 1109
▁adapt 1108
▁treaty 1108
▁我們有 1108
▁法國 1108
良 1108
war 1107
▁sleep 1106
環 1106
▁reduc 1105
▁reserve 1105
之下 1105
▁authorities 1104
▁events 1104
乎 1104
候選人 1104
勞動力 1104
巨 1104
▁guarantee 1102
▁wind 1102
▁我們會 1102
緊張 1102
lat 1101
net 1101
▁exports 1101
▁不論 1101
▁對吧 1101
實力 1101
溝通 1101
遭到 1101
不平等 1100
他人 1100
單一 1100
phe 1099
▁trouble 1099
生產率 1099
軟 1099
逃 1099
▁2014 1097
▁bear 1097
▁collect 1097
▁interested 1097
▁putt 1097
▁過去 1097
▁而在 1096
員工 1096
▁fat 1095
▁site 1095
▁你知道 1094
注意 1094
ide 1093
▁card 1093
▁enjoy 1093
▁link 1093
麻 1093
▁500 1092
▁drop 1092
▁這裡 1092
層面 1092
的人們 1092
的挑戰 1092
飛機 1092
▁code 1091
▁easily 1091
▁palestinian 1091
排放 1091
▁assume 1090
▁final 1090
▁wish 1090
構成 1090
特殊 1090
ker 1089
就像是 1089
▁attacks 1088
▁presidential 1088
▁activity 1087
▁authority 1087
規定 1087
arian 1086
▁factors 1086
▁gives 1086
▁root 1086
year 1085
▁patient 1085
▁speed 1085
▁village 1085
▁我也 1085
歷 1085
的朋友 1085
▁box 1084
▁chemical 1084
▁healthy 1084
▁secret 1084
地球上 1084
▁cheap 1083
▁soviet 1083
▁我們也 1083
搞 1083
統一 1083
乳 1081
利潤 1081
必 1081
的需求 1081
遠遠 1081
▁himself 1080
代價 1080
食品 1080
▁survive 1079
備 1079
圍 1079
高度 1079
▁studies 1078
時刻 1078
污染 1078
的速度 1078
aries 1077
▁eye 1077
▁investments 1077
▁therefore 1077
是要 1077
的可能性 1077
like 1076
▁active 1076
寬 1076
感受 1076
細菌 1076
itu 1075
▁race 1075
隔 1075
▁import 1074
▁sitt 1074
▁enormous 1073
不應該 1073
碎 1073
ko 1072
▁images 1071
▁upon 1071
▁但它 1071
頁 1071
▁extend 1070
▁paris 1070
地區的 1070
好處 1070
復甦 1070
▁foundation 1069
▁integration 1069
▁有人 1069
的反應 1068
轉型 1068
成功的 1067
pping 1066
▁feed 1066
▁technological 1066
當我 1066
▁detail 1065
▁nine 1065
就有 1065
批 1065
▁virtual 1064
▁male 1063
留下 1063
▁camp 1062
估計 1062
退出 1062
顯著 1062
黑人 1062
▁tiny 1061
更有 1061
當局 1061
癌 1061
▁management 1060
▁objective 1060
變得更 1060
produced 1059
▁concerns 1059
原因是 1059
的核心 1059
設備 1059
50% 1058
all 1058
▁college 1058
▁continued 1058
▁seemed 1058
將在 1058
會說 1058
ana 1057
gal 1057
▁burden 1057
▁efficient 1057
的狀況 1057
▁bigger 1056
▁continent 1056
▁gene 1056
▁trial 1056
患者 1056
衆 1056
▁morning 1055
在我 1055
的作用 1055
育 1055
裝置 1055
late 1054
nic 1054
▁但他們 1054
回報 1054
消 1054
龍 1054
▁mine 1053
動盪 1053
遏制 1053
重建 1053
▁connection 1052
▁implement 1052
取決於 1052
回來 1052
第二個 1052
▁severe 1051
▁unique 1051
巧 1051
得到了 1051
相同的 1051
▁fit 1050
哪些 1050
▁discovered 1049
▁existing 1049
▁在這個 1049
事務 1049
作品 1049
同事 1049
看到的 1049
誤 1049
警察 1049
hal 1048
my 1048
▁200 1048
▁movie 1048
丹 1048
典 1048
削弱 1048
進口 1047
還沒有 1047
market 1046
par 1046
▁core 1046
▁double 1046
▁engineer 1046
▁牠們 1046
術 1046
▁birth 1045
▁cru 1044
▁literally 1044
▁特朗普 1044
事物 1044
人類的 1044
懷 1044
核武器 1044
眼睛 1044
釋放 1044
▁photograph 1043
國際社會 1043
▁identity 1042
佈 1042
百分之 1042
的數據 1042
▁flow 1041
併 1041
勃 1041
how 1040
▁bubble 1040
▁decide 1040
▁died 1040
幕 1040
很有 1040
都沒有 1040
sign 1039
▁baby 1039
▁moved 1039
▁sit 1039
前景 1039
房子 1039
控 1039
不想 1038
創造出 1038
弄 1038
禁止 1038
▁associat 1037
一家 1037
▁5% 1036
▁responsible 1036
俄 1036
script 1035
合理 1035
丁 1034
儘管 1034
娜 1034
翻 1034
是如此 1033
的國際 1033
窮 1033
▁owing 1032
▁teach 1032
▁unit 1032
注意到 1032
程序 1032
▁60 1031
▁required 1031
妳 1031
▁store 1030
有限 1030
隨著 1030
1. 1029
bar 1029
▁cars 1029
岸 1029
恐怖主義 1029
遇 1029
fold 1028
其實是 1028
可行 1028
大陸 1028
對我 1028
徒 1028
細 1028
▁至少 1027
意見 1027
▁haven 1026
也就是 1026
好像 1026
靜 1026
ologist 1025
▁correct 1025
幾個月 1025
系 1025
要如何 1025
▁facing 1024
▁talks 1024
就在 1024
該地區 1024
del 1023
▁plants 1023
▁various 1023
借 1023
版 1023
的感覺 1023
和經濟 1022
所做的 1022
ica 1021
▁belief 1021
勞動 1021
呼 1021
狗 1021
▁smaller 1020
媽媽 1020
所在 1020
政客 1020
▁paid 1019
▁standing 1019
地圖 1019
虛 1019
▁causes 1018
▁elsewhere 1018
衣 1018
還在 1018
bur 1017
oli 1017
▁employ 1017
忽視 1017
辯論 1017
▁rapidly 1016
和美國 1016
集中 1016
預防 1016
top 1015
▁gold 1015
立法 1015
辛 1015
▁killed 1014
段 1014
▁2007 1013
▁photo 1013
▁worst 1013
▁這是我 1013
暗 1013
核心 1013
每個人 1013
憤怒 1012
願 1012
▁animal 1011
▁forms 1011
▁reduction 1011
功 1011
是非常 1011
瑞 1011
美好 1011
記者 1011
ath 1010
▁lines 1010
▁在美國 1010
人數 1010
循環 1010
▁female 1009
▁ke 1009
兄弟 1009
民主黨 1009
組合 1009
組成 1009
美麗 1009
▁commercial 1008
太陽 1008
眾 1008
大大 1007
▁人類 1006
實在 1006
的利益 1006
▁cycle 1005
公司的 1005
nce 1004
▁boom 1004
最近的 1004
混亂 1004
meter 1003
▁meant 1003
▁prison 1003
執 1003
審 1003
• 1002
▁mention 1002
▁religion 1002
撒 1002
的概念 1002
貶值 1002
▁breath 1001
▁express 1001
粉 1001
ari 1000
pu 1000
特徵 1000
unless 999
不得不 999
▁factor 998
▁unlikely 998
在過去 998
蘇 998
fri 997
▁army 997
▁sent 997
▁surprising 997
很少 997
▁established 996
▁rein 996
▁aren 995
▁remind 995
多麼 995
般 995
醫 995
▁nice 994
演化 994
牙 994
相同 994
轉移 994
都可以 994
▁demo 993
▁touch 993
▁wonderful 993
不太 993
律 993
相似 993
積 993
競選 993
▁danger 992
▁english 992
▁famous 992
坦 992
增長率 992
收集 992
▁socalled 991
▁尤其是 991
和政治 991
採 991
▁1980 990
▁reveal 990
四個 990
rank 989
▁ii 989
凱 989
down 988
▁border 988
▁crucial 988
▁otherwise 988
▁river 988
健 988
像這樣 988
尾 988
closer 987
▁bodies 987
▁burn 986
流動 986
究竟 986
迫使 986
▁17 985
▁2000 985
▁disaster 985
▁steps 985
丟 985
強大 985
撞 985
給了 985
習慣 985
▁nobody 984
▁summer 984
▁一旦 984
的環境 984
嬰兒 983
500 982
▁guess 982
▁我希望 982
的行為 982
萬人 982
▁content 981
▁letter 981
▁waste 981
並未 981
燃料 981
一步 980
校 980
邊緣 980
2010 979
▁ball 979
▁obviously 979
原本 979
夢 979
箱 979
那裏 979
▁constant 978
▁substantial 978
主題 978
帝國 978
樂觀 978
▁committ 977
材 977
猜 977
競爭力 977
▁arm 976
▁event 976
▁wild 976
▁我們要 976
文章 976
民粹主義 976
滑 976
質疑 976
透 976
2009 975
place 975
▁overall 975
加速 975
對手 975
持有 975
耶 975
肯 975
顯 975
▁miles 974
▁transfer 974
共識 974
帕 974
結論 974
▁electricity 973
▁expansion 973
被迫 973
雄 973
ik 972
▁funding 972
▁作爲 972
的重要 972
羣體 972
耳 972
鬥爭 972
▁method 971
▁original 971
▁professional 971
▁subsidi 971
如同 971
的大腦 971
集體 971
▁dynamic 970
▁secure 970
稱為 970
tter 969
▁google 969
▁parliament 969
兩年 969
職業 969
▁deficits 968
信號 968
堆 968
聽起來 968
退休 968
鏡 968
ries 967
▁brother 967
▁compared 967
露 967
飛行 967
▁discussion 966
▁據 966
影像 966
斯特 966
父親 966
章 966
部長 966
▁desire 965
▁fighting 965
▁safety 965
▁screen 965
糖 965
▁convince 964
▁humanity 964
信用 964
其中一個 964
發出 964
的照片 964
禮 964
航 964
貼 964
還會 964
▁bus 963
▁ended 963
國際貨幣基金組織 963
贏 963
▁activities 962
▁bin 962
一大 962
主導 962
穩 962
這些國家 962
mark 961
neither 961
▁fine 961
▁neighbors 961
▁即便 961
和社會 961
完整 961
思維 961
擺脫 961
補貼 961
變革 961
▁virus 959
天然氣 959
▁asset 958
▁defend 958
▁foot 958
縮 958
轉向 958
loc 957
▁examples 957
▁object 957
▁rare 957
帶來了 957
我要 957
貧 957
還能 957
▁arriv 956
了我 956
題 956
▁attract 955
行星 955
▁mission 954
▁square 954
也將 954
式的 954
認知 954
足夠 954
work 953
今年 953
▁additional 952
▁sexual 952
寄 952
模 952
視爲 952
▁consumer 951
上了 951
互 951
深刻 951
▁gender 950
▁independence 950
兩者 950
園 950
為何 950
這兩個 950
▁communication 949
宣 949
關心 949
顏色 949
▁providing 948
▁rid 948
▁round 948
做的事 948
兩種 948
春 948
酷 948
雙方 948
lum 947
▁poll 947
▁thanks 947
▁warming 947
大家都 947
的那樣 947
▁effectively 946
交通 946
整體 946
▁opinion 945
▁他們會 945
撤 945
▁holding 944
▁journey 944
▁proposal 944
克服 944
武裝 944
精英 944
▁faces 943
▁fan 943
▁sounds 943
▁condition 942
▁elite 942
參 942
在歐洲 942
年以來 942
遭受 942
ets 941
▁conservative 941
▁stronger 941
介 941
▁lived 940
▁partners 940
信仰 940
失業率 940
set 939
▁match 939
▁principle 939
▁quarter 939
沉 939
▁battle 938
▁feet 938
▁incredible 938
大量的 938
變成了 938
▁afford 937
▁mix 937
圓 937
抗議 937
當我們 937
aught 936
加劇 936
帶著 936
房間 936
總體 936
試驗 936
▁cuts 935
▁tool 935
▁如果我 935
▁關於 935
依靠 935
動力 935
grad 934
▁pattern 934
▁stem 934
支持者 934
消除 934
matic 933
之所以 933
尊重 933
約翰 933
霍 933
你會 932
劃 932
大國 932
▁trip 931
泡沫 931
金融市場 931
▁hundred 930
北約 930
的技術 930
▁continues 929
▁eastern 929
那是 929
▁agreed 928
協調 928
廠 928
徵 928
考 928
▁essentially 927
席 927
民族主義 927
的同時 927
bol 926
▁apply 926
▁flu 926
一群 926
泰 926
電力 925
14 924
官方 924
尚 924
很容易 924
振 924
暖 924
首先 924
▁throw 923
▁有時 923
孩子們 923
察 923
局面 923
拖 923
測量 923
rich 922
▁creative 922
▁xi 922
▁否則 922
居民 922
有能力 922
正確的 922
青 922
以下 921
幅 921
教訓 921
趕 921
足以 921
bsp 920
▁differences 920
▁memory 920
那時 920
▁borders 919
▁computers 919
▁easier 919
▁intellectual 919
▁output 919
▁universal 919
▁writing 919
歷史上 919
激進 919
▁dan 917
▁leaving 917
作出 917
這些問題 917
雪 917
▁confront 916
▁criminal 916
更大 916
觀念 916
▁career 915
▁estimate 915
▁immediately 915
▁sky 915
數位 915
▁spain 914
▁terrorism 914
▁trigger 914
人民幣 914
合法 914
居住 914
年齡 914
掌握 914
有時候 914
監獄 914
進化 914
▁housing 913
▁vulnerable 913
季 913
的做法 913
的第一 913
警告 913
▁bacteria 912
▁detect 912
▁summit 912
供 912
折 912
麗 912
aimed 911
▁farmers 911
研發 911
35 910
▁actions 910
休 910
右 910
爭議 910
▁march 909
▁roll 909
遊 909
▁expensive 908
▁tough 908
價值觀 908
都知道 908
▁financing 907
▁partnership 907
世界銀行 907
展開 907
數百萬 907
有許多 907
的人口 907
走向 907
▁我覺得 906
中央 906
制裁 906
副 906
堡 906
餐 906
▁previous 905
▁prosperity 905
▁version 905
一百 905
推進 905
潛力 905
跟我 905
部份 905
雲 905
▁choices 904
▁entrepreneur 904
▁insurance 904
▁去年 904
所需要的 904
波蘭 904
bert 903
▁aim 903
▁manufacturing 903
▁platform 903
▁我可以 903
夥伴 903
至關重要 903
suddenly 902
▁weight 902
▁以色列 902
危險的 902
只會 902
差距 902
替 902
阻礙 902
▁document 901
▁due 901
▁regions 901
冒 901
可靠 901
對待 901
iff 900
▁16 900
▁camera 900
▁doctors 900
▁prove 900
▁threaten 900
兒子 900
受害者 900
基本上 900
擺 900
gram 899
▁driving 899
▁surplus 899
▁weaken 899
加上 899
安排 899
將其 899
是很 899
▁generate 898
本國 898
桌 898
▁deeply 897
▁option 897
▁showing 897
原子 897
造成的 897
▁rock 896
▁skin 896
▁sovereign 896
延 896
▁september 895
▁strength 895
▁unlike 895
乘 895
超越 895
▁involve 894
▁negotiat 894
▁principles 894
▁reserves 894
旁 894
狀 894
ack 893
ept 893
zi 893
▁我很 893
敵 893
▁dog 892
▁institutional 892
▁primary 892
▁useful 892
增加了 892
理念 892
een 891
▁draw 891
揚 891
守 890
表演 890
馬上 890
▁feature 889
▁rain 889
▁sides 889
▁vital 889
呼籲 889
峯會 889
▁saving 888
保守 888
將是 888
新興市場 888
打開 887
龐大 887
停滯 886
沒人 886
的城市 886
耗 886
館 886
▁這意味着 885
大小 885
無論 885
rk 884
▁possibility 884
外交政策 884
我自己 884
與其 884
30% 883
▁hot 883
浪 883
纔 883
▁gla 882
▁importance 882
訂 882
▁please 881
▁sand 881
▁發自 881
亦 881
實行 881
驚訝 881
▁barack 880
▁ideal 880
淨 880
craft 879
▁第三 879
你能 879
注意力 879
窮人 879
辦公室 879
造成了 879
zz 878
▁allies 878
▁considered 878
▁savings 878
有一天 878
有時 878
真是 878
說話 878
▁instrument 877
矛盾 877
胎 877
▁consensus 876
▁fix 876
▁我們就 876
繞 876
能否 876
能在 876
藝術家 876
eng 875
▁indicat 875
也不會 875
想象 875
2015 874
▁suffering 874
▁— 874
▁她們 874
擔任 874
診斷 874
面前 874
▁whom 873
享受 873
女兒 873
搖 873
期望 873
渴望 873
這些人 872
▁series 871
所帶來的 871
指數 871
教授 871
文明 871
▁evolution 870
理性 870
這一切 870
▁hiv 869
自動 869
響 869
17 868
▁consumers 868
▁interact 868
▁page 868
▁property 868
▁stable 868
▁web 868
▁看看 868
出現在 868
斯坦 868
視覺 868
load 867
▁falling 867
▁raised 867
位於 867
個國家 867
21 866
▁machines 866
▁materials 866
▁robot 866
正義 866
真相 866
▁earn 865
▁math 865
▁operat 865
▁train 865
可以用 864
實體 864
洞 864
的努力 864
▁reaction 863
任何人 863
有機會 863
考慮到 863
▁apparent 862
▁nato 862
句 862
好了 862
的行爲 862
裁 862
資本主義 862
▁favorite 861
▁pop 861
▁republican 861
▁student 861
夠 861
情況下 861
託 861
遍 861
200 860
hir 860
▁george 860
▁onto 860
▁promot 860
▁visual 860
剩 860
營養 860
的地區 860
的學生 860
童 860
▁doctor 859
▁而我們 859
▁除非 859
喔 859
珍 859
▁entirely 858
▁mal 858
奪 858
學院 858
規劃 858
▁emotional 857
▁reduced 857
▁victory 857
偉大的 857
男孩 857
遲 857
▁borrow 856
▁fossil 856
▁sources 856
▁transformation 856
喜 856
▁rely 855
▁talked 855
不管 855
流動性 855
略 855
盟友 855
看待 855
長大 855
▁suggests 854
不僅僅是 854
裔 854
▁mom 853
堪 853
怕 853
謀 853
▁shortterm 852
▁vaccine 852
後者 852
的過程 852
相關的 852
聞 852
男 851
600 850
▁compet 850
▁incentives 850
▁就在 850
一件事 850
二氧化碳 850
利亞 850
根本不 850
能讓 850
裂 850
言論 850
awa 849
capable 849
▁auto 849
▁coal 849
▁connected 849
▁另一個 849
局勢 849
指標 849
混 849
甚 849
陰 849
▁2005 848
▁daughter 848
▁mag 848
▁stick 848
▁接下來 848
▁誰 848
也不是 848
創造了 848
爲何 848
隨後 848
香 848
2000 847
▁korean 847
▁played 847
▁town 847
崗位 847
給你 847
莉 847
ek 846
▁abuse 846
▁managed 846
太陽能 846
謝 846
40% 845
▁identify 845
▁lies 845
事業 845
儲備 845
跡 845
領土 845
▁不幸的是 844
一間 844
左 844
忽略 844
每一 844
盛 844
適合 844
27 843
▁alliance 843
▁promote 843
▁spot 843
反而 843
朗 843
週期 843
▁crises 842
拍攝 842
賴 842
高達 842
ident 841
▁neuro 841
▁opt 841
▁temperature 841
深入 841
衡量 841
邀請 841
0. 840
22 840
▁iron 840
▁pal 840
足夠的 840
▁arms 839
▁但他 839
去做 839
的名字 839
認真 839
除了 839
▁hero 838
▁hole 838
▁secretary 838
創意 838
幻 838
藍 838
預計 838
不好 837
供給 837
讚 837
room 836
▁14 836
判斷 836
態度 836
75 835
▁stake 835
潛 835
相當於 835
一代 834
唯一的 834
必要的 834
志 834
游 834
至今 834
▁islam 833
▁older 833
▁奧巴馬 833
司法 833
星球 833
▁chain 832
▁discover 832
▁industries 832
▁notice 832
▁pose 832
▁sanctions 832
▁我相信 832
帶來的 832
廣告 832
所謂 832
礦 832
邦 832
黎巴嫩 832
▁engage 831
下跌 831
搭 831
的理由 831
美金 831
莎 831
邏輯 831
做得 830
當選 830
23 829
▁mountain 829
隨着 829
▁complicated 828
▁embrace 828
▁perform 828
恐 828
邊境 828
附 828
lf 827
▁bird 827
▁games 827
榮 827
致力於 827
體現 827
ken 826
▁elected 826
▁plans 826
▁written 826
保障 826
全新 826
盟 826
▁addition 825
▁australia 825
▁profound 825
創作 825
壯 825
廢 825
▁chris 824
▁這就 824
的權利 824
興 824
▁rural 823
oid 822
愈 822
收到 822
是從 822
▁flows 821
▁ratio 821
桑 821
樓 821
際 821
▁excessive 820
▁spring 820
▁這也是 820
▁arabia 819
▁judge 819
▁widely 819
對我來說 819
年間 819
沒錯 819
▁apart 818
▁fell 818
▁software 818
▁southern 818
期待 818
unk 817
▁heat 817
增強 817
比如 817
的部分 817
碰 817
mber 816
stream 816
▁healthcare 816
▁named 816
▁pur 816
不一樣 816
最初 816
評論 816
讓它 816
鄰國 816
▁cri 815
▁robots 815
妙 815
杜 815
照顧 815
▁13 814
▁zone 814
世代 814
訴 814
購 813
▁understood 812
▁各位 812
方針 812
閱讀 812
▁bringing 811
▁caus 811
▁ignor 811
▁opposite 811
有着 811
法庭 811
流行 811
▁bridge 810
▁permanent 810
▁significantly 810
千萬 810
承受 810
特別是 810
谷 810
驅動 810
150 809
▁exception 809
▁highest 809
學會 809
法案 809
辭 809
old 808
▁irre 808
▁stimulus 808
分歧 808
▁magic 807
嚴格 807
床 807
留在 807
部隊 807
▁austerity 806
呼吸 806
爲了 806
rou 805
▁educat 805
▁gains 805
多年 805
▁claims 804
▁networks 804
▁sum 804
▁yield 804
一部分 804
破產 804
韋 804
▁blind 803
▁limits 803
▁relationships 803
▁在過去 803
對他們 803
操作 803
的變化 803
▁king 802
▁今年 802
亡 802
兵 802
困境 802
瘋狂 802
股票 802
▁extraordinary 801
▁scenario 801
▁te 801
▁tension 801
下一個 801
喝 801
慘 801
提醒 801
看過 801
踏 801
▁taught 800
▁teachers 800
到達 800
惠 800
所面臨的 800
途 800
醒 800
▁faith 799
▁hour 799
對其 799
案例 799
▁experts 798
▁song 798
不願 798
患 798
2. 797
均 797
我會 797
紀錄 797
軟體 797
▁2001 796
歐洲人 796
緩慢 796
邁 796
都要 796
2030 795
▁types 795
一邊 795
帳 795
過於 795
▁patterns 794
今 794
大選 794
要麼 794
16 793
受益 793
estimated 792
tally 792
▁recover 792
▁不要 791
lon 790
▁neighborhood 790
▁observ 790
低於 790
從事 790
替代 790
▁contrary 789
富裕 789
每次 789
▁researchers 788
▁tight 788
▁我們都 788
動機 788
卻是 788
很可能 788
摧毀 788
最低 788
策 788
經歷了 788
▁actual 787
▁constitution 787
▁cry 787
▁mad 787
▁soft 787
在我們的 787
脈 787
這點 787
ivity 786
▁component 786
打破 786
抱 786
▁coalition 785
▁gather 785
▁pursue 785
回家 785
麻煩 785
▁hair 784
熱情 784
的目的 784
的長期 784
雜 784
▁exercise 783
▁lesson 783
▁reading 783
應該是 783
stone 782
▁surround 782
很棒的 782
意外 782
是爲了 782
是誰 782
kan 781
▁govern 781
▁regular 781
擠 781
重組 781
▁incredibly 780
伐 780
在中國 780
直到 780
century 779
▁catch 779
主張 779
序 779
英雄 779
▁deter 778
▁syrian 778
▁technical 778
一體化 778
了一些 778
印象 778
妹 778
感謝 778
這段 778
▁abandon 777
▁emerge 777
▁possib 777
▁turning 777
是最 777
▁construction 776
▁logic 776
▁plastic 776
工程師 776
面臨着 776
▁channel 775
▁circle 775
▁statement 775
不只 775
不錯 775
匯 775
招 775
沒有人 775
糧食 775
▁resistance 774
嚇 774
怎麼做 774
的態度 774
鐘 774
▁generations 773
出去 773
泡 773
浪費 773
訪問 773
800 772
▁narrative 772
後來 772
是為了 772
經營 772
▁divide 771
▁shi 771
失去了 771
的威脅 771
▁expectations 770
▁giant 770
▁survey 770
▁wages 770
皇 770
真的很 770
花費 770
▁explore 769
▁grant 769
▁jump 769
缺陷 769
▁profit 768
始 768
客戶 768
獵 768
瘧疾 768
的價值 768
的承諾 768
這個世界 768
物理 767
gotten 766
▁faced 766
困 766
對美國 766
工廠 766
幸運 766
沿 766
lash 765
▁blame 765
最好 765
▁combination 764
▁loans 764
仔細 764
佩 764
情形 764
整合 764
▁extent 763
▁replace 763
▁我們現在 763
獨裁 763
賈 763
2020 762
▁pan 762
一套 762
利比亞 762
您 762
意願 762
我們能 762
批准 762
敗 762
未能 762
村 762
檢查 762
波動 762
鳥 762
▁symbol 761
宣傳 761
獲得了 761
的角度 761
約束 761
美國總統 761
透明 761
這個國家 761
過了 761
附近 761
▁northern 760
▁perceiv 760
互聯網 760
敬 760
立場 760
▁except 759
』 759
獨特 759
遭遇 759
▁competitive 758
▁purchase 758
各個 758
富有 758
社群 758
自身的 758
gy 757
lk 757
▁contribute 757
bor 756
chan 756
▁我們已經 756
由此 756
頗 756
▁genes 755
▁politically 755
▁populist 755
『 755
元素 755
另外 755
對象 755
的重要性 755
節目 755
▁diver 754
▁households 754
▁partner 754
▁structures 754
加拿大 754
尖 754
捲 754
通貨膨脹 754
過來 754
幸福 753
文字 753
牢 753
產出 753
的看法 753
▁cash 752
▁coast 752
▁colleagues 752
▁immediate 752
▁insist 752
▁resolve 752
▁這不是 752
▁這是個 752
同時也 752
的位置 752
要做 752
2002 751
ose 751
ulation 751
▁2006 751
▁equity 751
▁tech 751
染 751
等待 751
起到 751
鎖 751
首相 751
scale 750
▁finish 750
▁hate 750
▁repeat 750
▁我們知道 750
政治家 750
肺 750
這條 750
▁iranian 749
▁seat 749
▁wherea 749
▁whi 749
▁我想要 749
哈馬斯 749
的任務 749
的責任 749
2012 748
sembl 748
▁atmosphere 748
▁roman 748
偷 748
尚未 748
氏 748
300 747
graph 747
lv 747
▁determine 747
▁mars 747
▁sustain 747
凡 747
導致了 747
就要 747
白人 747
grade 746
▁bla 746
▁latest 746
中央銀行 746
今天的 746
悲 746
提出了 746
據 746
的作品 746
的工具 746
視為 746
輛 746
類型 746
win 745
▁losses 745
▁remarkable 745
▁sectors 744
▁uncertainty 744
▁♪ 744
▁然後我 744
堂 744
lie 743
og 743
uck 743
▁1970 743
▁distribution 743
▁trick 743
宣稱 743
毫不 743
缺少 743
補 743
▁circumstances 742
▁improv 742
▁violent 742
▁但卻 742
▁另外 742
也無法 742
南非 742
報導 742
擴散 742
準備好 742
灰 742
爆炸 742
發動 742
發電 742
的唯一 742
胡 742
藉 742
迴 742
2007 741
iz 741
▁ordinary 741
幾十年 741
指責 741
的成本 741
突 741
竭 741
藉由 741
hood 740
▁walking 740
右翼 740
單位 740
在其 740
構 740
涉及 740
的壓力 740
睡 740
鎮 740
▁300 739
▁diplomatic 739
▁journalist 739
▁minds 739
▁mobile 739
▁那時 739
個體 739
敢 739
比賽 739
社 739
▁agriculture 738
▁bond 738
▁device 738
先生 738
前進 738
損 738
旨在 738
歧視 738
ji 737
▁analysis 737
▁div 737
▁threats 737
德里 737
細節 737
豐富 737
hand 736
展現 736
忙 736
識 736
style 735
‧ 735
▁disappear 735
▁generally 735
入侵 735
的後果 735
看到了 735
uni 734
▁necessar 734
一塊 734
旗 734
晚上 734
當作 734
的事實 734
籌 734
酸 734
phone 733
周圍 733
誠 733
負面 733
顯而易見 733
▁cloud 732
▁consistent 732
▁honest 732
▁monitor 732
▁precisely 732
橫 732
歡迎 732
課程 732
~ 731
經濟發展 731
而來 731
▁targets 730
▁wife 730
▁我就 730
伴 730
產生了 730
菜 730
▁broken 729
▁在這 729
管制 729
簽署 729
▁default 728
取消 728
本來 728
興趣 728
pacific 727
term 727
water 727
▁clinton 727
▁deeper 727
▁shot 727
▁window 727
命運 727
監督 727
紐 727
80% 726
▁achieved 726
▁hamas 726
▁pursu 726
▁現在我們 726
標誌 726
back 725
▁church 725
▁ethnic 725
▁quick 725
▁representative 725
▁strange 725
▁有些人 725
的空間 725
的資料 725
給他們 725
ility 724
▁discuss 724
▁driver 724
▁libya 724
上漲 724
具備 724
冒險 724
我們需要 724
旅行 724
準確 724
犧牲 724
的基本 724
譜 724
鄰 724
imf 723
▁2% 723
▁department 723
▁efficiency 723
▁我開始 723
gh 722
merely 722
▁crazy 722
取得了 722
新興 722
街 722
qua 721
▁tradition 721
粒子 721
蛋白質 721
費用 721
cher 720
▁resolution 720
▁setting 720
祕 720
羅馬 720
▁assistance 719
▁pictures 719
▁sharing 719
所知 719
邊界 719
鮮 719
▁seriously 718
▁spoke 718
▁sufficient 718
爬 718
的事物 718
▁80 717
另一種 717
災 717
賺 717
▁ancient 716
▁implication 716
▁productive 716
大眾 716
奴 716
▁abe 715
▁article 715
▁civilian 715
▁daily 715
▁paul 715
▁streets 715
▁vehicle 715
一段時間 715
固定 715
在座 715
很簡單 715
漢 715
蛋 715
13 714
stopped 714
▁21 714
不確定性 714
荷蘭 714
▁crowd 713
▁losing 713
▁protein 713
▁resist 713
▁tap 713
所需的 713
表現出 713
貌 713
rick 712
▁review 712
世界經濟 712
地點 712
衛星 712
遜 712
▁2016 711
▁appropriate 711
▁construct 711
▁contribution 711
▁defeat 711
交流 711
所說的 711
抽 711
更高的 711
溫度 711
脫離 711
▁announced 710
▁appeal 710
▁improvement 710
▁mess 710
什 710
抑制 710
突破 710
緊密 710
▁firm 709
▁reward 709
▁這是我們 709
乾 709
厚 709
就必須 709
形狀 709
溫和 709
的基因 709
long 708
▁california 708
▁happiness 708
▁practical 708
▁wage 708
所有人都 708
扎 708
把這些 708
活力 708
談到 708
髮 708
▁facebook 707
▁master 707
之上 707
位置 707
割 707
第四 707
肥 707
背後 707
▁malaria 706
▁suit 706
以外 706
田 706
點子 706
▁accident 705
▁disorder 705
▁empower 705
▁gun 705
▁options 705
▁separate 705
▁trees 705
▁基本上 705
免費 705
針 705
關聯 705
阿根廷 705
▁describe 704
▁diversity 704
▁multiple 704
沙特 704
緊急 704
轉換 704
陳 704
2011 703
▁comment 703
▁television 703
▁wake 703
不幸 703
幼 703
從來沒有 703
液 703
窗 703
袋 703
開支 703
mission 702
▁argued 702
▁movements 702
▁objects 702
紅色 702
象徵 702
這張 702
25% 701
▁後來 701
促使 701
愛爾蘭 701
甲 701
的時代 701
遷 701
都被 701
bra 700
▁brand 700
▁guide 700
▁related 700
安倍 700
岩 700
挺 700
接下來 700
ought 699
▁dance 699
▁grown 699
彩 699
戈 699
所能 699
有利於 699
ama 698
described 698
▁communist 698
刑 698
在全球 698
演說 698
肢 698
返 698
首次 698
á 697
▁elements 697
▁narrow 697
掌 697
火星 697
▁dispute 696
▁overcome 696
所造成的 696
角度 696
馬克 696
▁accounts 695
▁alive 695
▁december 695
▁keeping 695
▁somewhere 695
出於 695
旅程 695
fra 694
加州 694
妥協 694
澤 694
的答案 694
磁 694
這兩 694
連接 694
可以通過 693
合理的 693
哪裡 693
培養 693
損害 693
熟悉 693
讓他 693
進行了 693
▁sold 692
最爲 692
沃 692
甚至是 692
農民 692
third 691
▁familiar 691
一片 691
以往 691
孔 691
鋼 691
▁enhance 690
▁outcomes 690
▁我發現 690
採取行動 690
萬億美元 690
複製 690
這就是 690
65 689
▁beat 689
▁concerned 689
▁killing 689
▁wood 689
會導致 689
畢業 689
黑暗 689
▁engineering 688
▁formal 688
▁raising 688
▁variet 688
五十 688
保留 688
克里斯 688
荒 688
還可以 688
靈活 688
gun 687
▁我們將 687
圖像 687
打算 687
拼 687
糟 687
▁biology 686
▁nigeria 686
▁origin 686
▁紐約 686
一千 686
感受到 686
▁dad 685
▁palestinians 685
偶 685
叛 685
圖片 685
垃圾 685
將來 685
烈 685
解放 685
來做 684
兼 684
應該要 684
踐 684
▁executive 683
▁islamist 683
▁typically 683
搬 683
稱爲 683
▁anybody 682
▁corner 682
▁radio 682
▁victims 682
▁它會 682
各自 682
念 682
維護 682
致命 682
▁brexit 681
▁enterprise 681
▁finger 681
▁forget 681
▁fourth 681
▁refugee 681
▁sharp 681
▁tree 681
兆 681
毀 681
腿 681
▁welcome 680
我們要 680
指導 680
茨 680
▁algorithm 679
▁cast 679
▁frank 679
▁heavy 679
▁twice 679
債權人 679
會把 679
認同 679
談談 679
▁tv 678
一切都 678
士兵 678
迎 678
陣 678
黨派 678
60% 677
abilities 677
如果我們 677
學者 677
毫無疑問 677
銀 677
驚人的 677
▁bound 676
▁november 676
▁supplie 676
企 676
刺 676
漁 676
見到 676
▁architecture 675
▁capitalism 675
▁interaction 675
▁youth 675
不滿 675
▁2004 674
▁blow 674
▁combined 674
▁instance 674
明智 674
會讓 674
雞 674
顆 674
▁bias 673
▁ear 673
▁immigration 673
▁lebanon 673
▁strike 673
▁traffic 673
一生 673
信貸 673
官僚 673
左翼 673
幣 673
手中 673
握 673
產量 673
芬 673
conscious 672
▁rational 672
▁scan 672
uit 671
▁practices 671
有利 671
皮膚 671
聊 671
諸 671
tune 670
▁command 670
▁stabiliz 670
▁身為 670
伊斯蘭國 670
房地產 670
習 670
讓人們 670
▁drink 669
▁exciting 669
▁floor 669
▁june 669
二戰 669
多邊 669
微生物 669
雜誌 669
2013 668
vin 668
▁hurt 668
▁lessons 668
▁mechanism 668
▁murder 668
▁spin 668
也可能 668
仿 668
道理 668
非法 668
ong 667
▁prepared 667
忘 667
捍衛 667
有些人 667
滅 667
給我們 667
▁aware 666
▁hall 666
▁improved 666
▁liquidity 666
▁shop 666
康 666
操縱 666
run 665
▁opening 665
▁professor 665
▁profits 665
▁refus 665
屆 665
才是 665
的意義 665
衆多 665
atory 664
erson 664
▁calling 664
▁christian 664
▁escape 664
▁mc 664
▁speaking 664
▁stars 664
人均 664
咖啡 664
塑 664
很快就 664
非常重要 664
ina 663
▁biological 663
▁processes 663
佔據 663
側 663
哪個 663
拿出 663
會看到 663
生長 663
▁bat 662
▁operations 662
在這方面 662
步驟 662
額外 662
▁perception 661
▁sheet 661
▁supported 661
▁同時也 661
抓 661
90% 660
▁anywhere 660
▁我們能 660
按照 660
是不是 660
玻 660
聽過 660
這麼多 660
體內 660
▁lift 659
▁migration 659
▁talent 659
已經開始 659
接著 659
提振 659
早已 659
最多 659
討 659
設計師 659
雙邊 659
▁quo 658
▁survival 658
因為我們 658
培訓 658
孤立 658
, 657
▁moon 657
▁planning 657
▁所有這些 657
上帝 657
艱難 657
銷售 657
▁compassion 656
▁reported 656
▁station 656
▁urgent 656
克林頓 656
品質 656
奶 656
會造成 656
熟 656
都很 656
▁engine 655
▁physics 655
▁welfare 655
器官 655
專利 655
物體 655
的一切 655
篇 655
tech 654
▁muscle 654
一些人 654
現狀 654
發佈 654
謝謝 654
ase 653
bro 653
▁沒有人 653
形式的 653
律師 653
構建 653
猶太 653
融合 653
70% 652
▁belong 652
▁ko 652
▁medium 652
▁recognized 652
當前的 652
▁david 651
尤 651
從中 651
設施 651
說過 651
賦予 651
twitter 650
▁其次 650
偏見 650
常見 650
故 650
敵人 650
症狀 650
▁background 649
▁bilateral 649
▁deploy 649
▁economist 649
▁equivalent 649
他們自己 649
內戰 649
博士 649
建立了 649
旋 649
▁anyway 648
▁cutting 648
▁kenya 648
不如 648
婚 648
消滅 648
閃 648
gged 647
▁trading 647
不受 647
伊斯蘭教 647
鏈 647
▁advocate 646
▁compromise 646
▁conventional 646
▁interview 646
▁muslims 646
▁pollution 646
▁regulatory 646
▁resource 646
域 646
對方 646
震驚 646
spread 645
▁application 645
全都 645
的說法 645
綠 645
訊 645
追蹤 645
▁date 644
三年 644
做好 644
出版 644
決心 644
發現了 644
燃 643
的最佳 643
荷 643
▁exploit 642
▁harder 642
傾向 642
公正 642
消息 642
繼 642
耐 642
遺傳 642
重視 642
▁accus 641
▁artificial 641
▁distance 641
▁我不知道 641
儲 641
問我 641
有沒有 641
瑞典 641
的方式來 641
2014 640
2017 640
lay 640
▁24 640
▁candidates 640
▁forth 640
▁household 640
▁legitimacy 640
▁multilateral 640
▁sch 640
嘴 640
委 640
更快 640
與美國 640
還需要 640
intended 639
jo 639
▁2003 639
▁agricultural 639
▁centuries 639
▁pace 639
▁settlement 639
▁tele 639
▁這將 639
我們自己 639
挑 639
發行 639
意識形態 638
我們如何 638
探 638
瓶 638
羊 638
身邊 638
釋 638
26 637
controlled 637
generat 637
▁operate 637
▁republic 637
▁witness 637
介紹 637
合法性 637
懲罰 637
我們必須 637
教導 637
疊 637
的好處 637
盈餘 637
▁strategies 636
報道 636
大西洋 636
引導 636
機械 636
泥 636
高於 636
2050 635
▁intention 635
▁renminbi 635
▁sister 635
中產階級 635
有趣 635
的時刻 635
terrible 634
▁flood 634
▁missing 634
▁sick 634
仍在 634
感興趣 634
販 634
▁cyber 633
▁prize 633
一旦 633
了很多 633
傳遞 633
更高 633
生態 633
▁committee 632
▁notion 632
其他地方 632
到處 632
吸收 632
孩童 632
是這樣 632
煙 632
▁chief 631
▁commodity 631
不良 631
啦 631
民主國家 631
示威 631
立刻 631
羣 631
▁cook 630
▁glass 630
兩位 630
匹 630
因為我 630
抓住 630
淡 630
的樣子 630
薄 630
資助 630
震 630
▁$2 629
▁academic 629
▁newspaper 629
▁signs 629
不穩定 629
什麼樣的 629
大自然 629
屋 629
牽 629
▁abroad 628
▁percentage 628
把我 628
洋 628
▁laugh 627
▁random 627
將它 627
永 627
燒 627
獻 627
▁arrangement 626
▁assumption 626
來自於 626
塑膠 626
神經元 626
▁crop 625
▁odd 625
一台 625
二十年 625
宏觀經濟 625
貓 625
這種情況 625
隆 625
maker 624
ological 624
▁chair 624
▁technique 624
▁undermine 624
一座 624
不知 624
做法 624
基金會 624
壁 624
幸 624
評 624
話題 624
▁distinct 623
▁leverage 623
▁因為他們 623
▁我們發現 623
不久 623
狂 623
美國經濟 623
賓 623
29 622
▁explanation 622
不必 622
全球性 622
國外 622
壽命 622
就開始 622
打造 622
法院 622
駕駛 622
▁email 621
▁fle 621
▁senior 621
▁sentence 621
▁separat 621
▁這些人 621
夏 621
放緩 621
1999 620
account 620
holder 620
▁epi 620
▁lending 620
不起 620
建立一個 620
覽 620
head 619
trained 619
▁pin 619
數百 619
猶太人 619
稀 619
▁excited 618
▁spirit 618
冷戰 618
忘記 618
自由貿易 618
position 617
well 617
▁absence 617
▁teacher 617
▁transport 617
信念 617
心臟 617
組成的 617
▁conclusion 616
▁employees 616
▁landscape 616
▁paint 616
▁players 616
倡 616
抵 616
昂貴 616
現場 616
▁accelerat 615
▁agency 615
修正 615
共和國 615
反映了 615
奉 615
社交 615
24 614
pac 614
▁added 614
▁macroeconomic 614
之路 614
檢 614
腐 614
覆蓋 614
重複 614
▁differently 613
共享 613
國防 613
已經有 613
跨國 613
黃金 613
▁adjustment 612
▁communicate 612
▁compar 612
▁peaceful 612
▁unprecedented 612
優先 612
反對派 612
另 612
數千 612
束 612
腫瘤 612
鞋 612
700 611
dependent 611
tz 611
▁remained 611
不少 611
各地 611
就不會 611
情感 611
緬甸 611
income 610
▁agencies 610
▁neighbor 610
報紙 610
差別 610
抗生素 610
金錢 610
28 609
▁inspired 609
佔領 609
例外 609
大多 609
幾年前 609
稱之為 609
eath 608
▁lay 608
▁類似地 608
共產主義 608
壤 608
情報 608
線上 608
農村 608
▁anymore 607
▁constitutional 607
▁director 607
▁guard 607
▁但是我 607
他們所 607
候 607
形象 607
比率 607
的內容 607
解決問題 607
▁competitiveness 606
▁destruction 606
▁ecosystem 606
▁institute 606
▁weren 606
▁wire 606
▁而這些 606
以此 606
確認 606
薪 606
運輸 606
飯 606
▁armed 605
▁bare 605
▁ignore 605
▁但這些 605
侵 605
升值 605
1997 604
▁membership 604
公園 604
典型 604
琴 604
規範 604
▁author 603
▁sunni 603
否認 603
吸引力 603
很好的 603
累 603
金融機構 603
▁citizen 602
▁graduate 602
在哪裡 602
委內瑞拉 602
是怎麼 602
猛 602
ending 601
▁defined 601
▁highlight 601
▁honor 601
▁referendum 601
▁slightly 601
▁switch 601
凝 601
恰恰 601
甘 601
▁capita 600
▁devices 600
▁genuine 600
▁imbalance 600
原始 600
大會 600
小組 600
環境中 600
藍色 600
財務 600
▁affairs 599
▁prospects 599
▁release 599
▁republicans 599
▁reviv 599
▁tissue 599
僱 599
只需要 599
戰鬥 599
最佳 599
的代價 599
艾滋病 599
記住 599
fewer 598
▁arrest 598
▁hearing 598
▁minute 598
▁mutual 598
▁novel 598
▁特別是在 598
便宜 598
女士 598
很明顯 598
徑 598
欲 598
生活中 598
生產力 598
還沒 598
uri 597
▁dam 597
悲劇 597
義務 597
▁creditors 596
喬 596
敏感 596
消耗 596
統 596
▁acknowledge 595
▁beauty 595
▁civilization 595
▁crash 595
▁edge 595
▁flight 595
▁gaza 595
▁operation 595
▁restore 595
焦點 595
諷刺 595
身為 595
power 594
▁pension 594
▁resulting 594
▁vari 594
刊 594
可持續發展 594
會產生 594
有多少 594
油價 594
況 594
要讓 594
▁activist 593
▁inclusive 593
▁我們應該 593
才會 593
solving 592
▁par 592
▁即使是 592
司 592
喬治 592
日程 592
選項 592
前提 591
小說 591
已經被 591
處在 591
誇 591
那天 591
▁broader 590
▁capture 590
▁dozen 590
引擎 590
推出 590
法官 590
黃 590
fall 589
▁emerged 589
▁legislation 589
▁lie 589
▁mechanisms 589
也是如此 589
協 589
漫 589
舒 589
— 588
▁candidate 588
▁define 588
▁joint 588
▁scene 588
▁symptom 588
也很 588
寧 588
技巧 588
運行 588
▁accumulat 587
▁attitude 587
▁opponent 587
太平洋 587
小型 587
激烈 587
賭 587
走到 587
高級 587
▁fresh 586
▁volatil 586
▁weakness 586
克斯 586
抵制 586
照護 586
申請 586
神奇 586
fortunately 585
metric 585
▁architect 585
▁barriers 585
▁definition 585
▁recommend 585
一篇 585
可能性 585
啓動 585
在非洲 585
港 585
紀念 585
階層 585
隨之 585
vy 584
▁package 584
▁presidency 584
▁sco 584
前所未有的 584
反映 584
可怕的 584
成功地 584
截 584
沒有什麼 584
▁collaborat 583
▁participate 583
不喜歡 583
僅僅是 583
憑 583
把它們 583
推翻 583
永續 583
近期 583
▁bag 582
▁comprehensive 582
▁patent 582
作家 582
ography 581
▁closed 581
▁democracies 581
▁opened 581
▁score 581
參與者 581
哥倫比亞 581
菸 581
覆 581
誘 581
高中 581
化石燃料 580
帶到 580
必然 580
杯 580
焦慮 580
輩 580
board 579
▁desperate 579
▁kim 579
傢伙 579
排除 579
毒品 579
湯 579
▁relevant 578
▁rescue 578
▁teaching 578
暴露 578
聲稱 578
製造業 578
越來越多的 578
▁distribut 577
▁presence 577
下面 577
存在於 577
自殺 577
蜂 577
設立 577
香港 577
▁determined 576
▁donald 576
▁shut 576
▁worried 576
不安 576
今日 576
引入 576
暫時 576
▁dealing 575
▁greenhouse 575
▁january 575
▁sustained 575
人體 575
伴隨 575
危 575
各國政府 575
層次 575
現金 575
良好 575
譽 575
變得更加 575
途徑 575
人們對 574
嚴 574
地緣政治 574
夏天 574
失望 574
小心 574
崩 574
1989 573
▁dramatic 573
▁lend 573
作物 573
區別 573
永久 573
無疑 573
資格 573
違約 573
▁occurred 572
▁select 572
的立場 572
膜 572
衷 572
開心 572
rum 571
underlying 571
▁aggressive 571
▁broke 571
▁conduct 571
▁drawing 571
▁electoral 571
▁fascinat 571
▁她說 571
企業家 571
可以讓 571
姐 571
推行 571
月份 571
有一種 571
終結 571
纔是 571
阻 571
released 570
▁adults 570
▁participation 570
▁poland 570
▁shin 570
不僅是 570
困擾 570
棄 570
盲 570
鄰居 570
gate 569
ley 569
▁achiev 569
▁bright 569
▁deserve 569
▁peak 569
▁phase 569
▁rat 569
一個國家 569
孕 569
存活 569
專案 569
巴勒斯坦人 569
牧 569
遜尼派 569
▁attend 568
▁cloth 568
▁dramatically 568
▁ongoing 568
人工 568
來看看 568
殖民 568
繪 568
趨 568
eless 567
▁bankers 567
▁bone 567
▁expression 567
▁sovereignty 567
主流 567
勞動力市場 567
我們現在 567
無關 567
那就是 567
▁custom 566
▁genome 566
▁height 566
加沙 566
可見 566
智能 566
螢幕 566
class 565
stood 565
▁emotions 565
▁illegal 565
▁obstacle 565
▁staff 565
十億 565
家族 565
得出 565
生物學 565
az 564
▁deflation 564
▁eliminat 564
▁ensur 564
▁soldiers 564
▁transparency 564
使我們 564
公里 564
放大 564
發起 564
虛擬 564
顧問 564
飾 564
▁sin 563
不像 563
幅度 563
模擬 563
足球 563
鼓 563
▁apple 562
▁canada 562
▁engaged 562
▁england 562
▁undermin 562
▁換句話說 562
問題在於 562
晶 562
特性 562
獄 562
街頭 562
鞏固 562
estate 561
▁bunch 561
▁dialogue 561
▁infection 561
▁layer 561
▁regardless 561
▁soil 561
佳 561
強制 561
沮喪 561
皆 561
監 561
議員 561
馬拉 561
afraid 560
rin 560
▁accomplish 560
▁contact 560
▁creativity 560
▁illness 560
▁venezuela 560
▁我們還 560
什葉派 560
掛 560
探討 560
族群 560
▁closely 559
▁institution 559
▁introduced 559
▁location 559
▁renewable 559
三十 559
否 559
噸 559
好事 559
病患 559
算是 559
範圍內 559
這一問題 559
▁rhetoric 558
▁scientist 558
▁儘管如此 558
你自己 558
抑 558
晰 558
朵 558
橋 558
▁actors 557
▁electro 557
▁hill 557
▁speculat 557
十五 557
扭曲 557
拿到 557
無限 557
諸多 557
過渡 557
都市 557
青少年 557
american 556
▁fulfill 556
兩次 556
支撐 556
正面 556
氧 556
爭取 556
納入 556
2005 555
served 555
▁emergency 555
▁inevitable 555
▁joy 555
▁july 555
▁react 555
▁restor 555
先進 555
兩大 555
生態系統 555
直覺 555
▁deposit 554
▁rival 554
不可思議 554
美國政府 554
▁insight 553
播 553
架構 553
條款 553
avi 552
▁cambridge 552
▁declared 552
▁weather 552
世界上最 552
二十世紀 552
伸 552
慈善 552
改造 552
槓桿 552
貫 552
飲 552
more 551
▁creature 551
▁shoot 551
▁你就 551
噴 551
在英國 551
性質 551
此類 551
習近平 551
聲明 551
這些東西 551
遵守 551
雕 551
▁demonstrate 550
▁prince 550
儲存 550
地說 550
建築物 550
早上 550
是一位 550
松 550
沙特阿拉伯 550
涉 550
輔 550
▁disrupt 549
▁empire 549
▁walked 549
在內的 549
奈 549
學術 549
差不多 549
戲 549
股市 549
賬戶 549
level 548
▁authoritarian 548
▁failing 548
▁phenomenon 548
▁pound 548
▁wisdom 548
地下 548
孫 548
幾天 548
成熟 548
流入 548
監控 548
長時間 548
面積 548
駐 548
▁divided 547
▁museum 547
人工智慧 547
何時 547
有更多 547
李 547
漲 547
肌肉 547
蠻 547
說法 547
郵 547
▁corporations 546
▁crack 546
▁troops 546
後面 546
炎 546
▁babies 545
▁innovative 545
▁noneth 545
博物館 545
婦 545
家裡 545
深度 545
熊 545
現代化 545
背後的 545
血液 545
負債 545
▁1960 544
▁poorest 544
同一 544
看似 544
署 544
▁dc 543
▁husband 543
▁marriage 543
▁website 543
▁我現在 543
就這樣 543
找到了 543
此前 543
毀滅 543
沖 543
▁argentina 542
▁delay 542
▁instability 542
▁invent 542
▁kong 542
▁pot 542
▁revers 542
三分之一 542
人心 542
例如 542
前往 542
文件 542
柱 542
死於 542
物品 542
番 542
當下 542
良好的 542
要素 542
訊號 542
▁satellite 541
▁smell 541
似 541
在印度 541
平民 541
廳 541
有兩個 541
療 541
違 541
▁false 540
▁fashion 540
▁hong 540
▁motivat 540
▁pack 540
也許是 540
交換 540
凱恩斯 540
涯 540
混合 540
領導者 540
ruct 539
▁forecast 539
多樣性 539
很棒 539
攝 539
發達經濟體 539
練 539
衣服 539
設定 539
青年 539
free 538
▁accurate 538
▁painful 538
一部 538
小小的 538
減輕 538
蘋果 538
隔離 538
ez 537
related 537
▁habit 537
干 537
youtube 536
▁achievement 536
▁territory 536
▁users 536
他說 536
地理 536
屈 536
形勢 536
申 536
1998 535
▁dominat 535
▁exceed 535
▁immigrants 535
▁occasion 535
你知道 535
傾 535
刀 535
升級 535
媽 535
擾 535
活躍 535
立即 535
continuing 534
▁egyptian 534
▁equality 534
▁hang 534
人才 534
住房 534
可以從 534
擔 534
診 534
跡象 534
麽 534
fusion 533
volving 533
▁climb 533
▁dimension 533
▁moderate 533
▁rebel 533
分別 533
尺 533
澳大利亞 533
英里 533
達到了 533
ttle 532
▁dig 532
▁dying 532
▁evolved 532
▁prior 532
▁可是 532
便是 532
北京 532
歲時 532
清潔 532
稅率 532
許多國家 532
部落 532
face 531
▁exit 531
▁geo 531
▁neurons 531
▁painting 531
▁prevail 531
▁proportion 531
▁proved 531
▁provision 531
▁remote 531
我覺得 531
把他們 531
瑟 531
鉅額 531
▁adult 530
▁chart 530
▁fallen 530
▁proud 530
▁sought 530
▁swim 530
南部 530
怒 530
數十年 530
畫面 530
腺 530
軸 530
▁antibiotic 529
▁excess 529
▁italian 529
▁molecules 529
▁officer 529
▁reinforce 529
▁rose 529
▁transaction 529
▁translate 529
了解到 529
做過 529
持久 529
攝影 529
斥 529
鼓舞 529
▁combat 528
▁fellow 528
▁manufacture 528
很高 528
更重要的是 528
第三個 528
老鼠 528
▁bold 527
▁migrants 527
▁privilege 527
▁robust 527
▁statistics 527
▁valuable 527
勇氣 527
拉丁美洲 527
挖 527
搜尋 527
難題 527
▁exposed 526
▁impose 526
▁myth 526
▁october 526
▁particles 526
▁priority 526
懸 526
拉美 526
擁 526
柏林 526
獲取 526
精確 526
謹慎 526
違反 526
forcing 525
▁signed 525
▁slide 525
▁stuck 525
▁好吧 525
埋 525
就是這樣 525
攻 525
桶 525
▁secular 524
▁settle 524
▁specifically 524
去看 524
受歡迎 524
強硬 524
promised 523
▁currencies 523
▁meaningful 523
▁sequence 523
乏 523
分離 523
戀 523
版本 523
融入 523
論文 523
走進 523
nie 522
▁overwhelming 522
▁prospect 522
▁€ 522
在乎 522
業務 522
氣候變遷 522
跌 522
階級 522
aba 521
▁boat 521
▁display 521
▁forever 521
▁linked 521
▁vietnam 521
在某些 521
多種 521
有點像 521
▁classic 520
▁courage 520
▁universities 520
保羅 520
啓 520
審查 520
欠 520
炸 520
▁bought 519
▁bra 519
▁carried 519
▁diplomacy 519
▁educational 519
▁fixed 519
▁recognition 519
中國經濟 519
冠 519
合成 519
漏 519
結構性 519
錯了 519
) 518
debt 518
ough 518
▁sudden 518
▁然後我們 518
不確定 518
借貸 518
公投 518
外面 518
柯 518
認定 518
這是一個 518
隱藏 518
berg 517
▁ambition 517
▁spur 517
▁另一方面 517
▁謝謝大家 517
推特 517
born 516
burg 516
generated 516
joined 516
▁advice 516
▁association 516
▁borrowing 516
▁division 516
▁parent 516
▁tremendous 516
▁yu 516
也不能 516
創傷 516
見過 516
貪 516
軌 516
arm 515
bank 515
considerable 515
▁mouth 515
▁warning 515
之時 515
創業 515
史上 515
平台 515
接收 515
15% 514
▁august 514
▁automat 514
▁chronic 514
依據 514
名字 514
愛滋病 514
插 514
藥品 514
要比 514
這邊 514
willingness 513
▁adjust 513
▁aggregate 513
▁error 513
▁indonesia 513
▁storm 513
▁但它們 513
傳染 513
兩倍 513
爸爸 513
約旦 513
談話 513
鯨 513
▁adequate 512
▁democrats 512
恐怖分子 512
每天都 512
發射 512
研 512
▁expanding 511
孤 511
種植 511
連續 511
隸 511
900 510
▁disagree 510
▁egg 510
▁mortgage 510
▁motion 510
▁quiet 510
▁wellbeing 510
任期 510
估 510
無數 510
誕生 510
▁anger 509
▁beijing 509
▁coffee 509
▁invented 509
億人 509
指控 509
梯 509
注入 509
私人部門 509
路上 509
迫 509
▁fertil 508
▁isolat 508
▁mandate 508
▁obligation 508
▁pure 508
▁也就是說 508
再一次 508
從而 508
答 508
integrated 507
▁straight 507
▁supporters 507
一小 507
幫助我們 507
很有趣 507
財 507
▁engagement 506
▁neo 506
▁ruling 506
▁sugar 506
宗 506
拆 506
hara 505
▁consume 505
▁flaw 505
▁lawyer 505
▁sensor 505
以及其他 505
公約 505
堅定 505
權威 505
漂亮 505
絕大多數 505
脂 505
隨機 505
▁establishment 504
▁oxygen 504
沒什麼 504
肆 504
舉措 504
▁concrete 503
▁elect 503
▁nobel 503
一個新的 503
多年來 503
擴展 503
襲 503
路線 503
這份 503
選舉中 503
集中在 503
顯得 503
▁addressing 502
▁assert 502
不斷地 502
偉大 502
影響到 502
慢慢 502
改進 502
本質 502
量子 502
鑽 502
電池 502
imposed 501
▁applied 501
▁geopolitical 501
▁journal 501
▁nationalist 501
▁rub 501
一定要 501
世上 501
冊 501
密切 501
實質 501
對中國 501
想知道 501
揭 501
津 501
簽 501
衡 501
▁confirm 500
▁credibility 500
▁fate 500
▁implemented 500
▁legacy 500
▁merkel 500
▁mobil 500
可能導致 500
磚 500
kar 499
▁challenging 499
▁imagination 499
▁sample 499
承 499
捐 499
稍 499
論壇 499
送到 499
▁convert 498
▁scheme 498
▁typical 498
▁writer 498
不願意 498
前面 498
所有這些 498
進來 498
ibility 497
national 497
▁brutal 497
▁fur 497
▁現在我 497
同一個 497
阿薩德 497
▁argu 496
▁diet 496
▁nationalism 496
▁plane 496
▁因為這 496
不存在 496
中期 496
想出 496
漸 496
障 496
高效 496
默克爾 496
▁hunt 495
▁organized 495
峰 495
常規 495
惜 495
軌道 495
陷 495
carbon 494
▁concentrat 494
▁easing 494
▁element 494
▁epidemic 494
▁iraqi 494
▁relief 494
原來 494
已有 494
採取了 494
逆轉 494
這樣一個 494
▁discipline 493
▁tons 493
加以 493
包容 493
嚴肅 493
武 493
激發 493
疾 493
秘密 493
▁alter 492
▁carefully 492
▁destin 492
▁diverse 492
▁marine 492
▁missile 492
▁volume 492
優秀 492
卻沒有 492
喪失 492
恐慌 492
旁邊 492
早就 492
演算法 492
短缺 492
英語 492
願望 492
駕 492
hor 491
temporary 491
▁attractive 491
▁emphasize 491
▁fruit 491
▁因爲它 491
一支 491
哭 491
回收 491
平臺 491
廉價 491
形容 491
新興經濟體 491
東歐 491
租 491
▁terror 490
使命 490
妮 490
導彈 490
是對的 490
會帶來 490
織 490
醫師 490
sensitive 489
▁appreciate 489
▁calculat 489
▁gift 489
▁jewish 489
一面 489
北部 489
即便 489
▁compete 488
▁existence 488
▁topic 488
哈佛 488
基因組 488
我們想要 488
把自己 488
放到 488
這隻 488
騙 488
▁immune 487
▁route 487
侷限 487
大膽 487
很小 487
本人 487
海岸 487
為止 487
用戶 487
粗 487
群體 487
聚集 487
願景 487
▁gulf 486
▁heavily 486
帶給 486
想起 486
歡 486
純 486
血管 486
關閉 486
1990 485
48 485
versus 485
▁constrain 485
▁diminish 485
也應該 485
升高 485
濟 485
32 484
wood 484
▁ceo 484
使其 484
宮 484
極度 484
深遠 484
證實 484
財政政策 484
迫切 484
鬼 484
2006 483
▁alien 483
▁你可以看到 483
全球變暖 483
同性戀 483
好好 483
專門 483
很有可能 483
掃 483
煤 483
畢 483
肩 483
落後 483
▁equipment 482
修復 482
形成了 482
掘 482
漫畫 482
走出 482
遭 482
not 481
▁implies 481
▁mount 481
▁renew 481
▁retain 481
▁valley 481
▁幸運的是 481
中國人 481
介入 481
威爾 481
滅絕 481
膠 481
ima 480
star 480
▁complain 480
▁determin 480
▁examin 480
▁included 480
▁minority 480
▁panel 480
▁shadow 480
一定會 480
五個 480
告訴你們 480
極爲 480
每一個人 480
海外 480
縮小 480
腦部 480
臨時 480
遙 480
uk 479
▁complexity 479
▁copy 479
件事情 479
恨 479
提議 479
沒能 479
沙漠 479
無力 479
與此 479
豪 479
跟著 479
選票 479
▁absorb 478
▁customers 478
▁gradually 478
▁humanitarian 478
▁injur 478
▁ireland 478
▁noticed 478
▁programm 478
不平等性 478
延伸 478
旅 478
隨時 478
黎 478
▁classroom 477
召 477
就越 477
滿意 477
衰 477
譴責 477
cap 476
▁indicate 476
▁participants 476
▁sustainability 476
凍 476
啟 476
抵抗 476
明年 476
與其他 476
▁childhood 475
▁prosecut 475
修改 475
塵 475
多久 475
大多數人 475
技 475
檢測 475
歐盟委員會 475
脊 475
▁cure 474
▁georgia 474
▁install 474
▁liquid 474
▁subsequent 474
圍繞 474
療法 474
納粹 474
緊迫 474
要把 474
走上 474
較低 474
齡 474
▁alarm 473
▁jail 473
▁merc 473
▁sentiment 473
扣 473
更容易 473
看上去 473
第二次 473
罰 473
謎 473
▁mr 472
將繼續 472
崇 472
潘 472
絕望 472
自由化 472
藝 472
議程 472
99 471
uch 471
▁compare 471
▁desert 471
▁discovery 471
▁eliminate 471
▁encouraging 471
▁fantastic 471
▁foster 471
分散 471
庫爾德 471
強迫 471
濫用 471
看不到 471
睡眠 471
都必須 471
頻 471
▁clinical 470
▁handle 470
▁index 470
▁preserve 470
▁reverse 470
一國 470
對外 470
棟 470
股東 470
運轉 470
量化寬鬆 470
▁flat 469
▁solid 469
很久 469
該如何 469
迴歸 469
鎮壓 469
陷入了 469
▁1930 468
▁harvard 468
▁hopeful 468
▁sight 468
▁threatened 468
塔利班 468
掌控 468
案件 468
獲勝 468
環保 468
身分 468
▁dar 467
劣 467
逆 467
逐 467
nazi 466
▁nowadays 466
▁regulators 466
引發了 466
把這個 466
根源 466
模糊 466
被視爲 466
iness 465
scope 465
weapon 465
▁ambitious 465
▁governor 465
▁instruct 465
▁taste 465
▁wider 465
導向 465
資產負債表 465
acceptable 464
▁champion 464
▁hack 464
▁mirror 464
▁motor 464
▁passion 464
▁scholar 464
也必須 464
充滿了 464
圖書館 464
授權 464
效益 464
種子 464
說出 464
蹤 464
1991 463
2001 463
▁critics 463
▁decisionmaking 463
▁pair 463
▁這裡有 463
免疫 463
拋 463
極端主義 463
沒辦法 463
iphone 462
▁economically 462
▁legitimate 462
▁refer 462
▁saved 462
各方 462
專注 462
復興 462
等於 462
罕 462
耀 462
▁demonstrated 461
▁polar 461
▁slowdown 461
▁struggling 461
▁uncertain 461
妻子 461
左邊 461
歐洲國家 461
行政 461
▁anticipat 460
▁kick 460
▁lucky 460
▁silence 460
內心 460
分之一 460
尋 460
役 460
掙扎 460
飢餓 460
齒 460
250 459
3. 459
▁quantum 459
▁taiwan 459
三十年 459
穿著 459
越多 459
適用於 459
33 458
▁assembly 458
▁brief 458
▁extract 458
▁initial 458
▁naturally 458
▁sorry 458
▁至於 458
偵測 458
四年 458
字母 458
年度 458
脫歐 458
路徑 458
全民 457
動態 457
吞 457
回去 457
渡 457
職位 457
越南 457
▁brown 456
▁expenditure 456
召開 456
本地 456
粒 456
蚊子 456
講話 456
遊行 456
重塑 456
騎 456
standing 455
▁hunger 455
▁peer 455
▁previously 455
傳達 455
工業化 455
殘酷 455
讓大家 455
▁frame 454
▁pig 454
使用者 454
大部份 454
尊 454
工作者 454
怎麼辦 454
經濟危機 454
練習 454
蔓延 454
逐步 454
麥克 454
▁admit 453
▁analyz 453
▁encounter 453
▁opposed 453
▁restrict 453
一直都 453
人道主義 453
任命 453
公佈 453
屍 453
是否會 453
某人 453
樣本 453
灌 453
灣 453
遙遠 453
▁declining 452
創造力 452
古巴 452
慨 452
放鬆 452
此次 452
開車 452
靠近 452
▁electronic 451
▁intense 451
▁marginal 451
▁那就 451
國王 451
強勁 451
恥 451
武力 451
確 451
紀 451
鼻 451
▁anxiety 450
▁assess 450
▁berlin 450
▁constraints 450
▁luck 450
▁treasury 450
信譽 450
研究所 450
這張照片 450
長達 450
鬥 450
▁approaches 449
▁consciousness 449
▁prediction 449
▁trauma 449
▁鑑於 449
午 449
失衡 449
宜 449
極其 449
騷 449
google 448
▁compound 448
▁demographic 448
▁electric 448
▁flag 448
▁kremlin 448
▁procedure 448
▁remove 448
▁surgery 448
▁thu 448
眼前 448
1995 447
▁ethical 447
▁pregnan 447
▁solidarity 447
▁taliban 447
以至於 447
做的是 447
出售 447
卵 447
智利 447
永遠不會 447
癮 447
認可 447
can 446
▁franc 446
▁introduce 446
▁judgment 446
▁primarily 446
▁revis 446
▁ski 446
在今年 446
孟加拉 446
抵達 446
日漸 446
法治 446
洪 446
鄉 446
陣營 446
contributed 445
▁bottle 445
▁hidden 445
來講 445
地帶 445
幫忙 445
幾百 445
棋 445
葛 445
▁evil 444
▁extremist 444
▁investigat 444
▁normally 444
▁stranger 444
▁tumor 444
仇恨 444
低估 444
存款 444
慰 444
揮 444
播放 444
概 444
減稅 444
辱 444
防禦 444
驚人 444
▁convention 443
▁garden 443
世俗 443
勇敢 443
十二 443
吹 443
埃爾多安 443
ani 442
house 442
▁metaphor 442
▁preced 442
▁surge 442
一組 442
不論 442
其他地區 442
國家安全 442
好消息 442
施加 442
日常 442
模仿 442
滾 442
種類 442
金屬 442
▁grid 441
▁persist 441
▁sharply 441
▁tube 441
仁 441
半島 441
印尼 441
戰後 441
曉 441
漸漸 441
羞 441
英格蘭 441
通縮 441
comfortable 440
– 440
▁gay 440
▁meters 440
▁mitigat 440
凌 440
培 440
專注於 440
擦 440
無可 440
父 440
瑞士 440
考驗 440
進去 440
遠離 440
+ 439
1979 439
▁coral 439
▁grab 439
▁hide 439
▁paradox 439
▁season 439
之內 439
壟斷 439
大屠殺 439
太大 439
庇護 439
感覺到 439
男子 439
納稅人 439
結婚 439
▁clinic 438
▁distort 438
▁experienc 438
▁prepar 438
▁yellow 438
份子 438
即時 438
因為他們 438
大樓 438
川 438
這張圖 438
definitely 437
▁bud 437
▁trap 437
▁via 437
天空 437
聖戰 437
貨幣聯盟 437
managing 436
▁chile 436
▁sophisticated 436
奇蹟 436
經濟政策 436
革 436
鼠 436
2016 435
▁deriv 435
▁hyper 435
▁suspect 435
作者 435
uous 434
▁chose 434
▁credible 434
▁criticism 434
▁horizon 434
▁supreme 434
一顆 434
借款 434
向前 434
爆 434
緩解 434
臟 434
1994 433
efficient 433
▁formula 433
▁magazine 433
▁promising 433
▁tomorrow 433
▁volunteer 433
微小 433
死亡率 433
紋 433
▁puzzle 432
▁whenever 432
婚姻 432
審判 432
拋棄 432
瓜 432
▁addict 431
▁conducted 431
▁measured 431
▁shake 431
▁visible 431
▁weird 431
不應 431
好奇 431
東盟 431
爛 431
負責任 431
1000 430
intensive 430
verse 430
wearing 430
▁breast 430
▁celebrat 430
▁noise 430
▁properly 430
▁studied 430
四十 430
工會 430
掃描 430
搶 430
教室 430
柏 430
編輯 430
胸 430
賞 430
這個想法 430
▁robert 429
原理 429
反覆 429
垂 429
成績 429
摸 429
是否能 429
特質 429
陽光 429
▁behave 428
▁hire 428
▁incentive 428
▁reasonable 428
▁twentieth 428
再生 428
喫 428
噢 428
鴉 428
▁bailout 427
▁invisible 427
▁我的意思是 427
名義 427
地面 427
成千上萬 427
所產生的 427
數十億 427
有益 427
東亞 427
direct 426
▁april 426
▁assessment 426
▁client 426
▁historic 426
▁loud 426
▁revolutionary 426
卓 426
決定要 426
泰國 426
虎 426
▁blog 425
▁collaboration 425
▁risky 425
▁voting 425
不足以 425
反過來 425
天氣 425
新加坡 425
會議上 425
▁invited 424
▁shark 424
▁toxic 424
▁誠然 424
創立 424
擅長 424
滋 424
看到的是 424
祖先 424
豬 424
▁lifetime 423
▁priorities 423
▁snow 423
▁speaker 423
▁比如說 423
哲學 423
售 423
躲 423
▁cow 422
▁pledge 422
▁suicide 422
▁ultimate 422
▁比方說 422
俗 422
慮 422
憲 422
最後一個 422
有超過 422
綜合 422
蘇格蘭 422
靈感 422
▁acquire 421
▁capabilities 421
▁marri 421
▁mosquito 421
▁restaurant 421
另外一個 421
寶寶 421
專制 421
廣場 421
能看到 421
腸 421
臺灣 421
車子 421
輕易 421
農場 421
這個故事 421
餐廳 421
黏 421
▁dinner 420
▁execut 420
▁parliamentar 420
▁surveillance 420
右邊 420
尊嚴 420
昆蟲 420
符 420
繁 420
順利 420
▁corrupt 419
▁pool 419
償還 419
幾乎沒有 419
教徒 419
疲軟 419
空中 419
累積 419
自信 419
艱 419
角落 419
這個詞 419
▁angry 418
▁jordan 418
▁nano 418
主宰 418
大蕭條 418
恰 418
愉 418
感知 418
暗示 418
有效地 418
關稅 418
36 417
▁club 417
▁droppe 417
▁flexible 417
▁winner 417
剝奪 417
區分 417
基地 417
湧 417
稍微 417
腦中 417
逃離 417
逼 417
首要 417
located 416
▁brilliant 416
▁cognitive 416
▁facilitate 416
▁isolation 416
▁recruit 416
▁shrink 416
▁simpl 416
▁tea 416
▁transparent 416
乾淨 416
人羣 416
描繪 416
教學 416
時機 416
生活方式 416
要花 416
讓它們 416
韓 416
▁cuba 415
▁modest 415
▁progressive 415
▁rating 415
▁restructuring 415
▁sweden 415
▁於是我 415
劍橋 415
拔 415
排名 415
臉書 415
責 415
身處 415
野心 415
performing 414
▁collection 414
▁假如 414
尼日利亞 414
延續 414
弊 414
意義上 414
飲食 414
1945 413
▁erdoğan 413
▁inevitab 413
▁producers 413
▁prosper 413
▁somewhat 413
地震 413
幾乎所有 413
撥 413
歇 413
猩 413
相機 413
英文 413
▁initially 412
交給 412
勞工 412
北極 412
洲 412
減速 412
渠道 412
源自 412
爲此 412
縫 412
聽說 412
valuation 411
▁dress 411
▁turkish 411
偏好 411
傾聽 411
填 411
忍 411
教師 411
枝 411
燃燒 411
誕 411
security 410
▁awareness 410
▁grave 410
▁nervous 410
共產黨 410
寸 410
深深 410
炸彈 410
證券 410
金融體系 410
開展 410
▁decisive 409
不公平 409
奏 409
有害 409
演奏 409
翻譯 409
蹈 409
飽受 409
▁exact 408
▁february 408
▁intelligent 408
▁occupation 408
▁plenty 408
到目前爲止 408
對立 408
環境下 408
茶 408
註 408
辯 408
2004 407
▁assad 407
▁horse 407
▁plann 407
▁spanish 407
一點點 407
凸 407
名叫 407
墨 407
戒 407
漫長 407
煽動 407
生意 407
美洲 407
輕鬆 407
itude 406
▁bang 406
▁chaos 406
▁consult 406
▁explicit 406
▁shame 406
▁younger 406
延長 406
是正確的 406
瘋 406
絕非 406
遞 406
▁expense 405
▁lung 405
▁metal 405
▁permit 405
▁rush 405
▁skill 405
下滑 405
不太可能 405
丘 405
主意 405
基督教 405
尋常 405
忘了 405
指揮 405
萬美元 405
蘇丹 405
部署 405
37 404
law 404
ç 404
▁colombia 404
▁evaluat 404
▁proceed 404
▁restriction 404
▁ultra 404
傾向於 404
殺害 404
越來越多 404
跨越 404
風暴 404
120 403
1980 403
▁affordable 403
▁arise 403
▁contradict 403
▁flee 403
▁quote 403
▁yemen 403
之類的 403
品牌 403
愚蠢 403
慣 403
晨 403
泛 403
計算機 403
諸如 403
轉移到 403
new 402
wide 402
yard 402
▁breakthrough 402
▁jihad 402
▁kilometers 402
▁minimum 402
▁repair 402
▁replaced 402
▁truck 402
交談 402
天然 402
手臂 402
格魯吉亞 402
火箭 402
腦袋 402
超出 402
還有其他 402
鬆 402
▁mathematics 401
▁requirements 401
▁sarkozy 401
創建 401
大衛 401
布什政府 401
廉 401
椅 401
疫 401
疲 401
自願 401
tick 400
▁characteriz 400
▁hop 400
▁milk 400
▁psychological 400
▁rebuild 400
喚 400
喜愛 400
得知 400
河流 400
趣 400
面向 400
▁consequence 399
▁cup 399
▁drawn 399
▁repeatedly 399
▁singapore 399
▁tear 399
▁unexpected 399
份額 399
喪 399
拓 399
看不見 399
考量 399
聆聽 399
階 399
鬱 399
▁classes 398
▁curve 398
▁norms 398
▁routine 398
單純 398
多樣化 398
宏 398
投資於 398
教堂 398
甜 398
補充 398
軍方 398
digit 397
▁elder 397
▁label 397
▁string 397
▁tackle 397
卡爾 397
躍 397
預見 397
顛覆 397
ika 396
▁attribut 396
▁frequently 396
▁grass 396
▁identified 396
▁pole 396
▁proper 396
▁request 396
嘛 396
弱勢 396
推廣 396
融 396
論點 396
識別 396
銳 396
# 395
1992 395
31 395
▁confident 395
▁contribut 395
▁fragile 395
▁inject 395
保護主義 395
受傷 395
坎 395
塗 395
很高興 395
所看到的 395
溯 395
競賽 395
總量 395
陪 395
▁convict 394
▁quantitative 394
▁shortage 394
▁struck 394
告訴各位 394
多元 394
富人 394
底下 394
憂 394
成分 394
戲劇 394
更重要 394
氫 394
盜 394
禍 394
第一步 394
逮捕 394
隱私 394
▁bull 393
▁inadequate 393
▁orbit 393
▁simultaneously 393
▁stimulate 393
▁winning 393
一百萬 393
伏 393
已經成爲 393
政變 393
祖 393
虐待 393
通訊 393
阿拉伯世界 393
▁$3 392
▁careful 392
▁comfort 392
▁dry 392
▁meat 392
▁nurse 392
▁plus 392
主動 392
億歐元 392
同情 392
大聲 392
池 392
璃 392
督 392
輸入 392
鋪 392
▁fake 391
▁imperative 391
▁richard 391
▁stretch 391
▁usual 391
占 391
嚴峻 391
女子 391
捕捉 391
清單 391
精力 391
谷歌 391
醉 391
風格 391
3⁄4 390
wealthy 390
▁accompani 390
▁semi 390
▁strict 390
伙 390
何種 390
在很大程度上 390
寬鬆 390
抵押 390
敏 390
望遠鏡 390
緣 390
friendly 389
word 389
▁combine 389
▁navigat 389
▁numer 389
▁parallel 389
▁resilience 389
▁tank 389
▁transportation 389
做的事情 389
啟發 389
嘿 389
沉默 389
積累 389
貿 389
赤 389
餵 389
鵝 389
▁outbreak 388
▁palestine 388
▁possibilities 388
▁reluctan 388
▁removed 388
外界 388
生理 388
萬個 388
觀看 388
討厭 388
▁branch 387
▁devastating 387
▁emergence 387
▁illusion 387
▁observers 387
▁reputation 387
▁simulat 387
先前 387
嚴厲 387
媒 387
未知 387
殺死 387
監管者 387
簡直 387
總結 387
詹 387
world 386
▁statistic 386
俱 386
南方 386
季度 386
情境 386
普及 386
濃 386
煤炭 386
街道 386
險 386
鹽 386
( 385
nna 385
oriented 385
▁approve 385
▁dominant 385
▁enforce 385
▁pharmaceutical 385
▁prepare 385
▁steel 385
充足 385
喊 385
就好像 385
黑洞 385
▁feedback 384
▁ideological 384
▁split 384
否決 384
手指 384
抵消 384
新技術 384
更低 384
有興趣 384
欺 384
滴 384
相對於 384
臭 384
解讀 384
▁coup 383
▁ride 383
▁title 383
▁unsustainable 383
▁vladimir 383
分佈 383
助長 383
殼 383
獎勵 383
穿過 383
繩 383
驚奇 383
▁folks 382
▁memories 382
事故 382
倫理 382
家長 382
意圖 382
慶祝 382
沃爾 382
罪行 382
豐 382
那邊 382
鑑 382
55 381
▁consideration 381
▁rio 381
▁thin 381
侵犯 381
前任 381
告訴他們 381
哦 381
姓 381
污 381
癱瘓 381
管道 381
這筆 381
greg 380
▁bann 380
▁possess 380
▁prohibit 380
▁stance 380
三種 380
了不起的 380
光線 380
始於 380
抱怨 380
汽 380
泉 380
流程 380
理事會 380
閉 380
▁distinguish 379
▁factory 379
促成 379
加快 379
動員 379
反抗 379
用途 379
罷 379
陌生人 379
▁brave 378
▁securities 378
公尺 378
出色 378
剛好 378
急需 378
更具 378
湖 378
這座 378
quarter 377
▁momentum 377
▁nowhere 377
▁recep 377
▁victim 377
中東地區 377
串 377
也同樣 377
也因此 377
可再生能源 377
哇 377
峯 377
建構 377
旋轉 377
更少 377
更糟 377
自主 377
葡萄牙 377
這兩種 377
還有很多 377
髓 377
▁amazon 376
▁curious 376
▁frustrat 376
▁funny 376
▁hub 376
▁integrat 376
▁liberalization 376
▁mainstream 376
▁mega 376
▁organic 376
▁pocket 376
▁rocket 376
▁unknown 376
不久前 376
慾 376
更好地 376
煩 376
這本書 376
過去十年 376
須 376
38 375
oma 375
▁aspects 375
▁bangladesh 375
▁conservation 375
▁instant 375
▁surviv 375
分類 375
干擾 375
憂慮 375
投機 375
法則 375
演員 375
能做到 375
舉辦 375
補償 375
skilled 374
▁commit 374
▁recogniz 374
全球金融危機 374
可怕 374
君 374
得不到 374
文學 374
星系 374
歐盟成員國 374
琳 374
破壞性 374
經濟復甦 374
街上 374
逝 374
2003 373
▁flower 373
▁gravity 373
▁length 373
▁plot 373
▁suppress 373
▁unusual 373
匈牙利 373
契約 373
容忍 373
干涉 373
建築師 373
惑 373
掠 373
本質上 373
灘 373
爐 373
特權 373
陷阱 373
頻率 373
[ 372
sky 372
▁compris 372
▁fragment 372
井 372
碰到 372
縱 372
艘 372
誠實 372
communica 371
infected 371
▁tragedy 371
▁weigh 371
▁這些都是 371
一個例子 371
冬 371
定律 371
情景 371
援 371
膽 371
這也是 371
過剩 371
▁accountability 370
▁cro 370
催 370
努 370
呆 370
塑造 370
幾十年來 370
慷 370
扭轉 370
籍 370
經理 370
胞 370
菲律賓 370
誓 370
辨 370
▁discrimination 369
▁dismiss 369
▁ideology 369
▁intervene 369
▁offset 369
▁panic 369
▁privacy 369
▁shia 369
▁territorial 369
包容性 369
困惑 369
服務業 369
柔 369
產能 369
疏 369
發達 369
膨脹 369
轟 369
還記得 369
鍵 369
閒 369
驕傲 369
▁etc 368
▁evolutionary 368
▁vice 368
統治者 368
靈魂 368
even 367
▁appreciation 367
▁asean 367
▁dignity 367
▁eradicat 367
▁homo 367
▁loose 367
▁rob 367
▁smile 367
▁wound 367
帶領 367
幻想 367
恐龍 367
曲線 367
欣 367
翼 367
詳細 367
預算赤字 367
領先 367
fish 366
▁strip 366
▁telescope 366
國債 366
忠 366
惱 366
憐 366
找不到 366
起作用 366
▁decrease 365
▁sphere 365
▁theater 365
▁以便 365
▁就連 365
中國領導人 365
亨 365
傳染病 365
定位 365
必需 365
更不用說 365
酵 365
▁align 364
▁analog 364
▁consist 364
▁enabl 364
▁erupt 364
▁facilities 364
▁implementation 364
▁mortality 364
▁phrase 364
▁robotic 364
保存 364
僵局 364
北方 364
后 364
宿 364
彈性 364
忌 364
比喻 364
水資源 364
頭髮 364
▁aspiration 363
▁empty 363
▁fiction 363
▁invasion 363
▁polit 363
▁proven 363
▁retail 363
協會 363
娛樂 363
摺 363
放進 363
玩具 363
製造出 363
通往 363
霸 363
34 362
▁pump 362
▁roof 362
▁tpp 362
▁upper 362
▁whale 362
丈夫 362
其自身 362
北美 362
反映出 362
壁壘 362
引用 362
恰當 362
悲觀 362
日常生活 362
獸 362
神聖 362
西方國家 362
謊 362
財產 362
▁condemn 361
▁constitute 361
▁dioxide 361
▁enemy 361
▁grandmother 361
▁reference 361
▁你可能會 361
一堆 361
倖 361
圖表 361
拒 361
樹木 361
發言 361
▁initiat 360
▁mathematical 360
▁observation 360
危害 360
短暫 360
製藥 360
邪惡 360
零售 360
liberal 359
▁dilemma 359
▁mood 359
兇 359
克里姆林宮 359
挪威 359
決議 359
流感 359
疼痛 359
44 358
▁bow 358
▁inspiration 358
▁nutrition 358
▁strain 358
▁workforce 358
在這裏 358
帝 358
旅遊 358
誘惑 358
麵包 358
mail 357
▁drone 357
▁invention 357
▁manner 357
地方政府 357
密碼 357
平方 357
年紀 357
心臟病 357
我父親 357
擋 357
收縮 357
標籤 357
白宮 357
聽見 357
臨床 357
芝加哥 357
賦 357
銀行家 357
tariff 356
▁dedicat 356
▁deny 356
▁ebola 356
▁equation 356
▁exclusive 356
▁pakistani 356
▁persuade 356
▁refuse 356
▁tunisia 356
句話 356
捐贈 356
特點 356
盒子 356
目睹 356
稱之爲 356
純粹 356
腹 356
裸 356
▁brussels 355
▁comparison 355
▁obtain 355
▁realistic 355
▁sacrifice 355
▁silent 355
▁tall 355
只不過是 355
弟 355
提案 355
旺 355
看起來像 355
適用 355
重量 355
顯示出 355
▁chip 354
▁enact 354
▁exhibit 354
▁motivation 354
▁spectrum 354
一整 354
急劇 354
旨 354
溢 354
禮物 354
角度看 354
黑猩猩 354
balancing 353
chemistry 353
oon 353
▁accord 353
▁conclude 353
▁continu 353
▁coordination 353
▁declaration 353
▁hip 353
侵略 353
償 353
夥伴關係 353
有足夠的 353
淺 353
紛紛 353
neverthe 352
‘ 352
▁airplane 352
▁concentration 352
▁withdrawal 352
擁抱 352
最早 352
析 352
演變 352
秀 352
螺 352
設置 352
起源 352
遵循 352
金融穩定 352
▁accelerate 351
▁assist 351
▁football 351
▁jews 351
估算 351
厭惡 351
壓迫 351
巴沙爾 351
榜樣 351
氧氣 351
沉重 351
洛杉磯 351
獨裁者 351
穿越 351
綁 351
蟻 351
首席 351
&# 350
▁interpret 350
▁manifest 350
▁ownership 350
哺 350
布朗 350
幽 350
截然不同 350
究 350
長期以來 350
drive 349
▁ethic 349
▁expert 349
▁informal 349
▁winter 349
儀器 349
填補 349
密度 349
抬 349
棲 349
氣體 349
當成 349
藉口 349
解體 349
▁distant 348
▁disturb 348
▁electrical 348
▁exposure 348
▁measur 348
▁oecd 348
▁radiation 348
▁recall 348
不止 348
周邊 348
彎 348
應付 348
月球 348
正如 348
祕密 348
紫 348
餅 348
lessness 347
list 347
▁atlantic 347
▁calm 347
▁cartoon 347
▁concluded 347
▁inspire 347
▁native 347
之間的關係 347
仇 347
企圖 347
保守派 347
儀 347
剛才 347
珠 347
那位 347
頭腦 347
頻繁 347
黑色 347
▁flexibility 346
▁impressive 346
▁investigation 346
▁raw 346
▁smoke 346
▁tower 346
▁twentyfirst 346
公眾 346
唯 346
強勢 346
欺騙 346
生活水平 346
辨識 346
遺產 346
▁bread 345
▁chancellor 345
▁click 345
▁dictatorship 345
▁exclud 345
▁joke 345
▁leap 345
▁microbes 345
▁negotiate 345
▁organize 345
主權債務 345
兌現 345
刑事 345
回憶 345
完善 345
數目 345
石頭 345
絡 345
自由主義 345
自閉症 345
輻射 345
▁degrad 344
▁evolve 344
▁exchangerate 344
▁poem 344
▁reconstruct 344
再度 344
啟動 344
基地組織 344
對付 344
布魯塞爾 344
幹細胞 344
最棒的 344
starters 343
▁cameron 343
▁chicago 343
▁engaging 343
▁rent 343
▁spill 343
▁vessel 343
作業 343
做些什麼 343
四分之一 343
在某種程度上 343
宣言 343
懷孕 343
戰勝 343
海軍 343
瞭 343
英尺 343
▁elevat 342
▁jack 342
▁lunch 342
▁philosophy 342
▁senate 342
▁tendenc 342
亞馬遜 342
儀式 342
壓倒 342
弱點 342
征 342
治癒 342
痕 342
蕭條 342
訴訟 342
鯊魚 342
flies 341
▁carrie 341
▁district 341
▁elephant 341
▁empathy 341
▁james 341
▁olympic 341
▁rape 341
▁retirement 341
▁stagnation 341
囚犯 341
擔保 341
機場 341
肯尼亞 341
葬 341
被稱為 341
頑 341
高速 341
sector 340
▁acid 340
▁inherent 340
▁library 340
▁medication 340
▁monkey 340
丹麥 340
十年前 340
奔 340
屠殺 340
昨 340
景象 340
村莊 340
根本沒有 340
物價 340
畏 340
相對較 340
磨 340
經歷過 340
羣衆 340
領導力 340
informed 339
▁expertise 339
▁smooth 339
▁successor 339
▁簡言之 339
押 339
砍 339
突尼斯 339
肥胖 339
酬 339
▁bargain 338
▁demonstration 338
▁displaced 338
▁drought 338
▁earthquake 338
▁merit 338
▁steve 338
三分之二 338
主持 338
公共衛生 338
扶 338
臣 338
▁abstract 337
▁inherit 337
厄 337
去找 337
學位 337
植 337
瞬間 337
蒸 337
貸 337
運動員 337
1993 336
appointed 336
▁file 336
▁optimistic 336
六個月 336
分解 336
廣播 336
攝影機 336
盯 336
磅 336
竊 336
糾正 336
贊助 336
透明度 336
驗 336
▁extinct 335
▁loop 335
▁transmit 335
▁自從 335
名單 335
徹 335
恐怖襲擊 335
昂 335
棉 335
狂熱 335
留給 335
盈利 335
竟 335
經濟衰退 335
繼承 335
肝 335
自然資源 335
遊說 335
▁confrontation 334
▁dutch 334
▁neglect 334
依舊 334
口號 334
壓制 334
大麻 334
庭 334
折磨 334
死刑 334
熱愛 334
研究人員 334
節奏 334
蜜蜂 334
詐 334
農夫 334
tax 333
▁concert 333
▁deliberate 333
▁geographic 333
▁ngo 333
▁sudan 333
▁therapy 333
▁tip 333
▁unilateral 333
平常 333
很清楚 333
忍受 333
欄 333
珊瑚 333
膀 333
航空 333
起訴 333
難以置信 333
體育 333
鷹 333
dominate 332
▁admir 332
▁controll 332
▁pleasure 332
▁replica 332
勤 332
卜 332
各式各樣 332
回顧 332
庸 332
怎麼樣 332
測驗 332
生育 332
第五 332
華爾街 332
診所 332
讀者 332
country 331
▁adverse 331
▁gates 331
▁loan 331
▁render 331
合作伙伴 331
囊 331
意志 331
掌權 331
機遇 331
清楚地 331
覺得自己 331
財政部長 331
▁happi 330
▁microscop 330
▁selection 330
▁silicon 330
▁sweet 330
掩 330
撫 330
知名 330
經典 330
纖維 330
賜 330
迄 330
這一觀點 330
fund 329
▁$5 329
▁copenhagen 329
▁disruption 329
▁ethiopia 329
▁incident 329
▁persistent 329
▁protocol 329
▁residents 329
▁resort 329
剪 329
心靈 329
悲傷 329
慶 329
拘 329
是錯誤的 329
漠 329
▁correspond 328
▁fraction 328
▁michael 328
▁philosopher 328
▁striking 328
否定 328
哥本哈根 328
履行 328
指的是 328
挽救 328
牀 328
經合組織 328
高興 328
▁gang 327
▁gross 327
▁justify 327
伴侶 327
募 327
氛 327
海嘯 327
領導層 327
魅力 327
keep 326
view 326
▁compelling 326
▁ease 326
▁imperial 326
▁margin 326
▁netherlands 326
▁seize 326
▁torture 326
▁withdraw 326
哲學家 326
垮 326
悟 326
消極 326
目光 326
社交媒體 326
舞臺 326
case 325
▁circuit 325
▁effectiveness 325
▁excuse 325
▁ingredient 325
▁mobilize 325
▁thrive 325
▁variation 325
▁舉例來說 325
棘手 325
游泳 325
的機率 325
講述 325
非政府組織 325
駁 325
42 324
colonial 324
worthy 324
▁accommodat 324
▁anniversar 324
▁province 324
▁spark 324
儘 324
同理心 324
大衆 324
市長 324
救助 324
敲 324
淪爲 324
添 324
肯亞 324
腎 324
captured 323
▁depth 323
▁generous 323
▁inclusion 323
▁presum 323
▁rice 323
▁rip 323
▁slip 323
在政治上 323
址 323
就業機會 323
指令 323
捷 323
方便 323
櫃 323
種種 323
表情 323
評級 323
騰 323
高昂 323
health 322
rack 322
▁chairman 322
▁chicken 322
▁fool 322
▁remov 322
▁violat 322
▁yo 322
京 322
有史以來 322
玩家 322
複 322
詢問 322
謀殺 322
阿拉伯國家 322
▁bankruptcy 321
▁dispos 321
▁emotion 321
▁stupid 321
▁urge 321
內塔尼亞胡 321
叔 321
合同 321
生氣 321
異常 321
白色 321
英鎊 321
rself 320
▁charles 320
▁episode 320
▁immense 320
▁plate 320
▁printing 320
一句 320
可持續性 320
命名 320
幾千 320
成效 320
擇 320
祖母 320
糖尿病 320
解答 320
陽 320
interest 319
urgency 319
▁buck 319
▁physician 319
▁vulnerability 319
今後 319
愛情 319
鋒 319
闊 319
▁congressional 318
▁continuous 318
▁drove 318
▁enemies 318
▁interpretation 318
▁representation 318
▁section 318
▁turmoil 318
三倍 318
劫 318
對我而言 318
暫停 318
檔 318
欽 318
真主黨 318
碳排放 318
科索沃 318
罕見 318
觸發 318
64 317
sponsor 317
▁correlat 317
▁delhi 317
▁destabiliz 317
▁galaxy 317
▁globe 317
▁nasa 317
▁pray 317
▁teenager 317
主管 317
剖 317
帽 317
物理學家 317
猴子 317
肪 317
豆 317
那時候 317
front 316
▁devote 316
▁emergingmarket 316
▁hotel 316
▁rwanda 316
下一代 316
傳送 316
劇烈 316
寫道 316
房屋 316
火車 316
無聊 316
變得越來越 316
購物 316
遮 316
鬧 316
▁burst 315
▁halt 315
▁netanyahu 315
▁substance 315
▁venture 315
南極 315
廢除 315
拿著 315
民主制度 315
預料 315
颶 315
龐 315
75% 314
▁atoms 314
▁chosen 314
▁contemporary 314
▁latter 314
▁limb 314
▁southeast 314
兌 314
反彈 314
奧巴馬政府 314
政策制定者 314
新鮮 314
發生的事情 314
禮拜 314
▁adviser 313
▁criticize 313
▁miracle 313
▁safeguard 313
並非如此 313
倒閉 313
獅 313
自動化 313
藻 313
蛛 313
配置 313
錫 313
隊伍 313
bound 312
turn 312
▁flip 312
▁infinite 312
▁undertake 312
一連串 312
世界各國 312
奈米 312
小時候 312
悔 312
撈 312
擴 312
邁向 312
開發銀行 312
難度 312
鳥類 312
▁backward 311
▁exacerbate 311
▁filter 311
▁leak 311
▁privatesector 311
▁tobacco 311
▁trace 311
▁tragic 311
▁非常感謝 311
偶爾 311
利息 311
制約 311
參議院 311
四處 311
心態 311
最嚴重的 311
無知 311
男女 311
網際網路 311
護士 311
ó 310
▁calculation 310
▁contest 310
▁francisco 310
▁lifestyle 310
▁royal 310
▁systematic 310
▁teen 310
佐 310
僱主 310
席位 310
澳洲 310
碑 310
禱 310
竟然 310
罩 310
舒適 310
遣 310
雌 310
border 309
▁communism 309
▁evident 309
▁poet 309
▁punish 309
▁qe 309
▁queen 309
反思 309
天主教 309
子女 309
家園 309
標題 309
發生的事 309
突變 309
親密 309
▁enforcement 308
▁harvest 308
▁inflow 308
▁shareholders 308
▁thick 308
予以 308
俱樂部 308
剩下的 308
場景 308
屏 308
濫 308
紐約市 308
註定 308
霧 308
▁hedge 307
▁kitchen 307
▁physicist 307
▁pilot 307
享有 307
低利率 307
反射 307
外匯儲備 307
是一樣的 307
泄 307
漂 307
當代 307
誤導 307
警方 307
100% 306
human 306
▁einstein 306
▁hezbollah 306
▁illustrate 306
▁spell 306
▁你知道嗎 306
個百分點 306
寒 306
寡 306
潔 306
繁殖 306
舊金山 306
european 305
step 305
▁facility 305
▁predecessor 305
▁slum 305
▁valid 305
之際 305
勾 305
厲害 305
弦 305
有多少人 305
突出 305
躺 305
cost 304
responsibilities 304
▁afghan 304
▁approval 304
▁dinosaur 304
▁editor 304
▁lobby 304
▁lone 304
▁suppose 304
▁vary 304
在網路上 304
契 304
斜 304
暢 304
美妙 304
衍生 304
髒 304
鳴 304
95 303
minded 303
▁coverage 303
▁fabric 303
▁pride 303
▁pursuit 303
▁thailand 303
微笑 303
法規 303
海底 303
漏洞 303
短短 303
等級 303
莫斯科 303
諧 303
顯現 303
▁celebrate 302
▁earnings 302
▁entail 302
▁escalat 302
▁harsh 302
▁lady 302
▁這就是為什麼 302
唐納德 302
揭露 302
標記 302
盟國 302
篩 302
西歐 302
響應 302
飽 302
驅 302
▁darwin 301
▁eager 301
▁jean 301
▁tribe 301
♪♪ 301
地中海 301
市民 301
極限 301
注射 301
籃 301
解決辦法 301
財政赤字 301
軍事行動 301
首腦 301
trapped 300
version 300
▁airport 300
▁asylum 300
▁catastrophe 300
▁civic 300
▁lake 300
▁owe 300
▁racial 300
公共部門 300
怎 300
抽象 300
民眾 300
準則 300
簽訂 300
精神病 300
總需求 300
魚類 300
46 299
quality 299
▁alcohol 299
▁moscow 299
▁reef 299
動搖 299
呎 299
構造 299
機關 299
發生了什麼事 299
監禁 299
秋 299
▁portugal 298
▁principal 298
▁properties 298
▁steal 298
▁subsahara 298
初期 298
單獨 298
婆 298
已知 298
廊 298
推遲 298
爸 298
移植 298
耕 298
自豪 298
較少 298
1967 297
1970 297
pollut 297
▁innocent 297
▁kit 297
▁psycho 297
▁psychology 297
▁spectacular 297
序列 297
檢視 297
泊 297
海平面 297
無人機 297
煉 297
理所當然 297
絕大部分 297
興起 297
▁$4 296
▁adam 296
▁clever 296
▁erod 296
▁warned 296
哀 296
家鄉 296
年代末 296
恆 296
笨 296
膚 296
被認爲是 296
謊言 296
letting 295
▁choos 295
▁dictator 295
▁distress 295
▁hormone 295
▁interface 295
▁modi 295
▁nerve 295
▁oppress 295
▁polio 295
伊拉克戰爭 295
催生 295
救援 295
符號 295
總共 295
苦難 295
褲 295
▁assault 294
▁emit 294
▁genocide 294
▁invad 294
▁predator 294
▁stateowned 294
▁tsunami 294
▁undoubted 294
僞 294
僱用 294
化合物 294
唐 294
商店 294
樣子 294
爭奪 294
狼 294
開採 294
闆 294
guided 293
▁lowincome 293
▁mouse 293
▁quest 293
▁rome 293
▁utter 293
些什麼 293
副作用 293
墓 293
定價 293
斑 293
欣賞 293
秘 293
試試 293
達爾文 293
ograph 292
▁apartment 292
▁flash 292
▁fluid 292
▁grain 292
▁kosovo 292
▁passionate 292
▁prompt 292
▁shall 292
▁teeth 292
▁unfair 292
塢 292
巢 292
椅子 292
續 292
葡 292
闡 292
鮑 292
1973 291
crisis 291
▁damaging 291
▁hike 291
▁rulers 291
▁shanghai 291
六十 291
剝 291
屋頂 291
彌補 291
恆星 291
感情 291
慕 291
振奮 291
深處 291
滲 291
潛水 291
為例 291
現任 291
穆巴拉克 291
誤解 291
間接 291
頂尖 291
▁compensation 290
▁lion 290
▁manipulation 290
▁paradigm 290
▁prisoners 290
伍 290
回饋 290
彼得 290
晉 290
萄 290
衰落 290
軟件 290
遺憾 290
郊 290
receiving 289
▁closing 289
▁curiosity 289
▁exhaust 289
▁license 289
▁outrage 289
勁 289
卡梅倫 289
可謂 289
周遭 289
喻 289
墜 289
多元化 289
幾次 289
披露 289
攜帶 289
設法 289
鐵路 289
▁golden 288
▁mubarak 288
▁qaeda 288
▁violation 288
▁wow 288
國務卿 288
安理會 288
成年人 288
書籍 288
神話 288
蠅 288
覈 288
評價 288
鉤 288
電子郵件 288
awl 287
space 287
ü 287
▁acute 287
▁downturn 287
▁pour 287
▁triumph 287
▁unleash 287
供應鏈 287
列印 287
喜悅 287
星星 287
東京 287
民間 287
炮 287
猜測 287
簡化 287
這句話 287
° 286
▁downward 286
▁mindset 286
▁plain 286
包裝 286
叢 286
均衡 286
廁 286
涵 286
繳 286
美軍 286
肌 286
陰影 286
ortex 285
▁bolster 285
▁invite 285
▁oppose 285
▁philippines 285
▁prominent 285
五千 285
咱 285
奈及利亞 285
尬 285
廚房 285
抱歉 285
未必 285
汀 285
螢 285
那一刻 285
醜聞 285
▁boundaries 284
▁explosion 284
▁galaxies 284
▁laid 284
▁periphery 284
▁threshold 284
▁twenty 284
尷 284
工業革命 284
悖 284
接種 284
掩蓋 284
整整 284
趟 284
occupied 283
ocracy 283
▁depressed 283
▁feat 283
▁nineteenth 283
▁nominal 283
▁reactor 283
幻覺 283
慈 283
換取 283
散播 283
涵蓋 283
淚 283
清理 283
狹隘 283
耶路撒冷 283
▁dust 282
▁instinct 282
▁mammal 282
▁manipulate 282
▁sink 282
▁twin 282
八十 282
後續 282
是很重要的 282
締 282
缺口 282
落實 282
賺錢 282
鼓吹 282
automatically 281
▁jim 281
▁tokyo 281
償付 281
圖案 281
是不可能的 281
檔案 281
消化 281
溫室氣體 281
績 281
美國和歐洲 281
艱鉅 281
見證 281
限度 281
wan 280
▁awesome 280
▁catholic 280
▁ceiling 280
▁diabetes 280
▁infant 280
▁mexican 280
▁ministry 280
▁proof 280
▁surgeon 280
二氧化碳排放 280
好奇心 280
姊 280
巡 280
瓦解 280
蒐集 280
辯護 280
▁dependence 279
▁theories 279
同情心 279
指引 279
支援 279
樂團 279
歉 279
毫 279
總額 279
胃 279
艇 279
請求 279
近年來 279
醇 279
▁aftermath 278
▁exploration 278
▁habitat 278
▁relate 278
▁underground 278
乾旱 278
代替 278
厭 278
味道 278
奮 278
宏觀 278
排斥 278
盪 278
站出來 278
蛇 278
螞蟻 278
鈕 278
▁cope 277
▁mediterranean 277
▁minorities 277
▁molecular 277
▁relax 277
一小部分 277
匿 277
受損 277
平靜 277
的一部份 277
腰 277
贊成 277
轉化爲 277
鈔 277
預言 277
price 276
å 276
▁chapter 276
▁fiber 276
▁historian 276
▁hydro 276
▁populism 276
▁yesterday 276
五百 276
午餐 276
吵 276
問責 276
嘆 276
授予 276
物理學 276
▁accessible 275
▁pitch 275
▁precise 275
▁shelter 275
▁silk 275
▁thomas 275
七十 275
儘可能 275
參議員 275
大宗商品 275
布萊爾 275
忠誠 275
房價 275
探測 275
棵 275
破裂 275
確信 275
補助 275
贊 275
▁bail 274
▁consent 274
▁literature 274
▁poison 274
▁senator 274
▁接着 274
塌 274
應用程式 274
是錯的 274
汗 274
確切 274
罐 274
蚊 274
配合 274
break 273
▁cooperate 273
▁corn 273
▁extensive 273
▁fault 273
▁fraud 273
▁recipe 273
▁restrain 273
海灣 273
災害 273
聯合國安理會 273
蜜 273
證據表明 273
非凡 273
field 272
▁breed 272
▁frustration 272
▁impression 272
▁pipeline 272
▁pretend 272
▁virgin 272
倉 272
客觀 272
植入 272
無辜 272
籠 272
義大利 272
耍 272
色彩 272
▁alleged 271
▁autonomy 271
▁explod 271
▁knee 271
▁optimism 271
▁rethink 271
▁retire 271
▁vacuum 271
分辨 271
北歐 271
坡 271
姿態 271
左派 271
己 271
挑選 271
汙 271
生物學家 271
祖國 271
結核病 271
í 270
▁consolidation 270
▁embedded 270
▁influential 270
▁scandal 270
壇 270
扯 270
搜索 270
猶 270
纏 270
金融部門 270
馬來西亞 270
regulated 269
▁brotherhood 269
▁diplomat 269
▁haiti 269
▁knock 269
▁laboratory 269
▁spiral 269
尿 269
彷彿 269
擊敗 269
流離失所 269
減排 269
神秘 269
總統大選 269
舉個例子 269
順序 269
▁basket 268
▁boston 268
▁desk 268
▁laptop 268
▁plea 268
▁psychologist 268
▁shore 268
▁transmission 268
▁uncomfortable 268
包圍 268
察覺 268
片段 268
結構性改革 268
舞台 268
薪水 268
驅使 268
▁blair 267
▁column 267
▁criteria 267
▁implicit 267
▁malaysia 267
▁mystery 267
▁orange 267
之旅 267
仰賴 267
住宅 267
促 267
公寓 267
同步 267
命令 267
墮 267
央行行長 267
夾 267
安靜 267
悶 267
經費 267
舌 267
諮詢 267
陣線 267
頸 267
▁grasp 266
▁martin 266
▁overlook 266
▁unemployed 266
一回事 266
僵 266
切實 266
勇 266
參考 266
呈 266
太陽系 266
常態 266
暴行 266
波士頓 266
繫 266
耐心 266
花園 266
蜘 266
賬 266
驅逐 266
5000 265
─ 265
▁computing 265
▁drill 265
▁jerusalem 265
▁norway 265
▁outlook 265
▁punishment 265
▁regain 265
噪音 265
奇妙 265
愛因斯坦 265
晚餐 265
種族主義 265
罪犯 265
荒謬 265
董事會 265
虧 265
醜 265
采 265
霸權 265
頒 265
growth 264
▁extremism 264
▁injustice 264
▁texas 264
化學物質 264
塞浦路斯 264
張照片 264
從來不 264
桿 264
氣味 264
溫室氣體排放 264
監視 264
莫迪 264
菸草 264
調節 264
邁進 264
餓 264
黃色 264
▁berkeley 263
▁emphasis 263
▁harmful 263
▁likelihood 263
▁mode 263
▁molecule 263
▁problematic 263
侵蝕 263
內閣 263
司機 263
呀 263
妨礙 263
始終 263
打電話給 263
抹 263
稿 263
虐 263
裁決 263
詞彙 263
阻撓 263
making 262
▁colleague 262
▁dense 262
▁monopoly 262
▁multinational 262
▁register 262
▁regret 262
▁superpower 262
▁virtue 262
▁好消息是 262
乃至 262
敦促 262
生殖 262
罹患 262
開啓 262
aids 261
enhanc 261
ville 261
▁differ 261
▁doctrine 261
▁keynes 261
▁profession 261
▁sanit 261
▁schedule 261
▁sensible 261
天堂 261
惡劣 261
憂鬱 261
探險 261
檢驗 261
視頻 261
説 261
養老金 261
orthodox 260
▁adventure 260
▁draft 260
▁endorse 260
▁grip 260
▁pause 260
▁spiritual 260
▁submit 260
▁非常謝謝 260
嗯 260
國有企業 260
孟 260
悄 260
探究 260
根深蒂固 260
生物多樣性 260
過濾 260
▁deng 259
▁league 259
▁propaganda 259
▁steady 259
吻 259
型態 259
巨型 259
沿著 259
競 259
薪酬 259
運送 259
▁complement 258
▁considerably 258
▁entry 258
▁frontier 258
▁indigenous 258
▁nurtur 258
▁pandemic 258
何處 258
停下來 258
南歐 258
奧地利 258
妥 258
心理學家 258
愈來愈 258
懶 258
是什麼樣子 258
曝 258
矚 258
糊 258
艦 258
蝦 258
▁barrel 257
▁diagnosis 257
▁pillar 257
▁straightforward 257
准 257
卑 257
孤獨 257
審慎 257
採訪 257
流行病 257
萎縮 257
▁cooperative 256
▁depriv 256
▁genius 256
▁session 256
▁很顯然 256
塞爾維亞 256
猶豫 256
聽眾 256
舍 256
醫療保健 256
阿巴斯 256
▁devis 255
▁identical 255
▁pessimis 255
▁pioneer 255
▁poetry 255
喜劇 255
幾何 255
揭示 255
朱 255
糾紛 255
美國總統奧巴馬 255
老年人 255
聘 255
蓬 255
軟實力 255
重覆 255
顯微鏡 255
▁admitted 254
▁autonomous 254
▁floating 254
▁lecture 254
▁myanmar 254
▁ruin 254
壞消息 254
壽 254
嫌 254
廢棄 254
扼 254
授 254
有價值的 254
濃縮 254
禦 254
紐約時報 254
羞辱 254
diagnosed 253
lib 253
▁cabinet 253
▁hungary 253
▁hurricane 253
▁infectious 253
▁lever 253
▁unconventional 253
▁underpinn 253
免疫系統 253
務實 253
原住民 253
嘲 253
奢 253
峽 253
悅 253
最高法院 253
橋樑 253
瀏 253
玉米 253
英哩 253
藉此 253
蛋白 253
駭客 253
foot 252
▁angela 252
▁awful 252
▁balloon 252
▁christmas 252
▁hydrogen 252
▁ukrainian 252
偉 252
捐助 252
箭 252
跳舞 252
鄉村 252
阻擋 252
▁depreciation 251
▁frighten 251
▁impede 251
▁privatiz 251
▁provok 251
仗 251
十九世紀 251
叉 251
懼 251
枯 251
浸 251
湧入 251
組成部分 251
薩達姆 251
高速公路 251
worm 250
ä 250
▁approximate 250
▁bullet 250
▁clue 250
▁ladies 250
▁politician 250
▁rightwing 250
叛亂 250
吐 250
怨 250
憤 250
打敗 250
撼 250
故意 250
暴跌 250
聚焦 250
職責 250
裝備 250
譬 250
運算 250
銅 250
韌 250
▁autism 249
▁beneficial 249
▁crush 249
▁farreaching 249
▁imposing 249
含義 249
奮鬥 249
寺 249
撰寫 249
縮減 249
遷徙 249
部落格 249
防務 249
▁assum 248
▁cheat 248
▁database 248
▁foresee 248
▁hitler 248
▁incorporat 248
▁nonprofit 248
先例 248
集合 248
changing 247
dollar 247
▁altogether 247
▁descend 247
▁magnitude 247
▁policymaking 247
憂鬱症 247
操 247
支配 247
斤 247
液體 247
清醒 247
焦 247
示範 247
結局 247
萎靡 247
賄 247
▁broadcast 246
▁cultivat 246
▁destructive 246
▁obesity 246
▁storage 246
▁vaccinat 246
▁再加上 246
傲 246
協商 246
印刷 246
瀕 246
煮 246
珊瑚礁 246
腔 246
轍 246
陶 246
飼 246
▁clip 245
▁corporation 245
▁foreignexchange 245
▁slave 245
▁tibet 245
措 245
攤 245
洞穴 245
綁架 245
謙 245
雇 245
high 244
▁dysfunction 244
▁millennium 244
▁scotland 244
敘事 244
疇 244
眼鏡 244
釘 244
希特勒 243
撕 243
操控 243
柬埔寨 243
淹 243
睡覺 243
迫害 243
▁capability 242
▁casual 242
▁keynesian 242
▁stalin 242
堵 242
攀升 242
淋 242
減弱 242
濕 242
降落 242
capital 241
essence 241
withstand 241
▁convincing 241
▁identities 241
▁reagan 241
▁smoking 241
夕 241
我最喜歡的 241
矽 241
祖父 241
缺失 241
逃避 241
▁serbia 240
偽 240
咎 240
招募 240
拾 240
浴 240
爭端 240
翁 240
▁battery 239
哩 239
姿 239
封閉 239
找尋 239
湊 239
溝 239
爵 239
狹 239
紮 239
豚 239
generation 238
▁blank 238
▁mechanical 238
假裝 238
祈 238
祉 238
臂 238
▁brics 237
▁foreignpolicy 237
▁sacred 237
▁secur 237
剋 237
喀 237
挫折 237
浪潮 237
頌 237
飆升 237
sharing 236
▁advertising 236
眠 236
蕾 236
weight 235
▁ecological 235
▁plac 235
擬 235
▁participat 234
仰 234
咒 234
埃博拉 234
報復 234
抨 234
拖累 234
挫 234
發育 234
蔽 234
蝠 234
醬 234
▁slavery 233
巾 232
在接下來的 231
懾 231
曆 231
替代方案 231
自行車 231
詮 231
饑 231
▁cambodia 230
▁smith 230
希拉里 230
翅 230
1986 229
▁coloni 229
倆 229
敘 229
漆 229
盒 229
祝 229
拙 228
捷克 228
昭 228
烤 228
犬 228
鈾 228
à 227
▁remarkabl 227
刷 227
嘉 227
嶼 227
涅 227
鄧 227
▁shap 226
僅限於 226
戮 226
撲 226
殖 226
烹 226
畜 226
築 226
縛 226
飄 226
鹼 226
咬 225
崖 225
窄 224
蓄 224
閱 224
駭 224
轄 223
距 222
傭 221
噬 221
彌 221
彙 221
胺 221
麼 220
兄 219
卷 219
喘 219
盆 219
諒 219
糞 218
綿 218
謂 218
骼 218
乙 217
巫 217
枚 217
肚 216
踢 216
% 215
墊 215
奠 215
框 215
享 214
妻 214
捨 214
昏 214
爺 214
蝙 214
傘 213
攜 213
乃 212
括 212
癒 212
矩 212
糾 212
錶 212
夥 211
扔 211
薦 211
贖 211
娃 210
披 210
唸 209
削 208
羽 208
芭 208
坑 207
寂 207
淘 207
紛 207
緻 207
膝 207
蔬 207
躁 207
鑰 207
眉 206
碗 206
穀 206
蘿 206
妄 205
渺 205
莊 205
訣 205
輝 204
æ 203
侯 203
循 203
窟 203
⋯ 202
炫 202
賀 202
錦 202
丸 201
棕 201
榜 201
狄 201
詭 201
姦 200
岌 200
搜 200
糕 200
鉛 200
饋 200
于 199
倦 199
夷 199
履 199
穫 199
蠢 199
豹 199
è 198
壩 198
扇 198
砸 198
郎 198
摔 197
毯 197
董 197
嶄 196
憎 196
盃 196
穎 196
筒 196
輿 196
撐 195
瞄 195
蕩 195
釐 195
魁 195
僑 194
刪 194
匙 194
攀 194
江 194
茫 194
雀 194
ö 193
廷 193
腕 193
詳 193
囉 192
寵 192
彼 192
柴 192
汁 192
誼 192
囚 191
昔 191
映 191
譯 191
浩 190
薯 190
踩 190
疆 189
稻 189
胚 189
銘 189
卸 188
嗨 188
婪 188
幟 188
梭 188
溶 188
艙 188
弈 187
摘 187
敞 187
氮 187
沈 187
癡 187
綱 187
芽 187
賠 187
駛 187
嗅 186
嫁 186
掀 186
逢 186
陋 186
仙 185
愧 185
懈 185
瞧 184
窺 184
茄 184
瞻 183
磷 183
龜 183
划 182
禿 182
坊 181
悠 181
汲 181
渦 181
筋 181
袖 181
鈴 181
胰 180
釀 180
▁embrac 179
伽 179
攬 179
汰 179
臥 179
釁 179
鍊 179
雖 179
馳 179
referred 178
乍 178
彰 178
捉 178
禧 178
腥 178
勸 177
廚 177
椎 177
罵 177
忽 176
沾 176
痺 176
碟 176
胖 176
侈 175
内 175
喇 175
姑 175
岡 175
橡 175
烷 175
緒 175
邀 175
顛 175
予 174
兔 174
惕 174
棍 174
攏 173
晤 173
稚 173
苛 173
麵 173
屁 172
熔 172
赴 172
吊 171
僚 170
啤 170
銜 170
滯 169
蠟 169
儒 168
儕 168
勉 168
衍 167
豁 167
陌 167
匠 166
嚐 166
盼 166
们 165
窩 165
肖 165
喉 164
洩 164
燥 164
矮 164
釣 164
鬍 164
扮 163
橘 163
檻 163
殿 162
溉 162
珊 162
裹 162
匱 161
嫉 161
甩 161
硫 161
脆 161
蘊 161
傻 160
廈 160
晃 160
淆 160
腫 160
芒 160
鴻 160
圭 159
裕 159
遵 159
抉 158
樞 158
濤 158
灑 158
賂 158
旱 157
漿 157
蝕 157
顏 157
駝 157
嵌 156
株 156
沼 156
溜 156
聳 156
肘 156
貶 156
隧 156
倘 155
偵 155
峙 155
瘦 155
皂 155
綢 155
酋 155
¥ 154
覓 154
这 154
鴨 154
戚 153
抖 153
擲 153
楚 153
謹 153
惹 152
蒼 152
鴿 152
鹿 152
噩 151
淵 151
睜 151
翔 151
郡 151
ñ 150
俘 150
廟 150
昇 150
瞞 150
裙 150
閥 150
【 149
】 149
侮 149
旦 149
泣 149
瓊 149
篷 149
綜 149
冥 148
宴 148
擱 148
攔 148
溪 148
穌 148
軀 148
鯊 148
黛 148
匆 147
徘 147
扁 147
莽 147
隙 147
禽 146
霜 146
剔 145
扭 145
粘 145
迦 145
鮪 145
♫ 144
仲 144
僧 144
妒 144
徊 144
瑣 144
蛙 144
鄙 144
券 143
吋 143
杆 143
浦 143
祭 143
紡 143
蕉 143
饒 143
­ 142
哨 142
描 142
殆 142
稽 142
馴 142
仔 141
炭 141
碩 141
箇 141
虔 141
輯 141
骯 141
勘 140
撿 140
桃 140
氦 140
熬 140
猿 140
飪 140
崔 139
澄 139
愚 138
渴 138
瀉 138
穴 138
蔑 138
并 137
撮 137
纜 137
詢 137
咪 136
嬰 136
崙 136
慌 136
昆 136
淪 136
癢 136
嚮 135
拳 135
挨 135
硅 135
闢 135
帆 134
廂 134
諜 134
閣 134
壺 133
搏 133
摧 133
泌 133
淫 133
砂 133
訝 133
謬 133
涼 132
癲 132
骸 132
噁 131
欖 131
伺 130
忡 130
歧 130
瘤 130
訓 130
捏 129
紗 129
顫 129
澡 128
皺 128
盔 128
纖 128
慎 127
爪 127
盎 127
螂 127
= 126
ï 126
刮 126
壘 126
燭 126
赦 126
駱 126
係 125
兜 125
噓 125
槽 125
橄 125
橙 125
脖 125
劍 124
堤 124
妓 124
栽 124
歎 124
澱 124
衫 124
酶 124
鱷 124
朔 123
疹 123
襯 123
墳 122
屢 122
府 122
恭 122
撇 122
斐 122
祂 122
竹 122
輟 122
鉅 122
函 121
畝 121
痹 121
奎 120
抄 120
攪 120
旬 120
焰 120
狠 120
膏 120
燬 119
礁 119
菁 119
萌 119
鑄 119
飢 119
伎 118
傢 118
姬 118
棚 118
癇 118
菇 118
辣 118
迭 118
逗 118
墟 117
宅 117
糧 117
š 116
斬 116
札 116
鍾 116
娘 115
彗 115
憫 115
溺 115
爽 115
茅 115
薇 115
鸚 115
呃 114
囤 114
恕 114
杉 114
犀 114
茂 114
姨 113
寥 113
矛 113
繆 113
舟 113
逸 113
鷲 113
麪 113
黴 113
鼎 113
冗 112
弓 112
挽 112
梵 112
爍 112
芙 112
œ 111
拇 111
曠 111
矯 111
袍 111
謗 111
黯 111
ã 110
劉 110
揹 110
曬 110
毋 110
氾 110
睫 110
笛 110
莖 110
詛 110
醞 110
妝 109
掏 109
澆 109
茁 109
茱 109
逛 109
鍛 109
陵 109
刃 108
檯 108
疚 108
裨 108
馭 108
唾 107
掙 107
毆 107
煌 107
盈 107
糙 107
⁄ 106
沸 106
熙 106
謠 106
賊 106
逾 106
頃 106
侖 105
宰 105
攸 105
焚 105
矇 105
紓 105
脹 105
誹 105
攫 104
斗 104
暈 104
朴 104
潰 104
窘 104
苗 104
陀 104
俯 103
啥 103
屑 103
帥 103
悉 103
挪 103
摒 103
牲 103
皿 103
蜻 103
妖 102
瑰 102
蝸 102
誡 102
? 101
囂 101
娩 101
拱 101
渾 101
籬 101
趾 101
鞭 101
个 100
宇 100
悼 100
碌 100
芝 100
蝶 100
諱 100
魅 100
侶 99
嶺 99
昧 99
瀾 99
竅 99
藤 99
虹 99
鋁 99
倚 98
叮 98
懲 98
氯 98
靶 98
劾 97
窒 97
籤 97
蹟 97
闖 97
靖 97
屠 96
恤 96
摯 96
繃 96
贈 96
\ 95
嗜 95
巔 95
珀 95
邪 95
鳳 95
€ 94
亟 94
曙 94
殭 94
濾 94
玫 94
蟑 94
鍋 94
齣 94
「 93
咄 93
敦 93
洶 93
狐 93
蜓 93
乞 92
哲 92
瑕 92
縣 92
蘑 92
蟹 92
諷 92
蹂 92
躪 92
£ 91
― 91
塘 91
夭 91
廓 91
朽 91
泳 91
煞 91
孩 90
恒 90
惰 90
毅 90
猴 90
♪ 89
匪 89
懇 89
没 89
潑 89
疤 89
迅 89
迥 89
酮 89
魂 89
媲 88
寓 88
弧 88
炒 88
絆 88
誌 88
崗 87
暑 87
械 87
狩 87
瘟 87
盾 87
缸 87
襪 87
賤 87
趁 87
亥 86
憚 86
暫 86
溼 86
猖 86
褐 86
酪 86
丙 85
吼 85
忱 85
槿 85
歪 85
祥 85
靴 85
嘔 84
戳 84
疵 84
綽 84
萃 84
逍 84
鑿 84
ú 83
啻 83
婭 83
巷 83
沛 83
竄 83
莓 83
嘗 82
怯 82
斧 82
朋 82
氨 82
澀 82
烘 82
獗 82
竿 82
蓮 82
豔 82
邏 82
鋸 82
驟 82
憊 81
杰 81
篤 81
錨 81
剎 80
柳 80
樁 80
狡 80
砰 80
秉 80
」 79
佬 79
嗡 79
彥 79
擷 79
暇 79
栓 79
潤 79
煎 79
熄 79
癥 79
羨 79
豎 79
躋 79
雛 79
○ 78
乖 78
哮 78
杏 78
棱 78
槳 78
殊 78
瀰 78
瓣 78
閾 78
掣 77
枕 77
楊 77
櫚 77
睪 77
舅 77
馮 77
妨 76
柄 76
丑 75
勳 75
姍 75
孵 75
宛 75
杖 75
瀆 75
絞 75
絨 75
貯 75
閡 75
坪 74
槓 74
瞬 74
碧 74
顱 74
捆 73
梨 73
榨 73
痴 73
睞 73
睹 73
簿 73
聾 73
俑 72
俠 72
嚨 72
悍 72
拐 72
晴 72
椰 72
眨 72
磋 72
緬 72
艷 72
跋 72
蹣 72
隕 72
_ 71
ž 71
叭 71
帖 71
捫 71
斂 71
濱 71
蝴 71
蠶 71
貞 71
傅 70
嚼 70
崎 70
渣 70
漩 70
狸 70
肇 70
袒 70
誦 70
跚 70
鰭 70
噠 69
氟 69
淇 69
瀑 69
牟 69
琪 69
産 69
畸 69
芯 69
虜 69
迺 69
ㄧ 68
侍 68
倪 68
勿 68
捧 68
梁 68
氓 68
燙 68
瘡 68
聼 68
頹 68
» 67
剷 67
彭 67
慟 67
搗 67
斃 67
椒 67
熵 67
聰 67
蔘 67
吟 66
吶 66
娶 66
愁 66
挾 66
瞎 66
稠 66
髦 66
凹 65
唇 65
夸 65
寞 65
憧 65
瀝 65
粹 65
袱 65
鮭 65
鹹 65
„ 64
咳 64
憬 64
懦 64
撰 64
擅 64
樸 64
洽 64
紊 64
踵 64
遏 64
̧ 63
僕 63
凰 63
嗶 63
惟 63
礙 63
簾 63
藩 63
賢 63
魏 63
儉 62
嘻 62
庇 62
悚 62
晦 62
泵 62
渥 62
蔔 62
霄 62
嬤 61
寨 61
憶 61
扛 61
拷 61
烙 61
盞 61
禪 61
箏 61
緝 61
膩 61
菈 61
酗 61
鈍 61
錘 61
陡 61
孚 60
来 60
柵 60
棺 60
滔 60
牴 60
瞪 60
繹 60
羚 60
脅 60
貢 60
錐 60
厘 59
咖 59
梳 59
灼 59
痢 59
睦 59
苯 59
蹺 59
鑒 59
@ 58
厲 58
唉 58
梗 58
煥 58
瑜 58
瓷 58
稼 58
肋 58
諺 58
鈣 58
鏽 58
为 57
俾 57
几 57
瀚 57
烯 57
翠 57
蔥 57
蛻 57
衞 57
詆 57
么 56
僻 56
哎 56
囑 56
孱 56
栩 56
瞥 56
瞰 56
緯 56
鱈 56
佑 55
喧 55
嬉 55
漬 55
玉 55
脾 55
臀 55
舵 55
褻 55
蹲 55
飆 55
勻 54
嗤 54
橢 54
檬 54
檸 54
癖 54
羈 54
螃 54
褪 54
訃 54
髖 54
̄ 53
・ 53
嗚 53
嫩 53
懺 53
甸 53
絶 53
蠱 53
袤 53
逮 53
餌 53
鬚 53
岔 52
弭 52
涸 52
猾 52
痊 52
砲 52
簧 52
魄 52
{ 51
剃 51
呵 51
姪 51
婉 51
孢 51
峭 51
揣 51
斡 51
猝 51
翹 51
芥 51
荼 51
蔡 51
蚌 51
訶 51
頰 51
ć 50
〈 50
〉 50
兀 50
寢 50
撓 50
燕 50
牡 50
狒 50
胱 50
蕪 50
蘆 50
諮 50
趙 50
辜 50
鄭 50
韻 50
餡 50
ł 49
喋 49
噪 49
棘 49
櫥 49
紳 49
縈 49
肅 49
臘 49
蕃 49
蕊 49
蛾 49
踝 49
轎 49
醣 49
冤 48
吳 48
嘎 48
潭 48
睿 48
脣 48
苟 48
貘 48
踪 48
遽 48
丈 47
倭 47
哄 47
惶 47
攣 47
綻 47
蠣 47
銬 47
ô 46
ń 46
咋 46
昌 46
杭 46
炙 46
矢 46
茸 46
跪 46
霹 46
靡 46
傀 45
儡 45
喂 45
扳 45
摻 45
暱 45
榴 45
樑 45
瘧 45
碾 45
罔 45
臆 45
鋰 45
鶴 45
‚ 44
冕 44
吱 44
圳 44
壑 44
搔 44
敷 44
玷 44
絀 44
緘 44
繭 44
菅 44
蹦 44
躇 44
逞 44
釷 44
‰ 43
乒 43
体 43
凶 43
姥 43
婁 43
汐 43
炬 43
獁 43
痙 43
眩 43
穹 43
綫 43
臃 43
贅 43
躊 43
遂 43
靂 43
ê 42
乓 42
侏 42
卦 42
唔 42
嗝 42
屎 42
岳 42
强 42
恍 42
慧 42
拭 42
捩 42
澳 42
焉 42
稟 42
筍 42
舖 42
藐 42
蜥 42
蠕 42
襟 42
跛 42
鍍 42
顎 42
} 41
́ 41
傍 41
汪 41
沌 41
淑 41
灸 41
疼 41
睾 41
綏 41
縷 41
繡 41
覷 41
趴 41
遴 41
〇 40
勵 40
吝 40
咕 40
奬 40
搐 40
曖 40
殃 40
窪 40
粟 40
茵 40
蔭 40
蕭 40
薛 40
蟎 40
衕 40
衚 40
輾 40
遼 40
錮 40
鐮 40
鑲 40
閘 40
餚 40
鳩 40
‡ 39
会 39
咀 39
啪 39
嘶 39
囪 39
枷 39
楷 39
渠 39
渲 39
湛 39
燦 39
琢 39
舔 39
軒 39
辰 39
酚 39
鍼 39
僥 38
吾 38
奄 38
拌 38
撬 38
梟 38
歹 38
漣 38
瘠 38
羹 38
膳 38
范 38
葵 38
蔗 38
諭 38
譭 38
賃 38
輒 38
轅 38
鉗 38
霖 38
颱 38
̃ 37
凳 37
匣 37
卒 37
啡 37
壕 37
够 37
帷 37
御 37
恙 37
恣 37
戛 37
檳 37
漪 37
芳 37
証 37
蹴 37
鏢 37
鐸 37
霾 37
齋 37
¿ 36
亭 36
仕 36
咆 36
嗽 36
嚷 36
寐 36
幌 36
曳 36
毗 36
沁 36
澈 36
玄 36
穢 36
綴 36
膛 36
蒿 36
詰 36
諳 36
譚 36
邸 36
鏟 36
驢 36
 35
® 35
〞 35
俊 35
呂 35
孜 35
怠 35
橇 35
汶 35
燼 35
筏 35
粥 35
腋 35
蜴 35
褶 35
誨 35
諦 35
蹊 35
躬 35
郭 35
鑣 35
顳 35
俏 34
噗 34
嚏 34
嚕 34
坍 34
墾 34
峇 34
沐 34
煽 34
痲 34
翰 34
螳 34
譁 34
醃 34
ō 33
ˆ 33
允 33
凋 33
垢 33
墅 33
捱 33
槌 33
狙 33
秤 33
篡 33
簸 33
紉 33
繽 33
臼 33
芮 33
苷 33
菊 33
蔣 33
â 32
云 32
咯 32
哉 32
嗓 32
媚 32
寇 32
扉 32
揍 32
时 32
暮 32
样 32
榷 32
甦 32
硝 32
苔 32
螈 32
詫 32
说 32
蹄 32
蹶 32
遑 32
鄂 32
鈦 32
鉀 32
鰻 32
« 31
侃 31
哼 31
噶 31
孰 31
尉 31
徐 31
撾 31
檀 31
焊 31
痘 31
砌 31
耿 31
肽 31
胳 31
葫 31
蜷 31
蠑 31
鋅 31
骰 31
鱗 31
喙 30
屹 30
敍 30
旭 30
芋 30
菩 30
萎 30
詡 30
跤 30
蹩 30
鈈 30
鎔 30
^ 29
¢ 29
墻 29
廿 29
弛 29
怡 29
拂 29
梢 29
淖 29
琉 29
纂 29
蚪 29
蝌 29
裘 29
鎚 29
闔 29
 28
 28
¤ 28
厥 28
咚 28
啞 28
嚥 28
嫖 28
实 28
嶇 28
慄 28
懊 28
朊 28
濺 28
灶 28
礫 28
竈 28
紹 28
翩 28
聶 28
膊 28
茉 28
蔚 28
蚜 28
蛀 28
蛤 28
质 28
躉 28
迂 28
醛 28
鎂 28
鐳 28
魟 28
魷 28
鵡 28
黜 28
冀 27
冉 27
劈 27
叨 27
嗇 27
嘈 27
恪 27
抒 27
揉 27
淌 27
湄 27
漓 27
猥 27
眷 27
瞳 27
种 27
翱 27
耽 27
腱 27
虞 27
褓 27
軼 27
鞘 27
餒 27
鼬 27
* 26
ƒ 26
咫 26
咻 26
啃 26
囿 26
坷 26
娼 26
嬌 26
宋 26
徽 26
晝 26
晾 26
暨 26
氈 26
爹 26
甄 26
甥 26
疽 26
睛 26
矣 26
硏 26
祟 26
窯 26
罹 26
貽 26
邱 26
酌 26
鉢 26
鞍 26
齧 26
© 25
± 25
¶ 25
亢 25
佣 25
咽 25
嘟 25
慚 25
拴 25
掰 25
擡 25
擰 25
枉 25
桎 25
梏 25
楔 25
滌 25
燴 25
牒 25
瑙 25
睬 25
紜 25
絃 25
繚 25
罌 25
胥 25
臍 25
臻 25
舶 25
藹 25
蜒 25
蜿 25
衹 25
詠 25
詬 25
逕 25
鈉 25
霉 25
顔 25
餬 25
鲁 25
< 24
> 24
 24
ÿ 24
› 24
佼 24
妃 24
屜 24
憋 24
杞 24
桂 24
殷 24
熨 24
现 24
皈 24
眈 24
眺 24
穗 24
簇 24
膨 24
芸 24
蝟 24
誅 24
謾 24
譏 24
豌 24
魘 24
𥚃 24
̈ 23
亙 23
佃 23
兮 23
决 23
啄 23
喲 23
弘 23
忒 23
惘 23
憾 23
揀 23
揪 23
櫻 23
汞 23
淒 23
焙 23
瘀 23
瘁 23
眶 23
矗 23
肛 23
蟀 23
蟋 23
蟾 23
醋 23
閹 23
阪 23
鮟 23
鱇 23
× 22
侄 22
儼 22
别 22
匈 22
唬 22
啜 22
嗒 22
囹 22
圄 22
奥 22
奸 22
婿 22
庶 22
弩 22
恫 22
愕 22
攢 22
柬 22
桅 22
欸 22
涓 22
滄 22
濘 22
犁 22
甫 22
畔 22
瘍 22
稜 22
笆 22
箴 22
胜 22
蒲 22
蕈 22
薑 22
螫 22
訐 22
邃 22
醯 22
釦 22
骷 22
髏 22
鯉 22
ø 21
▪ 21
唆 21
唷 21
嗑 21
嚎 21
妊 21
娠 21
弔 21
慫 21
据 21
掐 21
撩 21
朦 21
樺 21
潦 21
燎 21
疙 21
瘩 21
縟 21
覬 21
賅 21
蹋 21
迸 21
遐 21
酯 21
霰 21
餾 21
鷗 21
− 20
㚈 20
冶 20
吠 20
嘍 20
噱 20
孝 20
嵗 20
巖 20
幢 20
恿 20
曰 20
朧 20
殉 20
殯 20
涕 20
滙 20
珈 20
磕 20
簷 20
维 20
腓 20
蚱 20
蛆 20
蝨 20
蟒 20
訌 20
辟 20
闌 20
间 20
鰓 20
鰲 20
黒 20
¡ 19
● 19
丐 19
啼 19
喃 19
嘖 19
嘩 19
嘯 19
夯 19
妲 19
媛 19
孽 19
幀 19
摹 19
斟 19
曇 19
柚 19
槃 19
毁 19
泯 19
涇 19
熾 19
祿 19
絢 19
繕 19
统 19
蘚 19
蚤 19
蝗 19
覦 19
贓 19
过 19
还 19
逅 19
邂 19
鐺 19
镜 19
隘 19
驕 19
† 18
‹ 18
剽 18
咧 18
姻 18
学 18
峻 18
忿 18
捅 18
擘 18
榖 18
殲 18
渭 18
湍 18
滕 18
琥 18
痼 18
籽 18
絛 18
耆 18
肓 18
蔓 18
蠍 18
誣 18
賑 18
贍 18
遁 18
遨 18
鉭 18
鞠 18
α 17
β 17
俚 17
儂 17
呻 17
堊 17
墉 17
娓 17
宵 17
寮 17
徠 17
濛 17
瀋 17
窠 17
緹 17
耙 17
膿 17
臬 17
蚓 17
蚯 17
蜢 17
觭 17
豈 17
远 17
鯛 17
麋 17
¦ 16
ā 16
从 16
剿 16
发 16
吮 16
宕 16
宙 16
崑 16
幷 16
径 16
慼 16
掂 16
柢 16
棠 16
楣 16
濁 16
熠 16
燉 16
痍 16
瘙 16
癱 16
睽 16
瞠 16
窿 16
綺 16
衊 16
见 16
謨 16
輻 16
辮 16
酥 16
銹 16
ğ 15
ş 15
伶 15
俬 15
刁 15
动 15
变 15
叩 15
吁 15
噤 15
噹 15
媾 15
嫺 15
恃 15
悽 15
惦 15
扒 15
抛 15
拗 15
拮 15
擂 15
擯 15
昰 15
横 15
涎 15
淩 15
潟 15
炊 15
琦 15
皁 15
砷 15
硼 15
礅 15
秦 15
窖 15
籲 15
膺 15
荊 15
蔻 15
薰 15
譎 15
轆 15
遛 15
醚 15
鐐 15
馨 15
鬣 15
麩 15
ë 14
ù 14
μ 14
π 14
兢 14
咔 14
咨 14
嗆 14
嘮 14
垣 14
处 14
宫 14
廖 14
悴 14
戎 14
扈 14
搓 14
桀 14
淤 14
澇 14
熒 14
癬 14
磺 14
竇 14
篝 14
絮 14
纳 14
细 14
羔 14
腮 14
菱 14
蒜 14
蛹 14
褒 14
踞 14
醺 14
鉑 14
霓 14
驁 14
鴕 14
鶩 14
麟 14
‐ 13
凈 13
却 13
幡 13
怖 13
惚 13
惺 13
愜 13
憔 13
掮 13
摟 13
攘 13
曦 13
榻 13
殞 13
氚 13
氰 13
潢 13
烴 13
牘 13
瑩 13
璨 13
瓢 13
磐 13
箔 13
縝 13
给 13
蛞 13
蜀 13
蜇 13
蝓 13
詼 13
讲 13
軋 13
釜 13
鈞 13
鈳 13
錠 13
陲 13
题 13
颳 13
饉 13
验 13
麾 13
黍 13
§ 12
¬ 12
̇ 12
‒ 12
丶 12
勺 12
卅 12
咐 12
嗣 12
垠 12
对 12
屯 12
岑 12
惴 12
懵 12
戾 12
拈 12
拽 12
挹 12
擧 12
气 12
沓 12
澎 12
燻 12
狽 12
睢 12
磯 12
祀 12
祇 12
筷 12
緞 12
约 12
罄 12
翡 12
聒 12
脚 12
腑 12
菍 12
裴 12
襁 12
訛 12
謔 12
鈷 12
鋌 12
隅 12
隼 12
頜 12
騖 12
鯡 12
万 11
佇 11
佯 11
关 11
刹 11
呱 11
咸 11
嚙 11
坤 11
壟 11
孳 11
尔 11
廄 11
廬 11
彬 11
徉 11
徜 11
憩 11
搆 11
撻 11
数 11
术 11
棣 11
汚 11
狓 11
璀 11
砥 11
禹 11
竣 11
糜 11
翌 11
胼 11
芹 11
藕 11
蛄 11
蟬 11
觴 11
訕 11
貲 11
踱 11
迹 11
鋃 11
錳 11
閲 11
鞦 11
韆 11
韜 11
鵰 11
黝 11
; 10
î 10
č 10
ē 10
ī 10
̊ 10
丫 10
俐 10
俳 10
卉 10
叟 10
哽 10
啵 10
啾 10
喹 10
嘰 10
图 10
壅 10
媳 10
孀 10
孿 10
岱 10
廝 10
彷 10
忑 10
忖 10
恢 10
惻 10
慵 10
戟 10
敝 10
斕 10
暉 10
樽 10
沫 10
渙 10
湃 10
湮 10
玲 10
瑯 10
疣 10
痣 10
皰 10
碘 10
箋 10
糅 10
綑 10
缩 10
胝 10
膈 10
芻 10
苣 10
茜 10
菠 10
萵 10
藜 10
蛭 10
蜍 10
螨 10
襄 10
轨 10
进 10
鉉 10
鎊 10
鎘 10
鎢 10
阳 10
雹 10
静 10
靚 10
駡 10
齦 10
〝 9
两 9
余 9
倔 9
兰 9
剥 9
压 9
叼 9
吏 9
呲 9
咿 9
啕 9
噎 9
壹 9
央 9
婊 9
嬸 9
孑 9
寰 9
当 9
忐 9
恬 9
愎 9
捶 9
揄 9
揶 9
擒 9
暸 9
曹 9
棧 9
榭 9
殻 9
沂 9
涂 9
獺 9
痾 9
盹 9
睏 9
瞌 9
砝 9
离 9
禾 9
粱 9
糰 9
綵 9
结 9
耘 9
聆 9
聵 9
肼 9
脱 9
舛 9
蜚 9
装 9
諂 9
踉 9
踊 9
踰 9
踴 9
蹌 9
蹭 9
运 9
鈎 9
鉻 9
鎳 9
霆 9
霎 9
頤 9
餿 9
饗 9
鱒 9
黷 9
ì 8
δ 8
อ 8
东 8
儸 8
减 8
凜 8
劊 8
卯 8
呐 8
呦 8
喳 8
嗦 8
国 8
圃 8
奐 8
奚 8
妞 8
娛 8
嫂 8
将 8
帑 8
帚 8
彆 8
徴 8
怦 8
愾 8
懣 8
戊 8
拚 8
敎 8
旼 8
极 8
棗 8
椋 8
樟 8
橈 8
殫 8
毬 8
氘 8
沆 8
浹 8
温 8
滬 8
瀣 8
犛 8
獾 8
璐 8
甾 8
瞇 8
瞼 8
祢 8
笞 8
箍 8
糗 8
紕 8
羥 8
翫 8
耄 8
脉 8
茴 8
蒐 8
蓉 8
蜃 8
袁 8
褸 8
襤 8
訇 8
訥 8
諉 8
证 8
诉 8
踮 8
躑 8
逹 8
遢 8
邋 8
酣 8
鈽 8
鏞 8
鐲 8
鑷 8
鑼 8
银 8
问 8
际 8
餃 8
鰩 8
鷄 8
 7
ę 7
ı 7
ε 7
“ 7
〕 7
仟 7
伕 7
俎 7
况 7
刨 7
劵 7
匍 7
匐 7
匝 7
卹 7
叠 7
吩 7
呸 7
咦 7
唑 7
嘀 7
囓 7
囘 7
塹 7
孓 7
寻 7
层 7
岐 7
巋 7
幗 7
徳 7
悸 7
愿 7
捎 7
摀 7
擄 7
无 7
柿 7
毎 7
沽 7
浙 7
涌 7
湎 7
瀨 7
琵 7
琺 7
瓏 7
痠 7
痰 7
瘸 7
祐 7
稈 7
稔 7
粕 7
繮 7
红 7
经 7
羯 7
羸 7
臠 7
舐 7
莢 7
葦 7
蕞 7
蕨 7
蛔 7
蝎 7
螯 7
袓 7
訟 7
訢 7
认 7
让 7
豫 7
貉 7
赭 7
踹 7
躅 7
躡 7
軔 7
輓 7
轻 7
邵 7
郁 7
銻 7
鋤 7
鐧 7
陛 7
颼 7
騾 7
鬃 7
鷸 7
鹵 7
` 6
ū 6
ل 6
م 6
ي 6
〔 6
亚 6
倣 6
偎 6
僭 6
儆 6
匕 6
单 6
厨 6
叙 6
唵 6
喵 6
嗷 6
噥 6
坨 6
埸 6
复 6
嫻 6
宝 6
屌 6
崽 6
嵐 6
嵴 6
幔 6
开 6
弋 6
彫 6
惋 6
愣 6
懨 6
战 6
摞 6
攙 6
旳 6
昴 6
査 6
栗 6
桔 6
椿 6
樵 6
櫛 6
氡 6
氪 6
汝 6
渝 6
点 6
犒 6
状 6
獰 6
珉 6
琅 6
璇 6
矜 6
碴 6
磗 6
祸 6
竺 6
籟 6
终 6
缽 6
耋 6
聿 6
胭 6
胯 6
腆 6
腴 6
苜 6
茹 6
葷 6
蒞 6
蓿 6
蚣 6
蜈 6
蜊 6
衪 6
袞 6
褥 6
襬 6
观 6
誒 6
諛 6
諤 6
謅 6
论 6
话 6
该 6
豢 6
貂 6
费 6
蹬 6
逡 6
酩 6
釉 6
释 6
銫 6
铃 6
键 6
閑 6
难 6
靛 6
靨 6
顴 6
飈 6
餑 6
駸 6
騁 6
髂 6
鮫 6
鯖 6
鱸 6
鵑 6
鷈 6
鷿 6
麓 6
麝 6
黄 6
鼴 6
ω 5
′ 5
与 5
亳 5
仅 5
佝 5
佷 5
佻 5
倏 5
偃 5
偕 5
僂 5
兹 5
剁 5
勛 5
区 5
叱 5
吭 5
嗖 5
嚒 5
嚓 5
塚 5
墩 5
嫡 5
嬴 5
寳 5
岬 5
嶽 5
帛 5
带 5
应 5
庾 5
张 5
彪 5
徇 5
户 5
拯 5
捂 5
捍 5
擎 5
攆 5
攥 5
暹 5
杓 5
杳 5
枱 5
柑 5
柺 5
椘 5
楓 5
榔 5
榕 5
樊 5
歴 5
测 5
浣 5
满 5
潜 5
濬 5
烽 5
熏 5
犢 5
猙 5
獠 5
獷 5
璜 5
甕 5
疥 5
疸 5
痂 5
瞅 5
砧 5
祛 5
祼 5
积 5
称 5
简 5
箝 5
纽 5
组 5
脛 5
脯 5
莞 5
莠 5
葩 5
蕙 5
薈 5
螞 5
蟄 5
謐 5
许 5
试 5
谢 5
蹙 5
蹼 5
载 5
达 5
适 5
鉚 5
鉸 5
銖 5
鎩 5
鎵 5
鏘 5
鑚 5
閨 5
韁 5
韃 5
须 5
駿 5
鱖 5
鵟 5
麴 5
黔 5
黠 5
鼾 5
 5
 4
ð 4
ą 4
ľ 4
ˊ 4
س 4
ع 4
ย 4
ร 4
่ 4
‬ 4
侷 4
俟 4
僮 4
儿 4
冪 4
刋 4
呤 4
咩 4
响 4
哢 4
唳 4
啉 4
啖 4
喷 4
噘 4
囔 4
围 4
圣 4
块 4
壆 4
壬 4
奕 4
姚 4
娌 4
娣 4
嫚 4
孃 4
寅 4
尹 4
岁 4
峨 4
崴 4
巍 4
巒 4
帮 4
彤 4
徙 4
徨 4
怀 4
怵 4
愫 4
拄 4
拎 4
换 4
搥 4
搧 4
摳 4
撙 4
敖 4
暄 4
桁 4
梆 4
梧 4
歿 4
浬 4
淬 4
潺 4
澹 4
烊 4
燜 4
燧 4
爱 4
犠 4
猫 4
獃 4
玆 4
痞 4
瘴 4
癆 4
癟 4
皙 4
盂 4
盘 4
盥 4
硒 4
确 4
礬 4
祆 4
祗 4
稷 4
穏 4
竽 4
筱 4
簍 4
簣 4
粑 4
粼 4
糢 4
緃 4
线 4
绍 4
绕 4
续 4
罗 4
羡 4
耦 4
舀 4
舆 4
舷 4
节 4
苞 4
苺 4
萍 4
萨 4
藴 4
蚩 4
蛉 4
蜱 4
蝿 4
螽 4
裱 4
諄 4
謄 4
譟 4
请 4
诺 4
豺 4
賒 4
贗 4
赢 4
跃 4
跎 4
跩 4
跺 4
踫 4
蹉 4
轤 4
较 4
迢 4
酊 4
酐 4
酰 4
鈹 4
銑 4
銥 4
銲 4
鋨 4
鋯 4
鎗 4
鎝 4
鎬 4
鐡 4
长 4
閂 4
闕 4
隷 4
雾 4
靼 4
顿 4
领 4
颗 4
饞 4
髪 4
鬨 4
鱘 4
鳶 4
鹅 4
龔 4
龕 4
! 3
ò 3
ż 3
ʾ 3
ˋ 3
τ 3
φ 3
χ 3
в 3
о 3
ы 3
‭ 3
∙ 3
の 3
ㄠ 3
ㄡ 3
㖿 3
争 3
产 3
仆 3
众 3
侧 3
兴 3
冲 3
冽 3
刈 3
剌 3
剧 3
匾 3
厮 3
参 3
叵 3
吒 3
吗 3
唄 3
唏 3
啷 3
嘌 3
嘭 3
囧 3
圴 3
堝 3
堰 3
堿 3
増 3
头 3
婀 3
婢 3
婴 3
婷 3
嫵 3
尽 3
屣 3
崁 3
崛 3
帧 3
幄 3
幺 3
广 3
庖 3
廸 3
异 3
弒 3
徧 3
忝 3
怙 3
悵 3
愷 3
抺 3
捭 3
捺 3
搡 3
搪 3
携 3
搾 3
撣 3
斋 3
机 3
杠 3
杵 3
枰 3
柩 3
栿 3
楠 3
榚 3
槁 3
樍 3
檄 3
檜 3
殄 3
残 3
殤 3
氙 3
氬 3
沬 3
沱 3
涷 3
淳 3
溴 3
滇 3
滓 3
滚 3
漱 3
漾 3
潸 3
瀟 3
灯 3
燿 3
猬 3
獼 3
环 3
璞 3
璧 3
町 3
画 3
疝 3
痿 3
瘻 3
癸 3
皎 3
盅 3
盗 3
眀 3
眸 3
矫 3
礪 3
秃 3
秧 3
秸 3
窈 3
窕 3
笙 3
筑 3
箂 3
籮 3
类 3
紂 3
綹 3
緲 3
縹 3
继 3
缓 3
编 3
罈 3
罝 3
膦 3
艮 3
苑 3
荀 3
莱 3
萸 3
葆 3
葺 3
蕁 3
蕯 3
薔 3
虻 3
蚕 3
袐 3
裳 3
覲 3
规 3
詔 3
詣 3
譙 3
讖 3
计 3
记 3
赚 3
赳 3
踨 3
躥 3
輊 3
邇 3
釙 3
鈀 3
銨 3
録 3
鍁 3
鍥 3
鍰 3
鍺 3
鎧 3
鏖 3
鏗 3
鐫 3
阮 3
随 3
隠 3
隣 3
雯 3
靭 3
鞅 3
韙 3
项 3
飞 3
飴 3
餞 3
馱 3
驍 3
髯 3
髻 3
鯁 3
鯷 3
鯽 3
鰹 3
鱂 3
鱔 3
鲔 3
鴯 3
鵬 3
鵲 3
鶓 3
鶯 3
鷺 3
鼩 3
齪 3
齷 3
 3
 2
õ 2
ă 2
ǔ 2
ș 2
̀ 2
γ 2
σ 2
м 2
ة 2
د 2
ص 2
ط 2
ك 2
ن 2
ه 2
و 2
प 2
म 2
र 2
े 2
् 2
ḥ 2
ẹ 2
ọ 2
→ 2
∇ 2
⋅ 2
♯ 2
き 2
れ 2
ㄅ 2
ㄌ 2
ㄎ 2
ㄟ 2
丢 2
丰 2
亲 2
亿 2
价 2
佗 2
佘 2
倂 2
偌 2
傌 2
傚 2
僈 2
儍 2
党 2
养 2
凯 2
卍 2
卧 2
卿 2
厠 2
厰 2
吓 2
吖 2
员 2
咂 2
哂 2
唁 2
啁 2
啶 2
喏 2
喑 2
嚢 2
囗 2
囫圇 2
圑 2
圜 2
场 2
坩 2
垃 2
塲 2
夙 2
奖 2
妁 2
妍 2
妾 2
姣 2
娑 2
嫗 2
嫰 2
孛 2
孺 2
宽 2
寛 2
导 2
尸 2
屐 2
岀 2
峋 2
峡 2
崢 2
嶙 2
嶸 2
师 2
帙 2
彿 2
忤 2
态 2
怔 2
总 2
悻 2
惆 2
惯 2
愴 2
憨 2
懟 2
戍 2
戏 2
戕 2
戯 2
扙 2
扺 2
担 2
挂 2
挈 2
挐 2
揩 2
摑 2
摰 2
撳 2
擕 2
擢 2
擤 2
断 2
昊 2
昵 2
显 2
晒 2
晩 2
晷 2
曜 2
曽 2
朶 2
杂 2
枪 2
桉 2
桐 2
桓 2
梓 2
梠 2
楞 2
楦 2
槐 2
様 2
槨 2
檐 2
欢 2
欧 2
歛 2
歩 2
歳 2
氂 2
氖 2
泅 2
泱 2
洄 2
洐 2
淂 2
淅 2
淮 2
渐 2
渤 2
滂 2
滷 2
濡 2
濳 2
烱 2
焗 2
煦 2
煲 2
燄 2
犰 2
狳 2
猁 2
猞 2
猪 2
玳 2
珂 2
琶 2
瑁 2
瑋 2
璽 2
甯 2
电 2
痤 2
瘓 2
瘾 2
皚 2
眇 2
瞟 2
矞 2
码 2
碁 2
碉 2
磊 2
禰 2
秏 2
秣 2
稳 2
窥 2
笈 2
笫 2
筐 2
筛 2
篪 2
籓 2
粵 2
糠 2
紈 2
綸 2
縶 2
纍 2
级 2
纸 2
纹 2
绝 2
缐 2
缚 2
缝 2
罂 2
罅 2
羌 2
羧 2
羲 2
翎 2
耹 2
联 2
聴 2
胛 2
脢 2
膾 2
臊 2
艄 2
芘 2
苒 2
茬 2
荏 2
荻 2
莾 2
菡 2
萋 2
葚 2
葱 2
蓝 2
藪 2
蘋 2
虽 2
蚵 2
蚺 2
蜉 2
蝣 2
螅 2
螻 2
蠹 2
裇 2
褔 2
褫 2
褺 2
襞 2
訖 2
誆 2
諢 2
譴 2
识 2
诏 2
賁 2
负 2
资 2
赖 2
赛 2
赞 2
赧 2
趄 2
趔 2
蹓 2
躂 2
軛 2
轂 2
转 2
输 2
边 2
邑 2
醍 2
醐 2
釧 2
鉆 2
鉬 2
鉺 2
鋥 2
针 2
閔 2
関 2
閤 2
閻 2
闗 2
门 2
阱 2
陝 2
雁 2
雋 2
霞 2
靦 2
頇 2
頦 2
顢 2
顰 2
页 2
顺 2
预 2
餽 2
饈 2
饌 2
饕 2
饜 2
馥 2
駑 2
駒 2
驛 2
髋 2
鬢 2
鯰 2
鰺 2
鱝 2
鲜 2
鴆 2
鴇 2
鵐 2
鵜 2
鶇 2
鶘 2
鶥 2
鸛 2
鹰 2
黽 2
齙 2
齟 2
齬 2
齲 2
 1
û 1
ě 1
İ 1
ő 1
ť 1
ű 1
ǐ 1
ǒ 1
ȃ 1
θ 1
а 1
и 1
н 1
п 1
р 1
с 1
х 1
ứ 1
∞ 1
⋄ 1
ね 1
ㄇ 1
ㄉ 1
ㄋ 1
ㄍ 1
ㄐ 1
ㄑ 1
ㄙㄢ 1
ㄜ 1
ㄝ 1
ㄞ 1
ㄣ 1
ㄨ 1
㝷 1
㿂 1
䀚 1
䐘 1
䓬 1
䕶 1
业 1
严 1
丼 1
丽 1
举 1
义 1
习 1
书 1
亜 1
仃 1
仵 1
伉 1
传 1
佞 1
佪 1
佰 1
侗 1
侘 1
俞 1
俢 1
俸 1
倌 1
倜 1
値 1
倥 1
倩 1
债 1
倾 1
偋 1
偣 1
傋 1
储 1
傯 1
傹 1
儅 1
儈 1
儔 1
儖 1
儷 1
儻 1
兑 1
冋 1
冏 1
冢 1
冻 1
凄 1
凅 1
凑 1
処 1
凴 1
刚 1
删 1
刼 1
剂 1
剞 1
剮 1
剰 1
劂 1
办 1
务 1
匡 1
医 1
华 1
卫 1
双 1
号 1
叻 1
吆 1
吔 1
听 1
启 1
吲 1
吽 1
吿 1
呯 1
咤 1
哆 1
哌 1
啐 1
喱 1
嗄 1
嗔 1
嗞 1
嗟 1
嘣 1
嘸 1
噌 1
噙 1
噵 1
噼 1
嚀 1
嚯 1
囀 1
囈 1
囌 1
囍 1
囯 1
圆 1
圉 1
圏 1
圮 1
坄 1
坚 1
坯 1
坵 1
垏 1
垛 1
垫 1
垻 1
埗 1
埠 1
堇 1
堙 1
塭 1
墙 1
墬 1
壙 1
声 1
夀 1
奋 1
奘 1
奨 1
奻 1
妠 1
妯 1
妺 1
姱嬬 1
姶 1
娟 1
娱 1
娿 1
婕 1
媞 1
媮 1
嬅 1
嬗 1
嬡 1
宥 1
寿 1
専 1
尅 1
尓 1
尘 1
尙 1
尻 1
屄 1
屝 1
岛 1
峍 1
峛 1
峪 1
峴 1
嶋 1
巳 1
巿 1
帘 1
庄 1
庚 1
庳 1
庵 1
廩 1
廰 1
廻 1
弹 1
弹猎 1
录 1
彻 1
徦 1
徬 1
忋 1
忸 1
怏 1
怩 1
恚 1
悛 1
悦 1
惓 1
惧 1
惬 1
愄 1
慍 1
憟 1
懋 1
懐 1
扑 1
扞 1
扥 1
扦 1
报 1
抻 1
拣择 1
拥 1
挲 1
挷 1
捋 1
捚 1
掇 1
掖 1
掦 1
揆 1
揑 1
揖 1
揠 1
搽 1
摃 1
摄 1
摆 1
摖 1
撂 1
撚 1
撢 1
擻 1
擼 1
攛 1
敉 1
敕 1
斁 1
斌 1
旃 1
旎 1
旖 1
旧 1
昜 1
暦 1
暪 1
朕 1
条 1
杲 1
构 1
枒 1
枓 1
枸 1
柝 1
标 1
梉 1
椴 1
椽 1
楕 1
楸 1
榆 1
榛 1
榫 1
槪 1
槲 1
樅 1
橐籥 1
櫓 1
櫝 1
櫸 1
欉 1
殛 1
殮 1
毽 1
氅 1
氢 1
汛 1
汜 1
沅 1
沏 1
沮 1
泗 1
泮 1
洌 1
洟 1
洮 1
浚 1
浼 1
涡 1
涮 1
涿 1
淀 1
淼 1
溃 1
溘 1
漥 1
澍 1
澗 1
濒 1
濔 1
瀘 1
炯炯 1
炳 1
热 1
煨 1
煱 1
燁 1
牝 1
牾 1
犄 1
犎 1
狍 1
狭 1
獒 1
玀 1
玃 1
玖 1
珐 1
珞 1
珣 1
珥 1
珮 1
珼 1
瑚 1
瑤 1
璄 1
璉 1
璣 1
瓔 1
瓞 1
瓴 1
瓿 1
甪 1
畦 1
疪 1
痁 1
痱 1
瘉 1
瘺 1
癈 1
癔 1
癩 1
癵 1
皋 1
皓 1
皱 1
皸 1
盖 1
眊 1
眥 1
睚 1
矍鑠 1
矓 1
砒 1
砭 1
碇 1
碲 1
碸 1
磣 1
磧 1
祠 1
禀 1
秩 1
稣 1
稹 1
穠 1
窍 1
窣 1
窳 1
窸 1
竪 1
竸 1
笠 1
笹 1
筫 1
筵 1
箬 1
篆 1
篙 1
篾 1
簌 1
簟 1
簪 1
籐 1
粖 1
粧 1
粪 1
糯 1
糸 1
紿 1
絹 1
綣 1
綳 1
綷 1
緋 1
緖 1
縂 1
縊 1
縐 1
縳 1
繈 1
纈 1
纒 1
纓 1
纤 1
纪 1
纵 1
绒 1
绩 1
绪 1
绳 1
绿 1
缅 1
缉 1
缪 1
缷 1
网 1
罸 1
羶 1
翕 1
耪 1
耷 1
肮 1
肱 1
肴 1
胆 1
胍 1
胴 1
胶 1
脇 1
脗 1
腈 1
腚 1
腩 1
腼 1
膁 1
膘 1
臚 1
臧 1
舎 1
艏 1
芉 1
芦 1
芫 1
茍 1
荖 1
荽 1
莘 1
获 1
菏 1
菓 1
萩 1
葧 1
蒡 1
蓆 1
蓖 1
蔕 1
蕎 1
蕴 1
薊 1
薏 1
藿 1
蘶 1
蘸 1
蘼 1
蚝 1
蚶 1
蛸 1
蜣 1
蟆 1
蟳 1
蠋 1
蠐螬 1
蠔 1
蠵 1
衙 1
衲 1
衿 1
袂 1
袈裟 1
裊 1
褂 1
褙 1
襌 1
襠 1
覇 1
视 1
觎 1
触 1
詺 1
誑 1
誔 1
諍 1
諫 1
謢 1
謳 1
譠 1
讉 1
讞 1
讨 1
设 1
评 1
诊 1
诠 1
语 1
谈 1
谧 1
貎 1
賍 1
賡 1
贋 1
责 1
贸 1
贾 1
赠 1
赶 1
跬 1
踟 1
踡 1
踼 1
踽踽 1
蹕 1
蹚 1
躕 1
躱 1
軲 1
輞 1
轶 1
辈 1
辍 1
辐 1
辫 1
违 1
迧 1
迼 1
逄 1
选 1
逋 1
递 1
逬 1
逰 1
遥 1
邻 1
郝 1
郷 1
鄔 1
醅 1
醪 1
釒 1
釓 1
釩 1
釹 1
鈧 1
鈰 1
鈸 1
鉈 1
鉍 1
銓 1
銙 1
銣 1
鋇 1
錸 1
鍆 1
鍬 1
鏑 1
鏤 1
鏨 1
鐙 1
钱 1
钴 1
铁 1
铆 1
铠 1
锋 1
错 1
锥 1
閏 1
閩 1
闋 1
闐 1
队 1
阡 1
阶 1
陃 1
陞 1
险 1
隂 1
隄 1
隋 1
隐 1
隡 1
隴 1
雉鴴 1
雍 1
霑 1
鞏 1
鞣 1
鞥 1
韵 1
頽 1
顉 1
顥 1
颐 1
颤 1
颯 1
飊 1
风 1
飩 1
餇 1
餉 1
餋 1
餛 1
餧 1
馀 1
駄 1
駙 1
騃 1
骑 1
髙 1
鬈 1
鬩 1
鮋 1
鯕 1
鰍 1
鰤 1
鰥 1
鰮 1
鱉 1
鱼 1
鲍 1
鲸 1
鳊 1
鳍 1
鳯 1
鴐 1
鴞 1
鴣 1
鶲 1
鶼鰈 1
鷓 1
鷙 1
鸌 1
麒 1
鼯 1
鼹 1
齜 1
龄 1
﨧 1
𤔡 1
𤠣 1
madeupword0000 0
madeupword0001 0
madeupword0002 0
madeupword0003 0
