▁, 811242
s 745912
▁the 663757
▁. 642009
▁and 380846
▁to 374424
▁of 340631
▁a 305051
▁in 266835
▁that 222261
ing 186473
' 180263
▁is 169643
ed 161590
▁it 148158
▁i 138823
t 134207
▁we 117171
d 107272
▁for 105510
▁you 104205
▁this 94468
▁ 87147
ly 83815
▁be 81076
▁are 78551
▁as 74938
▁but 74679
▁on 74457
’ 74455
▁with 73390
▁have 70157
e 69582
▁so 69563
▁they 68121
▁was 64377
▁not 62020
n 58778
▁can 55298
▁" 54545
y 54230
re 51009
▁by 50419
▁at 49257
m 48172
▁an 48076
▁from 47560
▁what 47220
▁– 42685
▁or 42565
▁more 42215
▁all 42183
▁has 41891
▁? 41244
al 40676
er 40671
▁one 40430
▁there 40285
▁about 39969
▁their 39542
▁us 38559
▁will 38485
▁do 37777
▁if 35992
▁people 34772
▁would 34238
▁he 34099
▁like 32616
▁my 32499
▁when 31382
r 31063
: 31026
▁our 30240
ion 30120
c 29614
▁now 29456
▁these 29409
▁which 29274
▁world 28551
▁out 27598
▁me 27241
▁re 27230
es 27205
▁its 27029
▁just 26723
▁who 26423
ve 26013
▁up 25668
▁because 25033
▁than 24621
▁were 24548
p 24354
▁new 24255
▁them 24152
▁had 23569
or 23567
ation 23521
▁how 23506
ic 23088
▁no 22839
g 22510
▁been 22466
▁some 22303
in 21625
ri 21245
▁“ 21088
▁other 21079
b 21067
▁de 20675
▁could 20630
▁time 20572
▁even 19947
▁know 19867
▁over 19355
▁into 19285
ll 19150
▁years 19069
▁most 18881
▁very 18841
▁also 18785
le 18676
▁only 18667
▁his 18614
▁see 18430
▁un 18354
▁your 17982
an 17541
ers 17451
▁countries 17135
▁many 17075
▁get 17038
it 17026
▁think 16629
▁then 16364
▁going 16251
▁way 16021
en 15851
▁where 15771
those 15728
o 15680
i 15679
▁; 15579
▁first 15489
▁well 15306
▁much 15252
▁two 15230
▁make 15012
a 14933
ar 14849
▁economic 14792
▁should 14789
able 14738
▁really 14692
▁china 14548
w 14509
k 14490
li 14326
▁here 14271
▁work 14175
il 14123
▁don 14018
h 14014
ent 13956
ment 13684
▁e 13510
▁want 13453
▁she 13352
▁right 13312
▁st 13271
▁go 13269
▁need 13248
th 13157
▁look 12899
ur 12787
ra 12700
▁take 12668
▁global 12437
▁b 12292
▁back 12277
▁g 12210
▁c 12199
ive 12077
▁such 12043
▁government 11898
▁actually 11895
u 11777
ate 11766
ity 11739
▁things 11645
▁after 11641
ol 11429
ter 11251
▁through 11244
de 11238
▁good 11217
▁life 11205
▁may 11132
on 11123
▁political 11054
” 11028
f 10974
ro 10920
▁country 10752
▁her 10738
ch 10708
at 10707
▁growth 10480
v 10443
▁part 10374
el 10341
ne 10294
▁power 10287
ce 10283
ma 10277
▁any 10250
est 10220
▁being 10201
▁something 10078
▁end 10077
▁today 9975
▁human 9943
▁war 9941
▁little 9914
▁help 9909
l 9885
▁con 9803
▁dis 9801
ies 9781
▁” 9768
▁did 9766
▁down 9753
▁said 9717
▁d 9705
▁same 9678
▁year 9633
▁every 9628
▁why 9622
▁under 9582
▁own 9533
▁while 9521
▁use 9492
▁europe 9487
▁different 9428
ul 9390
▁say 9338
▁change 9283
▁around 9258
▁talk 9152
▁last 9141
% 9037
▁between 9014
ist 9000
0 8991
la 8908
▁system 8855
▁f 8825
▁must 8802
▁kind 8782
▁financial 8718
ck 8638
▁states 8479
▁public 8469
▁european 8463
ia 8450
▁thing 8449
▁important 8411
▁three 8379
ism 8358
▁lot 8346
ci 8280
▁come 8237
▁fact 8230
▁too 8230
▁long 8199
▁example 8184
▁become 8168
▁still 8167
▁real 8145
▁show 8106
▁great 8095
▁made 8041
▁economy 7960
▁let 7950
▁start 7826
▁might 7795
▁got 7761
▁international 7746
is 7714
▁co 7637
▁another 7532
us 7516
tic 7481
ta 7476
▁k 7475
▁united 7473
▁high 7470
min 7458
▁before 7432
▁policy 7425
▁better 7423
▁does 7359
ous 7312
▁put 7304
▁both 7302
▁day 7237
▁social 7221
ant 7219
z 7177
as 7150
fi 7121
▁support 7115
un 7026
ance 7017
▁point 7006
ary 7002
▁far 6978
▁ma 6932
▁try 6883
id 6878
sh 6824
▁ex 6820
▁less 6817
▁problem 6817
▁national 6760
▁few 6733
▁off 6701
end 6688
▁state 6683
▁america 6657
im 6646
ke 6633
x 6567
▁pro 6558
▁pre 6552
▁called 6538
▁crisis 6516
▁each 6510
▁future 6508
▁never 6496
▁find 6492
▁19 6460
age 6451
um 6402
▁large 6366
▁ca 6356
▁next 6347
▁doing 6341
▁give 6330
▁number 6307
co 6293
ence 6290
▁course 6271
▁second 6236
▁against 6224
tion 6206
less 6191
ok 6185
▁women 6185
▁eu 6136
▁without 6132
▁market 6128
▁se 6098
▁hard 6089
▁per 6086
▁since 6086
om 6076
▁president 6074
ness 6057
▁tell 6010
ad 6008
lo 5977
▁home 5967
▁place 5967
▁reason 5949
▁thank 5926
▁bank 5923
▁p 5923
▁yet 5915
po 5866
▁man 5857
▁increase 5815
▁believe 5807
▁investment 5784
ry 5777
▁call 5776
▁energy 5772
▁la 5768
ag 5766
▁com 5763
▁together 5760
ge 5735
ated 5730
▁health 5729
ty 5703
vi 5695
te 5685
▁form 5677
▁play 5677
▁question 5660
con 5659
▁him 5653
▁big 5648
▁development 5638
▁trade 5602
▁water 5586
na 5573
▁able 5572
▁ago 5564
▁process 5549
rs 5541
▁li 5536
ors 5507
▁mean 5504
▁car 5501
▁used 5495
▁school 5483
▁debt 5480
▁000 5471
mo 5463
ized 5459
ating 5458
ian 5447
▁again 5421
up 5397
▁am 5396
ful 5387
▁current 5359
▁billion 5354
▁lo 5351
▁open 5345
▁idea 5336
▁m 5321
▁data 5302
▁sp 5292
▁face 5286
me 5273
to 5261
▁million 5243
▁found 5236
▁thought 5216
▁po 5208
ect 5207
▁al 5189
▁children 5172
▁already 5155
▁indeed 5152
▁money 5149
▁often 5135
op 5124
▁r 5085
pe 5084
▁ho 5069
am 5056
▁leaders 5041
▁create 5039
▁v 5031
di 5030
▁means 5030
ize 5021
2 5018
▁didn 4995
▁t 4988
▁bo 4986
▁allow 4972
▁brain 4967
▁percent 4960
▁le 4955
▁technology 4939
▁love 4908
▁order 4891
bo 4886
▁20 4878
▁experience 4878
▁came 4872
man 4865
▁small 4853
▁mo 4844
▁ever 4834
▁started 4809
▁central 4807
▁risk 4803
▁governments 4798
▁ra 4795
▁close 4793
▁ta 4780
▁live 4763
▁result 4744
▁best 4737
be 4721
▁enough 4697
▁en 4691
▁care 4677
▁pi 4668
▁act 4664
▁understand 4651
ial 4649
▁feel 4649
▁always 4643
▁ba 4640
▁security 4634
not 4629
no 4628
bi 4622
pl 4613
▁whether 4610
▁american 4597
▁fund 4596
▁provide 4592
ish 4588
▁story 4578
8 4576
▁plan 4573
ver 4537
▁fl 4536
▁project 4515
tro 4513
▁left 4511
▁india 4509
ph 4498
1 4493
▁dur 4481
▁hope 4467
▁demand 4443
▁capital 4442
ut 4433
▁set 4426
▁times 4426
ical 4415
ru 4403
▁di 4396
▁given 4393
▁bit 4382
7 4381
▁education 4374
▁markets 4370
▁consider 4364
▁free 4363
▁middle 4359
▁recent 4356
▁low 4351
▁foreign 4348
uc 4342
▁rather 4342
tor 4340
▁pay 4338
▁climate 4314
pa 4308
▁law 4308
▁working 4306
9 4304
▁ti 4301
▁banks 4297
the 4296
▁russia 4296
▁na 4294
▁interest 4292
▁past 4284
▁problems 4279
▁hi 4276
▁side 4274
▁vi 4274
▁five 4272
cu 4260
▁case 4253
▁likely 4250
▁four 4235
▁bring 4227
▁cause 4214
▁military 4214
▁done 4210
▁information 4210
▁once 4207
▁went 4204
▁head 4193
▁view 4191
▁sh 4188
▁almost 4178
▁sense 4178
▁control 4176
▁hand 4172
▁making 4169
▁keep 4166
▁food 4159
▁share 4150
ious 4148
▁away 4145
▁rest 4140
he 4139
▁3 4138
▁rate 4125
▁old 4121
▁business 4120
▁matter 4119
ir 4112
▁young 4101
gu 4100
ip 4100
ha 4089
▁including 4088
▁w 4083
red 4072
act 4050
▁major 4044
▁within 4042
und 4040
▁2 4032
▁model 4032
▁gra 4028
▁region 4025
▁africa 4015
▁nuclear 4015
▁chinese 4005
▁turn 4004
▁japan 4000
▁space 3988
▁rates 3982
▁person 3980
ca 3979
▁though 3978
tu 3973
▁move 3963
over 3955
mi 3952
▁union 3948
▁approach 3945
▁o 3945
▁design 3933
oc 3929
▁others 3925
▁fall 3914
▁light 3911
▁policies 3910
▁em 3900
ine 3891
▁research 3891
▁across 3887
▁su 3867
▁ro 3858
▁moment 3841
▁instead 3839
ization 3837
▁community 3833
▁tax 3828
▁short 3826
▁half 3812
▁toward 3811
▁history 3808
▁companies 3805
▁imp 3799
▁difficult 3788
em 3785
ni 3775
ran 3774
▁among 3772
▁focus 3769
▁key 3767
▁sea 3759
▁lives 3758
▁building 3752
▁♫ 3752
▁pa 3745
ot 3740
▁least 3736
▁population 3736
ba 3731
ally 3724
ling 3716
▁oil 3709
▁possible 3709
▁continue 3705
ang 3703
▁increasing 3693
ber 3691
va 3690
▁certain 3680
▁men 3680
▁inter 3672
▁line 3669
▁needs 3665
▁south 3662
▁deal 3642
5 3640
▁run 3636
▁mind 3634
▁10 3629
▁whole 3615
▁strong 3609
▁economies 3603
▁hav 3597
ff 3595
▁maybe 3590
▁election 3587
▁poor 3581
▁answer 3579
▁doesn 3579
▁build 3577
▁sc 3568
▁ch 3567
ities 3566
▁needed 3561
▁wanted 3553
ti 3540
▁sure 3538
ture 3536
ud 3535
▁step 3535
▁clear 3534
▁cost 3527
ton 3523
cy 3518
led 3511
▁pass 3511
▁role 3509
ig 3504
les 3499
▁potential 3491
▁top 3489
▁bad 3484
tra 3483
▁everything 3482
▁comes 3457
▁income 3457
go 3450
▁iran 3447
▁sa 3432
▁single 3423
▁germany 3420
▁until 3418
ga 3414
▁reach 3414
▁thinking 3414
▁remain 3413
qui 3411
▁true 3411
os 3405
▁ways 3404
▁ten 3403
▁disease 3402
▁city 3400
▁science 3398
▁common 3395
▁n 3395
▁makes 3392
▁north 3388
▁sort 3385
▁looking 3377
for 3365
▁age 3357
▁cl 3351
out 3348
▁family 3345
▁action 3332
▁east 3316
▁read 3315
▁access 3314
▁test 3311
▁book 3308
▁te 3308
▁longer 3307
ap 3303
▁probably 3297
▁mis 3293
▁society 3289
ac 3287
▁! 3287
▁itself 3285
▁fear 3278
▁l 3278
▁prices 3268
▁sw 3267
▁self 3263
ach 3261
▁private 3258
▁th 3258
▁later 3248
▁monetary 3246
rr 3238
ron 3235
▁local 3228
▁non 3225
▁sub 3225
▁higher 3224
▁air 3218
▁account 3217
▁fiscal 3217
▁labor 3211
bu 3208
per 3206
4 3194
▁body 3194
ard 3186
▁themselves 3184
specially 3183
▁rise 3174
▁living 3170
▁ask 3168
▁seen 3166
▁further 3164
▁however 3163
▁lead 3163
istic 3160
▁party 3160
▁gdp 3154
▁group 3153
▁mar 3152
▁level 3151
▁report 3150
ak 3149
▁institutions 3143
▁job 3139
▁trump 3139
▁developing 3137
▁si 3114
6 3102
que 3100
▁nothing 3099
▁minister 3094
▁program 3091
getting 3086
▁met 3081
▁land 3079
▁impact 3074
ex 3069
▁post 3062
▁imagine 3060
▁main 3060
▁general 3059
▁sound 3054
3 3049
▁coming 3046
▁sector 3016
▁early 3015
▁simple 3012
▁computer 3001
gen 3000
son 2997
▁democracy 2997
▁months 2991
▁dr 2984
▁growing 2979
▁return 2979
nt 2975
▁sl 2975
▁progress 2970
fa 2963
▁da 2960
▁perhaps 2960
▁serious 2957
ative 2954
▁success 2950
▁concern 2949
ists 2947
▁planet 2938
rate 2935
▁protect 2932
one 2927
▁goal 2926
▁earth 2921
▁asia 2920
▁seems 2918
side 2916
▁address 2908
▁agreement 2905
▁natural 2905
▁conflict 2900
▁six 2897
▁wrong 2897
gg 2892
▁cut 2892
▁rights 2890
line 2888
▁bar 2886
▁offer 2886
▁walk 2880
▁complete 2879
▁study 2879
and 2875
lu 2867
▁challenge 2862
▁iraq 2861
▁days 2860
▁ju 2860
ite 2858
▁prevent 2858
▁house 2852
▁follow 2848
▁slow 2848
▁peace 2847
▁israel 2846
ible 2836
▁game 2826
▁simply 2823
ric 2815
▁reform 2814
pp 2812
▁third 2812
▁value 2804
▁room 2803
▁pe 2801
▁terms 2801
▁told 2801
▁west 2797
▁anything 2796
▁cha 2791
▁full 2783
▁mu 2782
▁systems 2781
▁mil 2775
▁words 2775
▁ha 2769
▁obama 2768
▁difference 2767
▁decades 2762
▁environment 2759
▁sign 2747
ster 2745
▁recently 2745
▁happened 2743
▁1 2741
▁became 2740
▁remember 2739
▁force 2737
▁thousand 2737
▁seem 2736
▁century 2735
▁issue 2732
▁kids 2732
▁4 2725
▁death 2714
▁super 2714
▁name 2711
▁art 2703
▁attack 2703
▁u 2698
ped 2694
▁ne 2694
▁learn 2692
▁center 2691
▁everyone 2691
▁revolution 2691
ug 2688
▁leave 2688
▁media 2688
▁stop 2685
fer 2683
ger 2679
▁movement 2678
▁asked 2677
▁heart 2668
ward 2664
▁guy 2661
▁resources 2661
▁rich 2660
▁sometimes 2660
espite 2656
▁depend 2653
▁image 2652
▁picture 2648
j 2647
▁dollars 2645
▁finally 2644
▁ja 2641
quite 2637
str 2632
▁happen 2629
▁nor 2629
▁class 2628
▁figure 2626
▁lower 2620
▁5 2619
▁produce 2619
▁cur 2617
▁else 2617
▁anti 2616
▁amount 2609
▁organ 2605
▁someone 2601
part 2599
if 2598
▁speak 2594
▁child 2593
▁eurozone 2593
ny 2588
▁along 2586
▁taking 2578
▁created 2575
▁citizens 2573
▁suggest 2572
king 2569
▁deep 2562
▁rule 2561
▁price 2560
▁j 2559
▁hold 2558
▁personal 2558
▁particularly 2557
▁spending 2556
ev 2555
▁costs 2555
ability 2554
▁fundamental 2553
we 2550
▁choice 2544
ho 2541
▁based 2538
▁relationship 2532
ner 2530
▁prop 2529
▁effective 2516
ably 2515
▁huge 2515
▁gain 2514
▁30 2513
▁position 2510
▁15 2504
▁black 2495
▁issues 2494
▁response 2493
▁similar 2491
ight 2481
▁shift 2481
▁powerful 2479
▁target 2479
ze 2478
▁front 2478
▁domestic 2477
▁watch 2476
▁inflation 2474
▁jobs 2472
▁export 2470
▁factor 2463
▁threat 2463
▁regime 2462
▁behavior 2460
▁taken 2460
han 2459
▁saw 2459
rn 2458
▁workers 2455
ten 2454
land 2452
▁accept 2449
▁modern 2449
cent 2448
▁fa 2448
▁members 2448
▁reduce 2439
▁reflect 2437
▁democratic 2435
▁machine 2435
che 2432
▁appear 2428
▁york 2427
▁thus 2426
▁remains 2425
▁ideas 2423
▁total 2421
▁began 2420
▁lack 2420
▁arm 2419
pro 2415
▁generation 2415
▁emerging 2411
hi 2409
▁opportunity 2409
way 2405
▁services 2405
▁pain 2401
▁complex 2395
▁greater 2395
do 2394
▁language 2388
▁du 2383
▁claim 2380
▁company 2377
▁pretty 2375
log 2373
▁trans 2365
ign 2361
▁gu 2360
▁hear 2360
▁france 2358
▁led 2357
▁politics 2357
▁culture 2355
▁relative 2354
vis 2353
▁beyond 2352
com 2349
▁improve 2344
▁office 2343
▁sho 2343
▁goes 2340
▁red 2339
▁average 2337
▁interesting 2337
▁pressure 2335
▁50 2333
▁benefits 2332
▁changes 2330
▁fi 2328
▁record 2327
▁western 2327
▁break 2326
▁ru 2326
ify 2325
▁pr 2323
du 2322
▁behind 2322
▁reality 2320
▁z 2319
▁add 2315
▁deficit 2315
▁finance 2315
▁happens 2315
nc 2304
▁efforts 2304
▁team 2303
▁longterm 2300
▁balance 2299
▁particular 2297
▁questions 2297
▁rules 2297
ea 2295
▁either 2295
bb 2291
▁6 2291
▁korea 2289
tri 2286
▁cap 2286
ever 2283
▁structure 2283
▁ki 2282
▁outside 2282
▁inside 2281
ise 2280
▁buy 2278
ified 2275
time 2275
▁mother 2271
▁recognize 2271
20 2270
▁cells 2269
▁period 2269
iv 2266
▁include 2265
▁standard 2262
▁arab 2261
▁entire 2258
▁cancer 2256
ain 2254
▁stand 2254
air 2253
▁areas 2253
▁yes 2250
izing 2243
▁star 2242
▁drive 2241
▁developed 2240
▁according 2239
▁ability 2238
▁grow 2236
▁join 2236
pol 2234
▁flow 2234
▁jo 2234
▁situation 2234
▁lost 2231
pi 2230
▁material 2228
▁plant 2227
▁challenges 2226
▁source 2226
▁vote 2223
▁several 2222
▁internet 2221
▁nature 2220
▁ge 2215
▁alone 2212
▁ph 2212
▁push 2210
▁broad 2209
rap 2207
ure 2202
▁students 2201
▁infrastructure 2199
▁poverty 2199
▁soon 2198
▁says 2194
day 2193
coming 2192
▁path 2190
▁represent 2190
▁music 2189
ung 2188
all 2186
▁cities 2185
▁easy 2182
▁euro 2176
▁present 2172
▁app 2170
da 2167
▁innovation 2162
▁credit 2156
▁fuel 2156
▁wi 2155
rought 2154
▁hu 2154
▁strategy 2153
▁100 2151
▁save 2151
▁forces 2148
▁won 2146
▁extreme 2143
▁stories 2143
▁individual 2142
▁exchange 2138
▁reforms 2136
▁cr 2130
▁groups 2130
▁affect 2128
▁piece 2126
▁40 2125
▁gas 2124
▁budget 2123
▁predict 2123
▁known 2122
▁ground 2116
by 2115
▁limit 2112
▁levels 2111
▁campaign 2110
fu 2109
▁type 2109
▁aid 2108
▁street 2108
ging 2107
▁wealth 2103
▁built 2098
▁avoid 2095
▁worse 2094
▁learned 2093
▁attention 2090
▁prime 2088
▁night 2084
▁explain 2079
▁violence 2076
▁woman 2072
▁saying 2071
▁mon 2067
▁normal 2064
▁scale 2064
▁former 2062
▁wide 2060
▁industry 2058
ier 2054
▁network 2054
▁risks 2046
▁sy 2046
av 2039
▁interests 2038
▁invest 2037
▁robot 2036
▁deliver 2030
▁h 2030
▁friends 2027
▁myself 2025
▁pen 2025
▁leadership 2023
▁begin 2021
▁knew 2021
▁ni 2019
▁failure 2016
▁die 2013
▁decided 2011
▁ok 2011
ically 2008
▁special 2006
▁african 2004
nder 2002
▁civil 2001
▁reserve 1999
▁sal 1997
▁successful 1997
▁currency 1995
umb 1993
▁9 1991
▁argue 1991
▁quickly 1986
▁conditions 1979
ler 1978
▁expect 1977
▁win 1977
▁exactly 1976
io 1974
▁fish 1973
▁ocean 1971
▁beginning 1969
▁cor 1969
ping 1966
▁ob 1966
▁fight 1962
▁promise 1961
▁stuff 1960
▁tend 1960
▁white 1955
▁evidence 1951
▁places 1950
▁treat 1947
▁regional 1943
▁millions 1941
▁seek 1941
▁significant 1940
▁exist 1938
ose 1936
mon 1935
▁stability 1932
▁nations 1930
ship 1928
▁green 1926
▁hit 1926
▁wait 1926
▁solution 1925
▁video 1923
▁couple 1920
▁experiment 1918
▁french 1917
row 1916
▁implement 1916
▁safe 1915
▁border 1907
▁term 1906
▁wasn 1905
▁write 1905
▁influence 1904
use 1901
▁decade 1901
▁mass 1901
▁8 1899
▁blood 1899
▁massive 1899
▁turkey 1899
▁col 1898
▁german 1897
▁chance 1895
▁bur 1893
▁debate 1893
qua 1892
▁meeting 1892
q 1891
ile 1885
▁meet 1883
▁greece 1881
▁member 1881
▁tri 1879
▁che 1877
▁kill 1876
▁prove 1869
▁develop 1867
▁field 1866
par 1862
▁sun 1862
▁draw 1861
▁area 1860
▁require 1860
mer 1859
▁week 1857
cl 1856
▁heard 1856
▁worked 1856
▁benefit 1855
▁18 1854
▁rising 1853
▁russian 1853
▁measure 1851
▁turned 1851
ab 1850
▁je 1850
▁size 1849
▁maintain 1848
▁muslim 1848
of 1846
▁bi 1846
▁americans 1845
▁rec 1845
] 1844
▁ensure 1838
▁late 1838
ep 1834
▁effects 1833
▁principle 1833
▁trust 1833
▁feeling 1831
▁investors 1831
▁outcome 1829
▁wall 1829
▁fe 1826
▁shape 1822
▁largest 1820
▁consumer 1818
▁learning 1817
ef 1816
▁hours 1815
▁fail 1814
▁traditional 1813
▁7 1812
▁practice 1812
▁effect 1811
▁voice 1811
▁gene 1810
▁micro 1809
▁respect 1809
▁whose 1809
▁dream 1808
▁administration 1806
▁seven 1802
creating 1801
au 1799
▁word 1797
▁spend 1796
▁changed 1792
▁decline 1791
▁species 1791
▁month 1789
▁british 1784
▁ban 1781
▁pakistan 1781
fl 1780
▁listen 1780
▁freedom 1778
▁palestinian 1776
▁12 1775
▁knowledge 1775
▁near 1775
▁[ 1773
▁amazing 1773
▁syria 1769
▁cell 1768
▁god 1767
▁fire 1766
▁saving 1766
▁moral 1764
▁cover 1763
▁annual 1761
▁doctor 1759
▁multi 1759
▁fast 1758
▁scientists 1758
▁lu 1757
▁road 1756
▁tu 1756
▁beautiful 1755
▁bio 1755
▁everybody 1754
▁legal 1754
press 1753
▁spread 1752
amp 1748
▁carbon 1748
▁dollar 1746
▁phone 1746
▁stay 1746
▁color 1744
lthough 1743
▁leg 1742
▁organization 1742
▁production 1740
oo 1738
▁decision 1736
▁respond 1735
▁understanding 1735
▁engineer 1734
▁lab 1734
▁environmental 1733
ged 1730
▁ourselves 1730
▁pla 1729
▁pattern 1728
▁2008 1726
▁court 1724
ium 1723
▁manage 1723
▁serve 1723
▁supply 1720
▁popular 1717
▁enter 1713
▁counter 1712
wa 1711
▁forward 1710
▁hands 1710
▁nearly 1708
▁physical 1708
▁sustainable 1707
▁fair 1706
▁equal 1705
▁eight 1703
lock 1699
▁felt 1697
▁partner 1693
fe 1692
▁paper 1690
▁federal 1689
▁function 1685
▁liberal 1685
▁technologies 1685
lar 1684
▁communities 1683
▁oh 1683
▁truth 1683
cra 1681
▁happening 1680
▁ultimate 1677
▁leading 1676
▁bush 1674
▁basic 1670
▁consequences 1668
▁qua 1665
▁fed 1662
▁industrial 1662
▁adopt 1661
▁effort 1661
▁stock 1661
▁va 1660
▁object 1659
▁moving 1657
▁gave 1656
▁parents 1656
▁above 1654
▁programs 1649
▁stage 1647
▁medical 1645
▁cases 1644
▁unemployment 1644
▁treatment 1643
▁perfect 1640
▁aim 1639
▁results 1638
right 1637
▁fun 1636
▁expand 1634
▁uk 1632
ily 1630
▁whatever 1630
▁har 1629
▁leader 1629
basically 1628
▁25 1628
▁eat 1626
▁friend 1623
▁solve 1621
van 1617
▁lose 1617
ice 1615
▁direct 1615
▁turns 1615
▁animals 1614
▁send 1614
▁link 1613
▁measures 1613
▁advanced 1612
▁gre 1611
▁teach 1610
eventually 1608
▁attempt 1608
▁spent 1608
▁politicians 1605
▁requires 1605
▁britain 1603
▁option 1602
▁pick 1600
▁fat 1590
▁raise 1590
▁father 1589
kept 1587
▁universe 1587
▁failed 1585
▁message 1583
▁critical 1581
▁vision 1580
▁port 1579
▁san 1576
▁worth 1576
▁achieve 1572
▁neighbor 1571
▁patients 1570
▁dead 1566
▁travel 1566
▁tried 1566
▁following 1565
▁capacity 1564
▁launch 1563
▁dangerous 1562
▁anyone 1561
▁university 1560
▁cooperation 1558
▁60 1556
▁para 1556
state 1555
▁pu 1555
▁decisions 1554
▁values 1553
af 1552
▁estimate 1551
▁hundreds 1551
▁boost 1550
▁demonstrat 1546
▁collapse 1545
▁protection 1545
▁clearly 1543
▁yea 1543
▁eyes 1538
▁observ 1537
▁parties 1536
set 1535
produc 1532
xi 1531
▁consumption 1528
▁weapons 1526
▁employment 1525
▁visit 1525
▁ka 1517
ja 1515
▁base 1514
▁commitment 1514
▁larger 1514
▁necessary 1512
▁collect 1511
▁drop 1509
ification 1508
▁alternative 1507
▁boy 1507
▁council 1507
▁subject 1504
▁tr 1504
▁wonder 1504
▁weeks 1502
▁couldn 1501
▁sell 1501
▁wo 1500
▁emissions 1498
▁majority 1495
▁drug 1494
▁prepar 1490
▁somebody 1490
▁tools 1490
▁positive 1489
ka 1486
▁expert 1486
▁block 1481
▁defense 1480
ulat 1479
▁putin 1479
▁wage 1478
ie 1477
ency 1475
bl 1473
▁born 1472
cur 1470
▁official 1466
▁highly 1463
▁giving 1461
▁republican 1460
▁available 1459
▁mark 1458
▁sat 1457
▁enable 1456
▁london 1456
▁map 1456
▁brazil 1455
▁officials 1454
▁stat 1453
▁lesson 1451
men 1449
▁ted 1449
▁encourage 1448
▁transform 1446
▁expected 1445
▁weak 1445
▁count 1444
lan 1443
▁productivity 1442
▁digital 1439
▁products 1438
▁cross 1434
▁profit 1433
▁gone 1430
hold 1428
based 1424
▁dark 1424
▁cop 1420
▁police 1420
port 1419
▁sudden 1418
▁teacher 1417
▁ukraine 1417
▁clean 1416
▁ignor 1416
▁$1 1415
▁individuals 1414
▁smart 1414
ther 1413
50 1410
ki 1410
▁contain 1410
▁invent 1408
▁commission 1406
▁pan 1405
▁damage 1403
▁girls 1403
▁opportunities 1400
▁task 1400
▁imf 1398
ow 1396
▁strengthen 1396
▁fix 1395
▁host 1394
▁household 1394
▁theory 1394
▁engage 1393
▁realized 1393
▁parliament 1389
▁press 1389
▁scientific 1388
▁tree 1386
▁strategic 1385
▁supposed 1381
▁blue 1380
▁running 1380
▁inequality 1379
▁wa 1379
▁asian 1378
▁advantage 1377
▁minutes 1377
/ 1376
▁drugs 1376
▁structural 1376
ov 1374
▁afghanistan 1374
▁borrow 1372
▁harm 1372
har 1371
▁argument 1370
▁conversation 1369
▁hospital 1369
ory 1368
▁threaten 1368
▁emerge 1366
▁assets 1365
▁fly 1365
▁grand 1365
▁yourself 1365
aries 1364
our 1362
tech 1362
▁film 1362
ft 1361
▁critic 1361
▁solutions 1361
▁previous 1360
▁firms 1359
▁wave 1359
▁agenda 1358
▁performance 1358
▁trillion 1357
ept 1356
▁changing 1356
▁intervention 1355
▁nu 1355
arch 1354
▁happy 1354
▁held 1353
market 1350
▁absolute 1350
▁justice 1350
▁online 1350
▁banking 1349
▁designed 1348
▁generate 1346
▁egypt 1344
▁japanese 1342
▁policymakers 1342
▁train 1341
gan 1340
▁afford 1339
▁compet 1338
▁device 1338
▁voters 1337
▁choose 1336
▁quality 1336
▁concept 1335
▁surface 1335
▁rid 1331
▁impossible 1330
▁direction 1329
ica 1326
▁crime 1324
▁okay 1324
▁trend 1324
▁protest 1322
▁sustain 1322
▁bill 1318
▁divide 1318
▁unfortunately 1318
▁organizations 1317
▁regulation 1316
▁congress 1313
▁favor 1313
▁responsibility 1313
▁sex 1313
▁suffer 1313
▁relations 1312
▁economists 1311
▁genetic 1311
▁character 1309
▁notice 1309
▁net 1305
▁rough 1305
▁discover 1303
▁200 1301
▁gap 1301
▁gold 1301
▁religious 1299
▁biggest 1297
▁realize 1297
▁scar 1297
▁service 1297
▁competition 1296
▁struggle 1296
▁prison 1293
▁shock 1292
▁pull 1289
▁ver 1289
▁audience 1288
▁families 1288
▁degree 1287
▁intelligence 1287
▁limited 1287
▁shared 1286
▁signal 1285
▁opposition 1284
▁el 1283
▁israeli 1283
▁radical 1283
▁recession 1283
▁connect 1281
▁mistake 1281
▁zero 1281
▁fo 1280
▁incentive 1278
▁cold 1276
▁initiative 1274
▁none 1273
▁faster 1268
▁kid 1268
▁globalization 1267
▁negative 1267
ular 1265
ib 1260
▁& 1258
put 1257
▁cultural 1257
▁mechanism 1257
▁operation 1257
▁agree 1256
▁dna 1256
▁indian 1256
▁skills 1256
▁sold 1256
▁contrast 1254
▁recovery 1254
▁finding 1253
▁john 1253
▁regard 1251
ble 1250
▁confront 1250
▁bla 1246
▁govern 1246
▁text 1246
mar 1245
▁urban 1244
▁list 1242
▁negotiat 1239
▁evolution 1238
▁nation 1238
▁islamic 1237
ah 1236
▁brother 1236
ou 1234
▁bri 1233
▁governance 1232
▁hy 1232
▁track 1231
▁refugees 1230
▁ball 1229
▁11 1228
▁candidate 1228
▁farm 1227
▁status 1227
▁surprise 1225
▁contract 1223
▁girl 1223
▁park 1223
▁2010 1222
▁context 1222
▁fill 1220
▁terrorist 1218
▁wrote 1218
▁transition 1217
▁rapid 1216
▁playing 1214
light 1212
wise 1212
▁below 1212
▁medicine 1212
▁charge 1210
▁board 1209
ina 1205
▁publish 1205
▁mid 1204
▁flu 1202
▁specific 1202
▁continu 1199
▁bottom 1197
▁hot 1197
▁training 1196
low 1195
▁poll 1194
▁80 1192
▁stress 1192
▁vast 1192
▁cru 1191
▁element 1191
▁ready 1191
▁kingdom 1190
stream 1189
▁corruption 1189
▁define 1189
own 1187
▁era 1186
▁involved 1186
▁italy 1185
▁ahead 1184
▁greek 1181
▁shown 1181
▁directly 1179
▁earlier 1177
▁framework 1176
▁search 1176
while 1175
▁1990 1175
▁usually 1173
▁corporate 1172
▁table 1172
off 1171
▁carry 1170
▁confidence 1169
▁purpose 1169
▁latin 1168
▁strange 1168
▁succeed 1168
▁collective 1167
▁earn 1167
▁door 1166
▁sad 1166
▁check 1165
▁meaning 1165
▁replace 1165
▁independent 1162
é 1160
▁loss 1160
▁revenue 1160
▁remov 1158
mark 1157
▁fully 1157
▁mexico 1157
▁establish 1155
▁release 1155
▁external 1154
▁cool 1152
▁societies 1151
▁bl 1150
▁saudi 1150
▁internal 1149
▁waste 1149
▁basis 1148
▁businesses 1147
▁hum 1147
▁perspective 1146
▁historical 1145
▁conference 1144
▁mere 1144
▁occur 1144
▁range 1143
grad 1142
▁doubt 1142
▁speech 1142
▁mine 1141
▁prefer 1141
▁product 1141
▁solar 1141
▁worldwide 1140
▁island 1132
▁telling 1132
▁forced 1130
▁taxes 1130
▁ice 1129
chi 1127
▁obvious 1127
arian 1126
▁negotiations 1125
ology 1124
▁bomb 1123
yearold 1122
▁advance 1122
▁essential 1122
▁sharp 1122
▁asking 1121
▁prospect 1121
▁forest 1120
lin 1119
▁0 1118
▁washington 1118
▁creation 1117
▁everywhere 1117
▁artist 1116
▁destroy 1116
▁depression 1115
▁ecb 1115
▁bonds 1113
▁mental 1113
▁worry 1113
ai 1112
car 1112
▁extra 1112
▁reject 1109
▁adapt 1108
▁treaty 1108
▁sleep 1106
▁card 1105
▁reduc 1105
▁authorities 1104
▁events 1104
▁ran 1104
▁auto 1102
▁guarantee 1102
▁wind 1102
▁adult 1100
▁code 1100
▁trouble 1099
▁interested 1097
▁mag 1097
▁bear 1096
▁site 1095
▁putting 1094
▁enjoy 1093
ju 1091
▁easily 1091
▁assume 1090
▁final 1090
▁wish 1090
▁70 1088
▁presidential 1088
▁activity 1087
▁authority 1087
▁root 1086
▁patient 1085
▁speed 1085
▁box 1084
▁chemical 1084
▁healthy 1084
▁secret 1084
▁village 1084
▁soviet 1083
app 1082
▁cheap 1082
▁himself 1080
▁survive 1079
year 1078
▁perform 1078
▁studies 1078
▁therefore 1077
▁active 1076
▁aware 1076
▁eye 1076
▁race 1075
▁import 1074
▁enormous 1073
ham 1071
▁upon 1071
cho 1070
▁17 1070
▁extend 1070
▁paris 1070
▁bra 1069
▁foundation 1069
▁integration 1069
▁sitting 1068
▁feed 1066
▁detail 1065
▁nine 1065
▁technological 1065
▁virtual 1064
▁male 1063
like 1061
▁tiny 1061
▁camp 1060
▁management 1060
▁objective 1060
▁victim 1059
▁college 1058
▁continued 1058
▁seemed 1058
▁burden 1057
▁efficient 1057
▁bigger 1056
▁continent 1056
▁determin 1056
▁trial 1056
▁morning 1055
▁connection 1052
▁severe 1051
▁unique 1051
▁discovered 1049
▁existing 1049
# 1048
▁movie 1048
▁truly 1047
▁fit 1046
▁birth 1045
▁double 1045
▁literally 1044
▁core 1042
▁identity 1042
▁photograph 1042
▁sit 1041
▁bubble 1040
▁decide 1040
▁died 1040
▁moved 1039
▁baby 1038
▁responsible 1036
▁eliminat 1035
zi 1034
▁unit 1032
▁owing 1031
▁required 1031
elect 1030
▁store 1030
▁pursu 1029
place 1028
script 1028
how 1025
▁correct 1025
fold 1024
▁associate 1024
▁facing 1024
ett 1023
▁various 1023
▁belief 1021
▁mor 1021
▁refus 1021
uff 1020
▁smaller 1020
pec 1019
▁paid 1019
▁standing 1019
▁elsewhere 1018
▁2015 1017
▁employ 1017
▁rapidly 1016
▁similarly 1016
▁colleague 1014
▁killed 1013
▁photo 1013
▁produced 1013
▁worst 1013
war 1012
▁revers 1012
▁animal 1011
▁reduction 1011
▁female 1009
hood 1008
▁collaborat 1008
▁commercial 1007
▁print 1006
▁transport 1006
▁cycle 1005
▁boom 1004
▁meant 1003
▁conduct 1002
▁mention 1002
▁religion 1002
▁breath 1001
▁express 1001
▁unlikely 998
▁army 997
▁surprising 997
▁established 996
▁sent 996
za 995
▁remind 995
▁chris 994
▁touch 993
▁wonderful 993
▁danger 992
▁english 992
▁famous 992
▁nice 992
▁socalled 991
▁reveal 990
▁crucial 988
▁otherwise 988
▁river 988
▁bodies 987
▁disaster 985
down 984
▁burn 984
▁nobody 984
▁13 983
▁summer 983
▁fu 982
▁guess 982
▁content 981
▁letter 981
▁obviously 979
▁substantial 978
▁committ 977
▁constant 977
▁wild 976
▁overall 975
▁miles 974
▁transfer 974
▁electricity 973
▁expansion 973
▁method 971
▁original 971
▁professional 971
▁subsidi 971
mple 970
▁dynamic 970
▁secure 969
win 967
▁compared 967
▁accelerat 966
▁discussion 966
either 965
phone 965
▁desire 965
▁fighting 965
▁safety 965
▁screen 965
▁convince 964
▁humanity 964
point 963
▁impose 963
▁activities 962
▁bus 962
▁bound 960
▁fine 959
▁virus 959
▁14 958
▁asset 958
▁defend 958
▁foot 958
▁arriv 956
▁inspire 956
▁attract 955
▁rare 954
▁square 953
▁additional 952
▁ke 952
▁mission 952
▁sexual 952
▁gender 950
▁independence 950
▁communication 949
▁providing 948
▁round 948
▁warming 947
▁chair 946
▁effectively 946
rg 945
▁opinion 945
▁holding 944
▁journey 944
▁proposal 944
mission 943
▁fan 943
generat 942
▁condition 942
▁elite 942
▁scan 942
▁conservative 941
▁stronger 941
▁lived 940
▁battle 938
▁incredible 938
▁match 938
▁quarter 938
▁2009 937
▁feet 937
▁mix 937
atory 933
bar 933
hu 931
cap 930
▁hundred 930
work 929
▁eastern 929
▁receive 929
temp 928
▁agreed 928
▁stem 928
▁trip 928
▁essentially 927
▁apply 926
▁isolat 924
pen 923
▁2012 923
▁throw 923
▁creative 922
▁xi 922
top 921
▁1980 921
▁memory 920
▁easier 919
▁intellectual 919
▁output 919
▁universal 919
▁vari 919
▁writing 919
▁2011 917
▁leaving 917
▁criminal 916
▁immediately 915
▁oppos 915
▁career 914
▁spain 914
▁terrorism 914
▁trigger 914
▁housing 913
▁vulnerable 913
▁bacteria 912
▁detect 912
▁stopp 912
▁summit 912
▁farmers 911
▁sky 911
▁luck 910
▁march 909
▁clinic 908
▁expensive 908
▁roll 908
▁tough 908
▁5% 907
▁capture 907
▁financing 907
▁partnership 907
▁shi 907
▁mini 905
▁prosperity 905
▁version 905
ograph 904
▁entrepreneur 904
▁insurance 904
income 903
zz 903
▁manufacturing 903
▁platform 903
▁proposed 903
▁90 902
▁pet 902
▁select 902
▁document 901
▁due 901
▁weight 901
▁ya 901
▁camera 900
▁bin 899
▁driving 899
▁surplus 899
▁weaken 899
▁deeply 897
▁16 896
▁skin 896
▁sovereign 896
lor 895
▁pop 895
▁rock 895
▁september 895
▁strength 895
▁unlike 895
▁involve 894
▁motivat 894
▁google 893
▁institutional 892
▁primary 892
▁useful 892
▁feature 889
▁rain 889
▁vital 889
▁ship 888
▁emotion 886
▁diagnos 885
gi 884
▁possibility 884
▁coordinat 883
▁importance 882
▁please 881
▁500 880
▁barack 880
▁ideal 880
▁allies 878
▁disrupt 878
▁spirit 878
distribut 877
▁instrument 877
craft 876
▁assess 876
▁consensus 876
▁evolve 876
▁sand 875
▁suffering 874
▁— 874
45 872
▁dan 870
▁initial 870
▁page 868
▁property 868
▁series 868
▁stable 868
load 867
▁interact 867
▁raised 867
▁operat 865
▁undermine 865
▁reaction 863
▁apparent 862
▁2013 861
▁favorite 861
▁nato 861
▁student 861
▁carrie 860
▁onto 860
▁visual 860
ological 859
▁math 859
▁entirely 858
▁emotional 857
▁received 857
▁reduced 857
▁victory 857
▁fossil 856
▁neuro 856
▁transformation 856
160 855
▁integrat 855
▁hiv 854
▁promote 854
▁mom 853
▁shortterm 852
▁vaccine 852
. 851
balance 850
▁coal 849
▁connected 849
▁george 849
▁promot 849
▁daughter 848
▁sch 848
▁stick 848
▁guide 847
▁korean 847
▁town 847
▁abuse 846
▁concentrat 846
▁managed 846
▁identify 845
▁alliance 843
▁crises 842
▁temperature 841
▁opt 840
▁contribut 838
▁hero 838
▁hole 838
▁react 838
▁secretary 838
$ 837
▁stake 835
▁spot 834
▁2007 833
▁2014 833
▁islam 833
▁older 833
▁chain 832
▁industries 832
▁sanctions 832
room 830
▁pose 830
▁mountain 829
▁complicated 828
▁cra 828
▁embrace 828
▁bird 826
▁elected 826
▁written 826
▁addition 825
▁australia 825
▁entr 824
▁profound 824
▁rural 823
▁democrat 822
▁excessive 820
& 819
▁2000 819
▁arabia 819
▁judge 819
▁spring 819
▁widely 819
▁fell 818
▁software 818
▁southern 818
power 817
▁participat 817
▁healthcare 816
▁named 816
▁pur 816
▁habit 815
▁zone 814
eath 812
▁understood 812
▁caus 811
▁opposite 811
▁bridge 810
▁permanent 810
▁significantly 810
▁exception 809
▁highest 809
▁diver 808
▁stimulus 808
▁magic 807
▁austerity 806
▁educat 805
▁yield 804
▁sum 803
▁extraordinary 801
▁scenario 801
ong 800
▁blind 800
▁taught 800
▁faith 799
▁hour 799
▁song 798
▁electric 796
▁ethic 796
stitution 795
▁molecule 792
▁recover 792
▁automat 791
▁corporation 791
▁investigat 790
▁neighborhood 790
▁contrary 789
▁researchers 788
▁tight 788
▁actual 787
▁constitution 787
▁ratio 787
▁soft 787
ivity 786
▁component 786
▁coalition 785
▁gather 785
▁pursue 785
▁hair 784
▁exercise 783
late 782
▁21 782
▁surround 782
▁worrie 782
▁regular 781
▁incredibly 780
▁catch 779
▁tap 779
century 778
▁syrian 778
▁technical 778
▁abandon 777
▁margin 777
▁possib 777
▁construction 776
▁logic 776
▁plastic 776
▁channel 775
▁statement 775
kin 774
▁resistance 774
▁narrative 772
▁expectations 770
▁giant 770
▁persist 770
▁survey 770
▁circle 769
▁explore 769
▁jump 768
▁grant 767
aw 766
gotten 766
▁blame 765
ko 764
meter 764
▁combination 764
▁straight 764
▁extent 763
iff 762
▁symbol 761
▁northern 760
▁perceiv 760
verse 759
▁except 759
▁competitive 758
▁purchase 758
▁contribute 757
▁controll 755
▁populist 755
▁cash 752
▁coast 752
▁immediate 752
▁insist 752
▁rais 752
▁resolve 752
spiration 751
▁equity 751
▁finish 750
▁hate 750
▁repeat 750
▁iranian 749
▁wherea 749
scale 748
▁atmosphere 748
▁chose 748
▁determine 747
▁latest 746
▁roman 746
▁terribl 746
▁whi 746
▁fortunate 745
▁losses 745
▁remarkable 745
▁uncertainty 744
▁distribution 743
▁trick 743
national 742
▁circumstances 742
▁improv 742
▁violent 742
▁ordinary 741
▁diplomatic 739
▁journalist 739
▁mobile 739
▁agriculture 738
▁bond 738
▁analysis 737
▁gradual 736
▁declare 735
▁disappear 735
▁necessar 734
▁particle 734
▁celebrat 732
▁cloud 732
▁consistent 732
▁honest 732
▁monitor 732
▁precisely 732
▁assembl 730
▁wife 730
▁broken 729
▁default 728
▁overwhelm 728
▁clinton 727
▁deeper 727
▁achieved 726
▁hamas 726
▁church 725
▁ethnic 725
▁representative 725
pacific 724
▁discuss 724
▁driver 724
▁libya 724
▁quick 724
▁window 724
▁department 723
▁drag 723
▁efficiency 723
▁crazy 722
▁surge 722
▁tradition 721
▁preserv 720
▁resolution 720
▁setting 720
back 719
▁assistance 719
▁sharing 719
▁spoke 718
▁sufficient 718
▁$2 717
▁ancient 716
▁implication 716
▁productive 716
▁article 715
▁civilian 715
▁vehicle 715
▁aspect 714
▁daily 714
sphere 713
▁crowd 713
▁heat 713
▁losing 713
▁protein 713
▁resist 713
▁review 712
water 711
▁appropriate 711
▁construct 711
▁contribution 711
▁defeat 711
▁announced 710
▁appeal 710
▁improvement 710
▁firm 709
▁reward 709
comfortable 708
▁california 708
▁practical 708
▁admit 707
▁happiness 707
graph 706
▁malaria 706
▁suit 706
▁accident 705
▁disorder 705
▁empower 705
▁infect 705
▁separate 705
▁describe 704
▁diversity 704
▁multiple 704
▁comment 703
▁master 703
▁television 703
▁wake 703
▁gun 701
▁conclude 700
▁related 700
ought 699
▁brand 699
▁dance 699
▁grown 699
long 698
some 698
▁communist 698
▁24 697
▁narrow 697
▁paul 697
▁dispute 696
▁overcome 696
▁alive 695
▁december 695
▁immigrant 695
▁somewhere 695
▁enforce 693
third 691
▁familiar 691
▁1970 690
▁enhance 690
♪ 689
▁variet 688
▁biology 686
▁nigeria 686
▁origin 686
▁wood 685
▁executive 683
▁islamist 683
▁typically 683
▁anybody 682
▁corner 682
▁brexit 681
▁enterprise 681
▁finger 681
▁forget 681
▁fourth 681
▁refugee 681
▁radio 680
▁welcome 680
▁algorithm 679
▁cast 679
▁described 679
▁heavy 679
▁twice 679
▁tv 678
▁withdraw 678
abilities 676
ack 676
▁november 676
▁supplie 676
▁architecture 675
▁capitalism 675
▁frank 675
▁interaction 675
▁blow 674
▁combined 674
▁instance 674
▁immigration 673
▁lebanon 673
▁migrant 673
▁strike 673
▁traffic 673
conscious 672
▁bias 672
▁rational 672
▁ham 671
▁2005 670
▁command 670
▁stabiliz 670
▁drink 669
▁exciting 669
▁floor 669
▁hurt 668
▁interpret 668
▁murder 668
▁spin 668
▁liquidity 666
▁professor 665
▁escape 664
▁june 664
▁biological 663
▁christian 663
▁facebook 663
▁hall 663
á 662
▁perception 661
▁sheet 661
break 660
▁anywhere 660
▁sport 660
▁lift 659
▁migration 659
▁talent 659
▁survival 658
▁compassion 656
▁urgent 656
▁engine 655
▁moon 655
▁physics 655
▁welfare 655
▁muscle 654
▁quo 654
▁196 652
▁2% 652
▁belong 652
▁consum 652
▁medium 652
▁background 649
▁bilateral 649
▁deploy 649
▁economist 649
▁equivalent 649
▁anyway 648
▁cutting 648
▁frustrat 648
▁kenya 648
▁skill 648
▁trading 647
▁compromise 646
▁conventional 646
▁interview 646
▁pollution 646
▁regulatory 646
▁advocate 645
▁application 645
spread 644
▁resource 644
▁bull 643
▁date 642
▁exploit 642
▁accus 641
▁artificial 641
▁distance 641
▁legitimacy 640
▁multilateral 640
▁agricultural 639
▁centuries 639
▁pace 639
▁settlement 639
▁operate 637
▁republic 637
▁strategies 636
▁witness 636
▁300 635
▁intention 635
▁renminbi 635
▁flood 634
▁sick 634
▁sister 634
▁cyber 633
▁missing 633
▁prize 633
gram 632
▁committee 632
▁chief 631
▁commodity 631
▁david 631
▁glass 630
▁treasur 630
▁academic 629
▁cook 629
▁newspaper 629
▁rank 629
▁abroad 628
▁percentage 628
▁2001 627
▁laugh 627
▁random 627
19 626
▁arrangement 626
▁assumption 626
▁crop 625
▁odd 625
▁technique 624
bsp 623
▁distinct 623
▁leverage 623
▁explanation 622
▁mit 622
▁sentence 621
▁separat 621
▁senior 620
▁epi 619
account 618
▁email 618
▁excited 618
position 617
▁absence 617
▁conclusion 616
▁employees 616
▁landscape 616
▁agency 615
▁frequent 614
▁macroeconomic 614
▁adjustment 612
▁communicate 612
▁devastat 612
▁peaceful 612
▁retire 612
▁unprecedented 612
▁agencies 610
▁trac 610
▁violat 610
▁dominate 608
▁anymore 607
▁constitutional 607
▁director 607
▁guard 607
▁competitiveness 606
▁destruction 606
▁ecosystem 606
▁indicate 606
▁institute 606
▁membership 604
head 603
print 603
▁author 603
▁graduate 602
▁sunni 602
▁citizen 601
▁highlight 601
▁honor 601
▁referendum 601
▁slightly 601
▁switch 601
▁capita 600
▁genuine 600
▁tissue 599
▁2006 598
▁arrest 598
▁minute 598
▁mutual 598
▁novel 598
▁reviv 597
▁acknowledge 595
▁beauty 595
▁civilization 595
▁crash 595
▁creditors 595
▁flight 595
▁gaza 595
▁edge 594
▁pension 594
▁activist 593
▁inclusive 593
well 591
▁dozen 590
▁facilitat 589
▁legislation 589
— 588
▁scene 588
▁symptom 588
▁accumulat 587
▁attitude 587
▁opponent 587
▁fresh 586
▁weakness 586
▁architect 585
▁definition 585
▁recommend 585
▁package 584
▁presidency 584
fall 582
▁comprehensive 582
▁patent 582
▁democracies 581
▁score 581
change 579
▁desperate 579
▁relevant 578
▁rescue 578
▁presence 577
board 576
▁shut 576
ologists 575
▁january 575
▁donald 574
▁greenhouse 574
▁punish 574
▁dramatic 573
▁occurred 572
▁aggressive 571
▁broke 571
▁electoral 571
▁fascinat 571
▁participation 570
▁poland 570
▁achiev 569
▁bright 569
▁deserve 569
▁peak 569
▁phase 569
▁attend 568
▁cloth 568
▁dramatically 568
▁ongoing 568
▁bone 567
▁caught 567
▁expression 567
▁sovereignty 567
▁2016 566
▁custom 566
▁genome 566
stood 565
▁illegal 565
▁obstacle 565
▁staff 565
▁deflation 564
▁ensur 564
▁transparency 564
▁canada 562
▁england 562
awa 561
▁bunch 561
▁dialogue 561
▁infection 561
▁layer 561
▁regardless 561
▁accomplish 560
▁contact 560
▁creativity 560
▁illness 560
▁venezuela 560
class 559
standing 559
▁location 559
▁renewable 559
▁rhetoric 558
▁scientist 558
▁electro 557
▁speculat 557
▁fulfill 556
▁emergency 555
▁inevitable 555
▁10% 554
▁deposit 554
▁rival 554
▁apple 553
▁insight 553
▁weather 552
american 551
▁cambridge 551
▁creature 551
▁shoot 551
▁afraid 549
▁empire 549
▁authoritarian 548
▁phenomenon 548
▁pound 548
▁prince 548
▁wisdom 548
▁museum 547
▁crack 546
▁troops 546
▁babies 545
▁innovative 545
▁noneth 545
level 544
▁poorest 544
▁1% 543
▁husband 543
▁marriage 543
▁website 543
▁argentina 542
▁delay 542
▁instability 542
▁kong 542
▁satellite 541
▁false 540
▁fashion 540
▁hong 540
▁forecast 539
▁pack 539
▁smell 539
▁accurate 538
▁painful 538
related 537
▁achievement 536
▁territory 536
▁exceed 535
▁occasion 535
▁egyptian 534
▁equality 534
volving 533
▁climb 533
▁hang 533
▁moderate 533
▁rebel 533
▁dying 532
▁prior 532
▁neurons 531
▁prevail 531
▁proportion 531
▁provision 531
▁remote 531
▁proud 530
▁sought 530
▁antibiotic 529
▁chart 529
▁excess 529
▁italian 529
▁reinforce 529
▁transaction 529
▁translate 529
▁combat 528
▁fellow 528
▁hydro 528
▁manufacture 528
▁rose 528
▁2004 527
▁privilege 527
▁robust 527
▁valuable 527
free 526
▁bold 526
▁october 526
▁priority 526
▁regulat 526
forcing 525
▁slide 525
▁stuck 525
▁specifically 524
€ 523
▁currencies 523
▁meaningful 523
▁secular 523
▁sequence 523
▁yu 522
▁display 521
▁settle 521
▁vietnam 521
ttle 520
▁courage 520
▁universities 520
▁bought 519
▁diplomacy 519
▁recognition 519
▁ambition 517
▁advice 516
▁appoint 516
▁association 516
▁division 516
▁parent 516
▁tremendous 516
▁mouth 515
▁warning 515
▁chronic 514
▁dimension 514
willingness 513
▁adjust 513
▁aggregate 513
▁error 513
▁indonesia 513
▁storm 513
▁adequate 512
▁august 511
▁disagree 510
▁mortgage 510
▁motion 510
▁quiet 510
▁wellbeing 510
▁beijing 509
▁coffee 509
maker 508
▁fertil 508
▁mandate 508
▁obligation 508
▁engagement 506
▁ruling 506
▁flaw 505
▁lawyer 505
▁sensor 505
▁sugar 505
▁establishment 504
▁oxygen 504
▁twitter 504
▁concrete 503
▁nobel 503
▁assert 502
▁2003 501
▁geopolitical 501
▁journal 501
▁confirm 500
▁credibility 500
▁legacy 500
▁merkel 500
▁applied 499
▁challenging 499
▁imagination 499
▁sample 499
▁1960 498
▁convert 498
▁scheme 498
▁typical 498
▁brutal 497
▁melt 497
▁23 495
▁35 495
▁easing 494
▁epidemic 494
▁relief 494
ibility 493
▁discipline 493
▁hunt 493
bank 492
▁destin 492
▁diverse 492
▁marine 492
▁missile 492
▁volume 492
▁attractive 491
▁fruit 491
▁terror 490
▁appreciate 489
▁gift 489
▁jewish 489
▁existence 488
carbon 487
▁immune 487
▁route 487
▁gulf 486
▁heavily 486
▁restrict 486
▁constrain 485
▁diminish 485
versus 484
▁begun 484
▁alien 483
▁tempt 483
▁equipment 482
▁implies 481
▁mount 481
▁renew 481
▁retain 481
▁valley 481
▁complain 480
▁examin 480
▁minority 480
▁panel 480
▁shadow 480
▁temporary 480
▁absorb 478
▁customers 478
▁formula 478
▁humanitarian 478
▁injur 478
▁ireland 478
▁slave 478
▁classroom 477
▁sustainability 476
▁barely 475
▁childhood 475
▁prosecut 475
▁georgia 474
▁install 474
▁mobiliz 474
▁subsequent 474
▁alarm 473
▁liquid 473
▁sentiment 473
▁compare 471
▁desert 471
▁encouraging 471
▁fantastic 471
▁foster 471
▁index 470
▁solv 470
▁solid 469
▁harvard 468
▁sight 468
▁wheel 468
▁nowadays 466
▁regulators 466
▁ambitious 465
▁taste 465
▁champion 464
▁instruct 464
▁scholar 464
▁decisionmaking 463
▁mirror 463
▁pair 463
▁allocat 462
▁legitimate 462
▁slowdown 461
▁struggling 461
▁uncertain 461
▁anticipat 460
▁silence 460
▁ceo 459
▁quantum 459
▁taiwan 459
▁brief 458
▁extract 458
know 457
▁brown 456
▁expenditure 456
▁hunger 455
▁frame 454
▁analyz 453
▁encounter 453
▁declining 452
▁$3 451
▁electronic 451
▁intense 451
▁anxiety 450
▁berlin 450
▁constraints 450
▁consciousness 449
▁trauma 449
▁compound 448
▁demographic 448
▁kremlin 448
▁procedure 448
▁surgery 448
▁1930 447
▁solidarity 447
▁taliban 447
▁judgment 446
▁primarily 446
▁bottle 445
▁hidden 445
▁evil 444
▁extremist 444
▁ski 444
▁tumor 444
▁convention 443
▁garden 443
▁metaphor 442
▁preced 442
▁grid 441
▁mitigat 440
▁reliabl 440
▁paradox 439
▁75 438
▁distort 438
▁experienc 438
▁yellow 438
definitely 437
managing 436
▁chile 436
▁gay 436
▁sophisticated 436
▁erdo 435
▁suspect 435
▁credible 434
▁supreme 434
efficient 433
government 433
▁horizon 433
▁magazine 433
▁promising 433
▁volunteer 433
▁hyper 432
▁puzzle 432
▁tomorrow 432
▁addict 431
▁visible 431
▁weird 431
intensive 430
▁breast 430
▁studied 430
house 429
▁shake 429
▁behave 428
▁twentieth 428
▁bailout 427
▁invisible 427
ğ 426
▁april 426
▁client 426
▁historic 426
claim 425
control 425
▁voting 425
▁shark 424
▁toxic 424
▁indicator 423
▁priorities 423
▁pledge 422
▁suicide 422
▁acquire 421
▁capabilities 421
▁mosquito 421
▁restaurant 421
▁dinner 420
▁execut 420
▁surveillance 420
formed 418
▁angry 418
▁corrupt 418
▁snow 418
▁club 417
▁flexible 417
▁jordan 417
▁winner 417
▁brilliant 416
▁cognitive 416
▁recruit 416
▁shrink 416
▁simpl 416
▁transparent 416
direct 415
▁cuba 415
▁restructuring 415
▁robert 415
▁sweden 415
▁modest 414
▁inevitab 413
▁somewhat 413
valuation 411
▁dress 411
▁turkish 411
▁gentle 410
▁nervous 410
▁2030 409
▁decisive 409
security 408
▁february 408
▁intelligent 408
▁occupation 408
▁plenty 408
burg 407
▁$5 407
▁horse 407
▁spanish 407
▁consult 406
▁explicit 406
▁shame 406
▁expense 405
▁permit 405
▁colombia 404
▁evaluat 404
▁proceed 404
▁ultra 404
▁arise 403
▁contradict 403
▁quote 403
▁yemen 403
▁breakthrough 402
▁compos 402
▁kilometers 402
▁minimum 402
▁repair 402
▁truck 402
▁mathematics 401
▁requirements 401
▁characteriz 400
▁jihad 400
▁psychological 400
▁rebuild 400
▁consequence 399
▁repeatedly 399
▁singapore 399
▁unexpected 399
▁routine 398
drew 397
▁elder 397
▁married 397
▁sarkozy 397
▁string 397
▁attribut 396
▁identified 396
▁request 396
▁confident 395
▁fragile 395
▁inject 395
▁convict 394
▁quantitative 394
▁struck 394
▁inadequate 393
▁orbit 393
▁stimulate 393
▁winning 393
▁comfort 392
▁nurse 392
▁plus 392
▁imperative 391
▁stretch 391
▁usual 391
▁accompani 390
▁strict 390
digit 389
▁combine 389
▁navigat 389
▁parallel 389
▁resilience 389
▁tank 389
▁palestine 388
▁possibilities 388
▁reluctan 388
▁branch 387
▁emergence 387
▁illusion 387
▁reputation 387
▁simulat 387
oriented 385
▁approve 385
▁dominant 385
▁pharmaceutical 385
▁sensitive 385
▁feedback 384
▁ideological 384
▁steel 384
▁title 383
▁unsustainable 383
▁vladimir 383
▁folks 382
▁memories 382
▁scope 381
▁possess 380
▁prohibit 380
▁distinguish 379
▁securities 378
▁fifth 377
▁nowhere 377
▁pocket 376
▁recogniz 376
▁rocket 376
▁unknown 376
▁bangladesh 375
▁conservation 375
▁instant 375
▁commit 374
▁gravity 373
▁length 373
▁plot 373
▁suppress 373
▁unusual 373
▁compris 372
▁fragment 372
▁liberat 372
word 371
▁restrictions 371
▁tragedy 371
▁weigh 371
▁amazon 370
▁discrimination 369
▁dismiss 369
▁ideology 369
▁intervene 369
▁privacy 369
▁territorial 369
▁appreciation 367
▁dignity 367
▁eradicat 367
▁smile 367
half 366
▁etc 366
▁strip 366
▁telescope 366
▁decrease 365
▁enabl 364
▁erupt 364
▁facilities 364
▁mortality 364
▁phrase 364
▁analog 363
▁empty 363
▁fiction 363
▁invasion 363
▁retail 363
▁pump 362
▁whale 362
▁condemn 361
▁constitute 361
▁dioxide 361
▁enemy 361
▁grandmother 361
▁initiat 360
▁mathematical 360
▁dilemma 359
▁mood 359
▁swa 359
liberal 358
▁converg 358
▁nutrition 358
▁workforce 358
▁dedicat 356
▁ebola 356
▁equation 356
▁exclusive 356
▁persuade 356
▁tunisia 356
▁brussels 355
▁comparison 355
▁obtain 355
▁sacrifice 355
▁silent 355
▁calculate 354
▁exhibit 354
▁spectrum 354
balancing 353
▁declaration 353
▁accord 352
▁airplane 352
▁football 351
▁jews 351
▁manifest 350
▁ownership 350
value 349
▁informal 349
▁volatility 349
char 348
▁disturb 348
▁exposure 348
▁measur 348
▁radiation 348
▁atlantic 347
▁calm 347
▁cartoon 347
▁distant 347
▁flexibility 346
▁impressive 346
▁oecd 346
▁smoke 346
▁twentyfirst 346
world 345
▁chancellor 345
▁click 345
▁dictatorship 345
▁exclud 345
▁microbes 345
▁mobility 344
▁reconstruct 344
▁bread 343
▁chicago 343
▁engaging 343
▁spill 343
▁vessel 343
▁elevat 342
▁philosophy 342
▁district 341
▁empathy 341
▁lunch 341
▁olympic 341
source 340
▁elephant 340
▁inherent 340
▁library 340
▁monkey 339
▁smooth 339
▁bargain 338
▁displaced 338
▁earthquake 338
▁taxpayers 338
▁abstract 337
▁inherit 337
▁james 336
▁optimistic 336
▁$4 335
▁extinct 335
▁transmit 335
▁neglect 334
▁concert 333
▁deliberate 333
▁geographic 333
▁sudan 333
▁unilateral 333
▁admir 332
▁pleasure 332
▁replica 332
▁dutch 331
▁happi 330
▁silicon 330
▁sweet 330
▁ethiopia 329
▁incident 329
▁protocol 329
▁residents 329
▁resort 329
calcul 328
▁copenhagen 328
▁correspond 328
▁fraction 328
▁philosopher 328
▁striking 328
country 327
▁gross 327
dimensional 326
▁ease 326
▁imperial 326
▁netherlands 326
▁circuit 325
▁excuse 325
▁ingredient 325
▁accommodat 324
▁anniversar 324
▁province 324
▁spark 324
view 323
▁generous 323
▁inclusion 323
▁thrive 322
▁chicken 321
▁depth 321
▁stupid 321
▁urge 321
▁chemistry 320
▁episode 320
▁immense 320
urgency 319
▁physician 319
▁vulnerability 319
▁congressional 318
▁drove 318
▁enemies 318
▁maximiz 318
▁section 318
▁turmoil 318
▁correlat 317
▁delhi 317
▁destabiliz 317
▁galaxy 317
▁globe 317
▁pray 317
▁teenager 317
▁devote 316
▁charles 315
▁netanyahu 315
▁rwanda 315
▁substance 315
▁venture 315
▁contemporary 314
▁halt 314
▁latter 314
▁southeast 314
▁adviser 313
▁limb 313
▁miracle 313
▁safeguard 313
front 312
▁infinite 312
▁undertake 312
▁exacerbate 311
▁filter 311
▁tobacco 311
▁tragic 311
▁calculation 310
▁locat 310
▁royal 310
▁systematic 310
atomic 309
▁communism 309
▁evident 309
▁queen 309
▁harvest 308
▁inflow 308
▁thick 308
course 307
titude 307
▁kitchen 307
▁physicist 307
▁pilot 307
border 306
spiring 306
▁2017 306
▁hezbollah 306
▁illustrate 306
▁spell 306
▁facility 305
▁predecessor 305
▁valid 305
▁afghan 304
▁animat 304
▁approval 304
▁dinosaur 304
▁lobby 304
▁suppose 304
responsibilities 303
▁fabric 303
▁thailand 303
▁entail 302
▁escalat 302
▁numero 302
european 301
▁eager 301
▁polariz 301
trapped 300
▁asylum 300
▁catastrophe 300
▁einstein 300
▁racial 300
▁alcohol 299
▁civic 299
▁fortune 299
▁moscow 299
▁herself 298
▁portugal 298
▁principal 298
▁properties 298
▁subsahara 298
▁trait 298
health 297
▁darwin 297
▁innocent 297
▁michael 297
▁psychology 297
▁spectacular 297
▁1999 296
▁controversial 296
– 295
▁choos 295
▁dictator 295
▁distress 295
▁hormone 295
▁oppress 295
▁polio 295
▁psycho 295
▁assault 294
▁genocide 294
▁predator 294
▁stateowned 294
▁undoubted 294
▁1997 293
▁tsunami 293
▁utter 293
▁flash 292
▁kosovo 292
▁prompt 292
▁quest 292
▁unfair 292
▁damaging 291
▁shanghai 291
▁teeth 291
▁compensation 290
▁manipulation 290
▁paradigm 290
receiving 289
▁closing 289
▁curiosity 289
▁exhaust 289
▁license 289
▁mubarak 288
▁qaeda 288
crisis 287
▁triumph 287
▁unleash 287
▁arguing 285
▁bolster 285
▁philippines 285
▁prominent 285
▁explosion 284
▁galaxies 284
▁neutral 284
▁periphery 284
▁threshold 284
occupied 283
▁nineteenth 283
▁twenty 283
▁victor 283
▁instinct 282
▁mammal 282
▁manipulate 282
▁1989 281
▁synthetic 281
▁tokyo 281
▁catholic 280
▁ceiling 280
▁diabetes 280
▁mexican 280
▁ministry 280
▁awesome 279
▁distract 279
▁aftermath 278
▁exploration 278
▁mediterranean 277
▁molecular 277
▁serving 277
ocracy 276
▁chapter 276
▁historian 276
▁populism 276
▁relax 276
· 275
▁precise 275
▁pregnant 275
▁prosperous 275
▁shelter 275
▁literature 274
▁poison 274
▁senator 274
▁tweet 274
▁cooperate 273
▁extensive 273
▁recipe 273
▁silk 273
▁yesterday 273
▁pipeline 272
▁virgin 272
ü 271
▁explod 271
▁optimism 271
▁rethink 271
▁vacuum 271
▁autonomy 270
▁consolidation 270
▁embedded 270
▁influential 270
▁haiti 269
▁knock 269
▁spiral 269
▁youtube 269
▁basket 268
▁laptop 268
▁plea 268
▁psychologist 268
▁column 267
▁criteria 267
▁implicit 267
▁malaysia 267
▁overlook 266
▁unemployed 266
▁computing 265
▁jerusalem 265
▁outlook 265
▁extremism 264
▁injustice 264
▁survivor 264
▁thomas 264
growth 263
▁austria 263
▁berkeley 263
▁emphasis 263
▁likelihood 263
▁problematic 263
▁texas 263
▁monopoly 262
▁register 262
▁regret 262
▁virtue 262
enhanc 261
▁differ 261
▁doctrine 261
▁profession 261
▁schedule 261
▁sensible 261
orthodox 260
▁politician 250
ó 244
ç 214
í 209
à 197
+ 190
‘ 181
▁embrac 179
ö 178
ñ 135
¥ 126
ä 113
è 96
ï 93
° 91
­ 87
ã 73
[ 70
ú 70
\ 69
£ 69
) 60
= 50
ć 48
ń 46
ô 44
ł 42
@ 35
ō 33
ê 28
š 28
• 25
( 23
ø 21
− 18
^ 17
< 16
> 16
ā 16
ž 15
ë 14
ù 13
ş 12
‒ 12
* 9
ī 9
­­ 8
â 8
î 8
č 8
_ 7
ē 7
łę 7
́ 7
“ 7
++ 6
å 6
ì 6
ū 6
̊ 6
‐ 6
â€ 5
œ 5
â 4
â€ 4
â€œ 4
ą 4
ı 4
ε 4
______ 3
________ 3
æ 3
ò 3
ż 3
ʾ 3
▁capabl 3
____ 2
_______ 2
` 2
 2
± 2
¿ 2
áš 2
ð 2
õ 2
ğış 2
ǔ 2
ș 2
อร่อย 2
⁄ 2
♫ 2
#@ 1
*©# 1
? 1
¡ 1
¢ 1
áñ 1
áč 1
â 1
çã 1
íð 1
óñ 1
û 1
ă 1
ăť 1
čá 1
ě 1
İ 1
ıç 1
ő 1
ű 1
ǐ 1
ǒ 1
ȃ 1
π 1
τ 1
φχ 1
вы 1
صيدلية 1
عسل 1
مسكين 1
مطعم 1
وله 1
प्रेम 1
ḥ 1
ẹ 1
ọ̀ 1
ứ 1
∇ 1
会 1
你会说中文吗 1
你好 1
送你葱 1
madeupword0000 0
madeupword0001 0
madeupword0002 0
madeupword0003 0
madeupword0004 0
madeupword0005 0
